{"<s>":0,"<pad>":1,"</s>":2,"<unk>":3,"<mask>":4,"!":5,"\"":6,"#":7,"$":8,"%":9,"&":10,"'":11,"(":12,")":13,"*":14,"+":15,",":16,"-":17,".":18,"/":19,"0":20,"1":21,"2":22,"3":23,"4":24,"5":25,"6":26,"7":27,"8":28,"9":29,":":30,";":31,"<":32,"=":33,">":34,"?":35,"@":36,"A":37,"B":38,"C":39,"D":40,"E":41,"F":42,"G":43,"H":44,"I":45,"J":46,"K":47,"L":48,"M":49,"N":50,"O":51,"P":52,"Q":53,"R":54,"S":55,"T":56,"U":57,"V":58,"W":59,"X":60,"Y":61,"Z":62,"[":63,"\\":64,"]":65,"^":66,"_":67,"`":68,"a":69,"b":70,"c":71,"d":72,"e":73,"f":74,"g":75,"h":76,"i":77,"j":78,"k":79,"l":80,"m":81,"n":82,"o":83,"p":84,"q":85,"r":86,"s":87,"t":88,"u":89,"v":90,"w":91,"x":92,"y":93,"z":94,"{":95,"|":96,"}":97,"~":98,"¡":99,"¢":100,"£":101,"¤":102,"¥":103,"¦":104,"§":105,"¨":106,"©":107,"ª":108,"«":109,"¬":110,"®":111,"¯":112,"°":113,"±":114,"²":115,"³":116,"´":117,"µ":118,"¶":119,"·":120,"¸":121,"¹":122,"º":123,"»":124,"¼":125,"½":126,"¾":127,"¿":128,"À":129,"Á":130,"Â":131,"Ã":132,"Ä":133,"Å":134,"Æ":135,"Ç":136,"È":137,"É":138,"Ê":139,"Ë":140,"Ì":141,"Í":142,"Î":143,"Ï":144,"Ð":145,"Ñ":146,"Ò":147,"Ó":148,"Ô":149,"Õ":150,"Ö":151,"×":152,"Ø":153,"Ù":154,"Ú":155,"Û":156,"Ü":157,"Ý":158,"Þ":159,"ß":160,"à":161,"á":162,"â":163,"ã":164,"ä":165,"å":166,"æ":167,"ç":168,"è":169,"é":170,"ê":171,"ë":172,"ì":173,"í":174,"î":175,"ï":176,"ð":177,"ñ":178,"ò":179,"ó":180,"ô":181,"õ":182,"ö":183,"÷":184,"ø":185,"ù":186,"ú":187,"û":188,"ü":189,"ý":190,"þ":191,"ÿ":192,"Ā":193,"ā":194,"Ă":195,"ă":196,"Ą":197,"ą":198,"Ć":199,"ć":200,"Ĉ":201,"ĉ":202,"Ċ":203,"ċ":204,"Č":205,"č":206,"Ď":207,"ď":208,"Đ":209,"đ":210,"Ē":211,"ē":212,"Ĕ":213,"ĕ":214,"Ė":215,"ė":216,"Ę":217,"ę":218,"Ě":219,"ě":220,"Ĝ":221,"ĝ":222,"Ğ":223,"ğ":224,"Ġ":225,"ġ":226,"Ģ":227,"ģ":228,"Ĥ":229,"ĥ":230,"Ħ":231,"ħ":232,"Ĩ":233,"ĩ":234,"Ī":235,"ī":236,"Ĭ":237,"ĭ":238,"Į":239,"į":240,"İ":241,"ı":242,"Ĳ":243,"ĳ":244,"Ĵ":245,"ĵ":246,"Ķ":247,"ķ":248,"ĸ":249,"Ĺ":250,"ĺ":251,"Ļ":252,"ļ":253,"Ľ":254,"ľ":255,"Ŀ":256,"ŀ":257,"Ł":258,"ł":259,"Ń":260,"on":261,"ca":262,"te":263,"ti":264,"ml":265,"os":266,"la":267,"80":268,"cc":269,"en":270,"li":271,"pt":272,"ept":273,"Acc":274,"Accept":275,"in":276,"ag":277,"tion":278,"ch":279,"che":280,"ht":281,"zi":282,"ost":283,"xt":284,"xml":285,"text":286,"co":287,"ro":288,"de":289,"ap":290,"lo":291,"lica":292,"app":293,"lication":294,"application":295,"no":296,"ec":297,"se":298,"ng":299,"tf":300,"cal":301,"age":302,"html":303,"host":304,"def":305,"late":306,"local":307,"localhost":308,"*;":309,"HT":310,"gzi":311,"utf":312,"Ġ(":313,"ĠK":314,"Ġx":315,"Ġno":316,"Ġutf":317,"cache":318,"deflate":319,"gzip":320,"8080":321,"ar":322,"Con":323,"ie":324,"da":325,"tro":326,"im":327,"le":328,"ma":329,"pa":330,"ent":331,"ue":332,"ser":333,"Ca":334,"En":335,"ror":336,"lla":337,"los":338,"La":339,"com":340,"ok":341,"Co":342,"okie":343,"ing":344,"ke":345,"que":346,"Mo":347,"ko":348,"con":349,"rag":350,"Ch":351,"Ag":352,"ble":353,"SE":354,"tp":355,"http":356,"pla":357,"set":358,"ID":359,"SS":360,"ux":361,"Lin":362,"nec":363,"ngu":364,"Host":365,"IO":366,"ding":367,":/":368,"clos":369,"tible":370,"like":371,"Char":372,"close":373,"trol":374,"Cache":375,"compa":376,"://":377,"*/":378,",*/":379,"Gec":380,"JSE":381,"ML":382,"NID":383,"Prag":384,"TP":385,"User":386,"png":387,"xhtml":388,"Ġen":389,"Ġtext":390,"Ġlocalhost":391,"Ġ*;":392,"ĠHT":393,"Ġdeflate":394,"Ġgzip":395,"ĠMo":396,"Ġhttp":397,"ĠLin":398,"Ġclose":399,"ĠGec":400,"ĠJSE":401,"onque":402,"zilla":403,"coding":404,"HTML":405,"ĠKonque":406,"ĠKHTML":407,"Connec":408,"image":409,"Encoding":410,"Langu":411,"Cookie":412,"control":413,"Agent":414,"plain":415,"SSIO":416,"Charset":417,"compatible":418,",*/*;":419,"Pragma":420,"ĠHTTP":421,"ĠMozilla":422,"ĠLinux":423,"ĠGecko":424,"ĠJSESSIO":425,"ĠKonqueror":426,"Connection":427,"Language":428,"ĠJSESSIONID":429,"enda":430,"tienda":431,"sp":432,"re":433,"jsp":434,"ET":435,"GET":436,"nt":437,"ub":438,"tent":439,"ww":440,"Content":441,"pub":442,"lico":443,"publico":444,"or":445,"25":446,"mb":447,"ci":448,"gi":449,"di":450,"gis":451,"rar":452,"do":453,"40":454,"27":455,"ri":456,"ur":457,"pe":458,"car":459,"len":460,"mo":461,"th":462,"for":463,"eng":464,"code":465,"form":466,"es":467,"Leng":468,"Ty":469,"Ġapplication":470,"www":471,"urlen":472,"coded":473,"Length":474,"Type":475,"urlencoded":476,"modo":477,"ST":478,"OST":479,"POST":480,"er":481,"log":482,"al":483,"ros":484,"mie":485,"mbros":486,"miembros":487,"an":488,"10":489,"cia":490,"dad":491,"mbre":492,"nombre":493,"enes":494,"rec":495,"agenes":496,"imagenes":497,"login":498,"regis":499,"trar":500,"registro":501,"29":502,"39":503,"17":504,"85":505,"io":506,"67":507,"69":508,"23":509,"63":510,"to":511,"el":512,"19":513,"47":514,"65":515,"15":516,"13":517,"87":518,"60":519,"43":520,"89":521,"ss":522,"45":523,"20":524,"as":525,"pro":526,"49":527,"83":528,"il":529,"carri":530,"carrito":531,"ED":532,"22":533,"adi":534,"ni":535,"id":536,"adir":537,"tar":538,"prec":539,"precio":540,"ion":541,"nti":542,"Re":543,"lid":544,"vin":545,"pass":546,"passw":547,"ema":548,"udad":549,"FA":550,"ccion":551,"ord":552,"cp":553,"ntc":554,"apel":555,"dni":556,"vincia":557,"password":558,"reccion":559,"ciudad":560,"direccion":561,"provincia":562,"lidos":563,"email":564,"apellidos":565,"Regis":566,"Registrar":567,"FC":568,"EC":569,"entrar":570,"FB":571,"aci":572,"EB":573,"12":574,"33":575,"aciar":576,"18":577,"75":578,"EA":579,"gif":580,"68":581,"48":582,"FD":583,"09":584,"ra":585,"28":586,"CC":587,"DB":588,"61":589,"73":590,"AA":591,"70":592,"au":593,"55":594,"79":595,"64":596,"AB":597,"DC":598,"FF":599,"11":600,"AC":601,"24":602,"50":603,"bal":604,"74":605,"14":606,"EE":607,"59":608,"AD":609,"62":610,"glo":611,"me":612,"BB":613,"global":614,"30":615,"pg":616,"cas":617,"jpg":618,"FE":619,"DD":620,"66":621,"CB":622,"253":623,"35":624,"77":625,"les":626,"88":627,"00":628,"ja":629,"44":630,"DA":631,"ac":632,"DE":633,"anadir":634,"99":635,"21":636,"canti":637,"agar":638,"cantidad":639,"BC":640,"pagar":641,"tos":642,"wd":643,"aute":644,"edi":645,"inser":646,"nticar":647,"autenticar":648,"insertar":649,"pwd":650,"mber":651,"reme":652,"sti":653,"remember":654,"16":655,"editar":656,"am":657,"+&":658,"53":659,"84":660,"Entrar":661,"AE":662,"26":663,"DF":664,"CE":665,"cor":666,"57":667,"CA":668,"sg":669,"teri":670,"vaciar":671,"den":672,"BA":673,"carac":674,"sticas":675,"teristicas":676,"caracteristicas":677,"37":678,"Msg":679,"rorMsg":680,"errorMsg":681,"90":682,"tas":683,"BE":684,"34":685,"Cre":686,"dencia":687,"incor":688,"Credencia":689,"incorrec":690,"Credenciales":691,"incorrectas":692,"BD":693,"Vaciar":694,"CD":695,"38":696,"CF":697,"58":698,"BF":699,"07":700,"AF":701,"EF":702,"46":703,"41":704,"78":705,"256":706,"05":707,"men":708,"st":709,"03":710,"ir":711,"42":712,"95":713,"81":714,"72":715,"93":716,"86":717,"76":718,"82":719,"mar":720,"inde":721,"sa":722,"index":723,"71":724,"go":725,"270":726,"56":727,"01":728,"96":729,"52":730,"06":731,"36":732,"08":733,"31":734,"54":735,"97":736,"04":737,"logo":738,"so":739,"02":740,"51":741,"lle":742,"Pas":743,"of":744,"por":745,"32":746,"94":747,"fir":748,"ta":749,"Confir":750,"Confirmar":751,"98":752,"91":753,"252":754,"92":755,"ul":756,"=%":757,"caja":758,"Pasar":759,"Calle":760,"ino":761,"vi":762,"100":763,"um":764,"off":765,"+%":766,"tu":767,"Rio":768,"--":769,"du":770,"De":771,"Rioja":772,"Man":773,"et":774,"zar":775,"250":776,"og":777,"ono":778,"Ġ2":779,"erra":780,"sali":781,"stra":782,"salir":783,"Vino":784,"Al":785,"cre":786,"2563":787,"Que":788,"nue":789,"ba":790,"fo":791,"za":792,"titu":793,"tierra":794,"titulo":795,"bul":796,"Ġ33":797,"rico":798,"stratierra":799,"nuestratierra":800,"Ġ4":801,"menum":802,"ogono":803,"chego":804,"Manchego":805,"credi":806,"Ib":807,"na":808,"auz":809,"Jam":810,"cmen":811,"va":812,"cmenbul":813,"zarauz":814,"ctos":815,"ia":816,"creditos":817,"produ":818,"productos":819,"Queso":820,"2574":821,"Sa":822,"Ġ17":823,"castro":824,"esti":825,"css":826,"ona":827,"fotos":828,"estilos":829,"ad":830,"ai":831,"ran":832,"wi":833,"aros":834,"ada":835,"bo":836,"ne":837,"ce":838,"2569":839,"asf":840,"--%":841,"Vi":842,"man":843,"2565":844,"del":845,"wide":846,"ol":847,"ler":848,"per":849,"ga":850,"ui":851,"123":852,"Ar":853,"dela":854,"un":855,"res":856,"ara":857,"cookie":858,"San":859,"110":860,"640":861,"Mar":862,"PT":863,"SC":864,"IPT":865,"mi":866,"us":867,"wai":868,"SCR":869,"tfor":870,"2529":871,"747":872,"Bar":873,"136":874,"idA":875,"Bwai":876,"Pa":877,"delay":878,"Bwaitfor":879,"104":880,"ve":881,"FN":882,"090":883,"ru":884,"Ġ43":885,"ber":886,"486":887,"Ġ38":888,"Gu":889,"aler":890,"sc":891,"ste":892,"jo":893,"Paros":894,"Tam":895,"alert":896,"Na":897,"ll":898,"Va":899,"ab":900,"623":901,"Se":902,"290":903,"is":904,"any":905,"BTam":906,"Ma":907,"Set":908,"2561":909,"BTamper":910,"be":911,"uen":912,"Ġ25":913,"Car":914,"730":915,"errorMsgA":916,"Ba":917,"271":918,"637":919,"tor":920,"ver":921,"Ro":922,"ina":923,"ex":924,"sh":925,"lan":926,"fi":927,"ora":928,"lencia":929,"amp":930,"lu":931,"221":932,"ASet":933,"130":934,"CSCR":935,"Ealert":936,"ig":937,"var":938,"2573":939,"ria":940,"ana":941,"103":942,"po":943,"uel":944,"2522":945,"2570":946,"234":947,"185":948,"660":949,"ya":950,"Pe":951,"257":952,"630":953,"cel":954,"173":955,"127":956,"Le":957,"805":958,"129":959,"167":960,"160":961,"230":962,"192":963,"8789":964,"Sant":965,"140":966,"ho":967,"rid":968,"135":969,"480":970,"183":971,"445":972,"DEA":973,"eb":974,"193":975,".+":976,"390":977,"689":978,"ida":979,"393":980,"670":981,"200":982,"Sala":983,"115":984,"650":985,"430":986,"169":987,"165":988,"285":989,"md":990,"Ġ67":991,"ier":992,"255":993,"400":994,"ript":995,"ell":996,"190":997,"153":998,"189":999,"227":1000,"685":1001,"gos":1002,"org":1003,"107":1004,"179":1005,"493":1006,"--&":1007,"celona":1008,"587":1009,"DEC":1010,"Mon":1011,"Val":1012,"bar":1013,"mer":1014,"694":1015,"199":1016,"450":1017,"459":1018,"889":1019,"Bur":1020,"vo":1021,"12640":1022,"614":1023,"253747":1024,"110253747":1025,"10412640":1026,"11025374727":1027,"1041264011025374727":1028,"Tor":1029,"800":1030,"133":1031,"494":1032,"DBB":1033,"087":1034,"443":1035,"ck":1036,"gu":1037,"je":1038,"278789":1039,"170":1040,"673":1041,"132":1042,"EDa":1043,"FAB":1044,"2529278789":1045,"1362529278789":1046,"4861362529278789":1047,"Guada":1048,"4861362529278789730":1049,"143":1050,"627":1051,"643":1052,"der":1053,"2572":1054,"409":1055,"690":1056,"157":1057,"208":1058,"490":1059,"Villa":1060,"139":1061,"147":1062,"287":1063,"In":1064,"las":1065,"2528":1066,"105":1067,"293":1068,"698":1069,"145":1070,"263":1071,"245":1072,"DFC":1073,"EFB":1074,"Fsc":1075,"To":1076,"mp":1077,"mu":1078,"paros":1079,"ago":1080,"175":1081,"850":1082,"191":1083,"600":1084,"837":1085,"144":1086,"sta":1087,"187":1088,"247":1089,"265":1090,"447":1091,"Ju":1092,"he":1093,"lia":1094,"lin":1095,"174":1096,"177":1097,"195":1098,"196":1099,"138":1100,"EDF":1101,"EBF":1102,"manca":1103,"Salamanca":1104,"/.":1105,"267":1106,"AFB":1107,"bi":1108,"cmd":1109,"ge":1110,"ka":1111,"Ġ23":1112,"279":1113,"679":1114,"607":1115,"830":1116,"ECC":1117,"EBC":1118,"124":1119,"095":1120,"280":1121,"289":1122,"680":1123,"CAD":1124,"ren":1125,"inc":1126,"203":1127,"EBB":1128,"182":1129,"644":1130,"Barcelona":1131,"180":1132,"887":1133,"Ber":1134,"BEA":1135,"Ra":1136,"hi":1137,"ld":1138,"si":1139,"178":1140,"674":1141,"via":1142,"Burgos":1143,"125":1144,"240":1145,"215":1146,"243":1147,"439":1148,"420":1149,"AFA":1150,"AFD":1151,"ADC":1152,"DED":1153,"jara":1154,"uer":1155,"273":1156,"653":1157,"686":1158,"246":1159,"amples":1160,"Guadala":1161,"163":1162,"210":1163,"223":1164,"410":1165,"639":1166,"880":1167,"975":1168,"Bo":1169,"DDC":1170,"DAC":1171,"EFA":1172,"Mad":1173,"dor":1174,"ter":1175,"2527":1176,"era":1177,"298":1178,"855":1179,"197":1180,"198":1181,"470":1182,"495":1183,"CCC":1184,"Guadalajara":1185,"775":1186,"EFC":1187,"FEA":1188,"at":1189,"fa":1190,"gar":1191,"Ġ34":1192,"tes":1193,"699":1194,"890":1195,"835":1196,"EDC":1197,"Navar":1198,"760":1199,"CFB":1200,"DFA":1201,"El":1202,"pi":1203,"qu":1204,"Ġ74":1205,"cio":1206,"405":1207,"299":1208,"474":1209,"159":1210,"873":1211,"879":1212,"435":1213,"453":1214,"241":1215,"120":1216,"225":1217,"217":1218,"CAC":1219,"Po":1220,"llo":1221,"son":1222,"859":1223,"697":1224,"155":1225,"433":1226,"488":1227,"093":1228,"122":1229,"560":1230,"779":1231,"845":1232,"AN":1233,"CFC":1234,"CAA":1235,"DAA":1236,"Ri":1237,"zo":1238,"254":1239,"258":1240,"277":1241,"677":1242,"659":1243,"150":1244,"131":1245,"134":1246,"ECE":1247,"141":1248,"355":1249,"465":1250,"663":1251,"647":1252,"BFD":1253,"Zar":1254,"ha":1255,"tt":1256,"259":1257,"276":1258,"102":1259,"235":1260,"FBC":1261,"186":1262,"188":1263,"688":1264,"242":1265,"244":1266,"EEF":1267,"621":1268,"Madrid":1269,"119":1270,"387":1271,"CEB":1272,"Del":1273,"cu":1274,"ven":1275,"des":1276,"108":1277,"292":1278,"398":1279,"693":1280,"437":1281,"899":1282,"499":1283,"128":1284,"288":1285,"DBC":1286,"616":1287,"DDE":1288,"AND":1289,"359":1290,"767":1291,"An":1292,"BAB":1293,"CDC":1294,"FED":1295,"Lu":1296,"Zam":1297,"ard":1298,"272":1299,"modoA":1300,"395":1301,"636":1302,"875":1303,"FAF":1304,"ECB":1305,"646":1306,"Navarra":1307,"820":1308,"AED":1309,"AFC":1310,"CED":1311,"DFB":1312,"EEA":1313,"Gran":1314,"IN":1315,"Pl":1316,"Ġ18":1317,"473":1318,"479":1319,"603":1320,"897":1321,"681":1322,"142":1323,"Valencia":1324,"485":1325,"ACC":1326,"BDC":1327,"EFF":1328,"FG":1329,"Ga":1330,"fe":1331,"cat":1332,"osa":1333,"ini":1334,"2567":1335,"2575":1336,"101":1337,"294":1338,"475":1339,"158":1340,"137":1341,"870":1342,"838":1343,"ECD":1344,"EBA":1345,"482":1346,"ACE":1347,"DDD":1348,"DAF":1349,"CAF":1350,"bob":1351,"agoza":1352,"Zamora":1353,"+--%":1354,"965":1355,"BFC":1356,"BCB":1357,"CEA":1358,"DEE":1359,"Ter":1360,"xy":1361,"Ġ68":1362,"Ġ72":1363,"Ġ71":1364,"oria":1365,"109":1366,"399":1367,"638":1368,"497":1369,"498":1370,"833":1371,"228":1372,"684":1373,"484":1374,"099":1375,"DBE":1376,"114":1377,"317":1378,"379":1379,"540":1380,"567":1381,"530":1382,"620":1383,"765":1384,"RO":1385,"291":1386,"69090":1387,"194":1388,"477":1389,"458":1390,"496":1391,"224":1392,"ECA":1393,"126":1394,"CCA":1395,"700":1396,"ADA":1397,"30637":1398,"BEF":1399,"260":1400,"220":1401,"715":1402,"BED":1403,"BFA":1404,"CFA":1405,"CAB":1406,"FSCR":1407,"ipt":1408,"rIPT":1409,"sca":1410,"tra":1411,"vas":1412,"809":1413,"int":1414,"Cor":1415,"doc":1416,"ura":1417,"and":1418,"675":1419,"233":1420,"634":1421,"154":1422,"895":1423,"proxy":1424,"832563":1425,"ECF":1426,"EBE":1427,"121":1428,"282":1429,"CCD":1430,"116":1431,"626":1432,"ami":1433,"vila":1434,"CSCRIPT":1435,"CSCRipt":1436,"FscrIPT":1437,"parosproxy":1438,"6909030637":1439,"FSCRIPT":1440,"832563290":1441,"6909030637832563290":1442,"118":1443,"617":1444,"773":1445,"DFD":1446,"Lle":1447,"OL":1448,"Tar":1449,"ls":1450,"ras":1451,"ves":1452,"Ġ75":1453,"cho":1454,"2564":1455,"401":1456,"403":1457,"404":1458,"295":1459,"392":1460,"438":1461,"492":1462,"EAE":1463,"CCB":1464,"EEE":1465,"FEF":1466,"CBD":1467,"name":1468,"219":1469,"467":1470,"569":1471,"665":1472,"BFF":1473,"BDD":1474,"Ce":1475,"CEC":1476,"DFF":1477,"EFD":1478,"Fe":1479,"Or":1480,"Pla":1481,"don":1482,"ki":1483,"mon":1484,"ner":1485,"ron":1486,"user":1487,"Ġ60":1488,"807":1489,"2520":1490,"2568":1491,"ani":1492,"898":1493,"FCA":1494,"EBD":1495,"682":1496,"AAF":1497,"ABA":1498,"ABC":1499,"777":1500,"Zaragoza":1501,"383":1502,"309":1503,"575":1504,"709":1505,"860":1506,"BDB":1507,"DDB":1508,"FFD":1509,"gue":1510,"mc":1511,"ua":1512,"chi":1513,"172":1514,"631":1515,"205":1516,"2055":1517,"EDD":1518,"EDE":1519,"FBF":1520,"DCB":1521,"ACF":1522,"BBA":1523,"5765":1524,"villa":1525,"Palencia":1526,"6235":1527,"023":1528,"055":1529,"166":1530,"213":1531,"323":1532,"727":1533,"AFF":1534,"AFE":1535,"BCC":1536,"FFA":1537,"bac":1538,"gen":1539,"it":1540,"qui":1541,"cha":1542,"Cam":1543,"llado":1544,"ker":1545,"857":1546,"858":1547,"635":1548,"454":1549,"456":1550,"EDB":1551,"FCF":1552,"333":1553,"181":1554,"AAA":1555,"703":1556,"12312":1557,"161":1558,"229":1559,"283":1560,"347":1561,"328":1562,"579":1563,"664":1564,"BDE":1565,"Ci":1566,"CDB":1567,"CFF":1568,"EEB":1569,"FFC":1570,"Ur":1571,"bu":1572,"by":1573,"cgi":1574,"ry":1575,"yo":1576,"ose":1577,"ares":1578,"278":1579,"rio":1580,"ess":1581,"396":1582,"854":1583,"657":1584,"658":1585,"605":1586,"609":1587,"457":1588,"EDn":1589,"ionid":1590,"FAC":1591,"FBB":1592,"FBE":1593,"334":1594,"AAB":1595,"503":1596,"146":1597,"357":1598,"ument":1599,"12312312":1600,"username":1601,"113":1602,"469":1603,"669":1604,"683":1605,"815":1606,"AEA":1607,"ADB":1608,"BEB":1609,"CDA":1610,"DAD":1611,"Gir":1612,"Qu":1613,"dy":1614,"fer":1615,"nte":1616,"ena":1617,"aga":1618,"ley":1619,"275":1620,"878":1621,"894":1622,"226":1623,"281":1624,"505":1625,"old":1626,"document":1627,"Lleida":1628,"070":1629,"050":1630,"429":1631,"563":1632,"723":1633,"867":1634,"930":1635,"9090":1636,"AR":1637,"BAD":1638,"EX":1639,"FH":1640,"Me":1641,"Par":1642,"406":1643,"408":1644,"106":1645,"476":1646,"152":1647,"877":1648,"209":1649,"FBD":1650,"EAF":1651,"FDB":1652,"AAC":1653,"AAD":1654,"799":1655,"641":1656,"ABE":1657,"ACB":1658,"DEF":1659,"Vallado":1660,"Granada":1661,"Teruel":1662,"EXEC":1663,"Valladolid":1664,"073":1665,"079":1666,"059":1667,"168":1668,"389":1669,"427":1670,"468":1671,"509":1672,"687":1673,"788":1674,"967":1675,"953":1676,"Cuen":1677,"DEB":1678,"Es":1679,"EED":1680,"EFE":1681,"Old":1682,"PU":1683,"web":1684,"Ġ5":1685,"tin":1686,"ine":1687,"ari":1688,"391":1689,"394":1690,"176":1691,"856":1692,"67234":1693,"236":1694,"876235":1695,"604":1696,"434":1697,"ECT":1698,"758":1699,"286":1700,"111":1701,"744":1702,"778":1703,"java":1704,"BCA":1705,"Santa":1706,"205567234":1707,"5765205567234":1708,"Cuenca":1709,"PUT":1710,"5765205567234876235":1711,"067":1712,"BEC":1713,"CEE":1714,"CDE":1715,"DCC":1716,"DFE":1717,"FEE":1718,"Soria":1719,"bin":1720,"ly":1721,"sch":1722,"Ġ59":1723,"806":1724,"uela":1725,"297":1726,"451":1727,"FAA":1728,"184":1729,"753":1730,"EAA":1731,"EAD":1732,"ABD":1733,"DCA":1734,"741":1735,"DAE":1736,"BCD":1737,"Juan":1738,"OLD":1739,"Girona":1740,"053":1741,"388":1742,"539":1743,"583":1744,"824":1745,"955":1746,"Av":1747,"AEE":1748,"BEE":1749,"af":1750,"ces":1751,"tr":1752,"yu":1753,"Ġ62":1754,"lio":1755,"Cas":1756,"Cant":1757,"Caste":1758,"407":1759,"602":1760,"432":1761,"891":1762,"455":1763,"204":1764,"precioA":1765,"FAD":1766,"756":1767,"EAC":1768,"FDD":1769,"AAE":1770,"FFF":1771,"841":1772,"ceres":1773,"Carre":1774,"248":1775,"367":1776,"315":1777,"313":1778,"370":1779,"377":1780,"463":1781,"547":1782,"528":1783,"613":1784,"770":1785,"817":1786,"980":1787,"947":1788,"979":1789,"959":1790,"BFE":1791,"ju":1792,"sen":1793,"ton":1794,"tal":1795,"wa":1796,"Ġ61":1797,"lor":1798,"274":1799,"loginA":1800,"296":1801,"871":1802,"601":1803,"FCB":1804,"FCC":1805,"FCE":1806,"FBA":1807,"331":1808,"FDA":1809,"FDC":1810,"DBD":1811,"FFE":1812,"ACA":1813,"ADF":1814,"BBD":1815,"DDF":1816,"AEF":1817,"govia":1818,"bak":1819,"uente":1820,"148":1821,"585":1822,"589":1823,"610":1824,"615":1825,"618":1826,"823":1827,"847":1828,"865":1829,"989":1830,"FEB":1831,"Pi":1832,"So":1833,"dro":1834,"em":1835,"hor":1836,"su":1837,"Can":1838,"402":1839,"nombreA":1840,"397":1841,"692":1842,"695":1843,"874":1844,"606":1845,"206":1846,"FCD":1847,"759":1848,"EAB":1849,"FDF":1850,"BBF":1851,"CBF":1852,"353":1853,"882":1854,"444":1855,"446":1856,"Segovia":1857,"080":1858,"063":1859,"043":1860,"117":1861,"249":1862,"419":1863,"533":1864,"783":1865,"840":1866,"885":1867,"915":1868,"943":1869,"983":1870,"973":1871,"AEC":1872,"BDA":1873,"CDF":1874,"Fer":1875,"fre":1876,"uri":1877,"853":1878,"691":1879,"231":1880,"EDA":1881,"222":1882,"FAE":1883,"797":1884,"ABF":1885,"ACD":1886,"ADD":1887,"300":1888,"442":1889,"und":1890,"039":1891,"047":1892,"319":1893,"349":1894,"318":1895,"489":1896,"580":1897,"523":1898,"546":1899,"667":1900,"619":1901,"649":1902,"780":1903,"787":1904,"813":1905,"843":1906,"849":1907,"958":1908,"976":1909,"BAE":1910,"CAE":1911,"FEC":1912,"OR":1913,"Te":1914,"asp":1915,"bre":1916,"bel":1917,"cript":1918,"dri":1919,"dra":1920,"ez":1921,"min":1922,"lar":1923,"sess":1924,"art":1925,"251":1926,"750":1927,"791":1928,"DCF":1929,"500":1930,"CBE":1931,"Bak":1932,"Inc":1933,"sessionid":1934,"085":1935,"035":1936,"327":1937,"322":1938,"324":1939,"417":1940,"460":1941,"527":1942,"720":1943,"733":1944,"716":1945,"819":1946,"AM":1947,"CFE":1948,"Da":1949,"Do":1950,"DAB":1951,"Fran":1952,"Go":1953,"Hue":1954,"Li":1955,"Sal":1956,"gro":1957,"hu":1958,"tur":1959,"van":1960,"Ġ64":1961,"ling":1962,"iel":1963,"ledo":1964,"llas":1965,"696":1966,"633":1967,"472":1968,"478":1969,"651":1970,"156":1971,"893":1972,"CCE":1973,"738":1974,"705":1975,"ABB":1976,"746":1977,"593":1978,"ADE":1979,"DDA":1980,"BCE":1981,"BCF":1982,"BAF":1983,"abria":1984,"033":1985,"064":1986,"037":1987,"112":1988,"375":1989,"368":1990,"350":1991,"428":1992,"421":1993,"549":1994,"612":1995,"710":1996,"919":1997,"960":1998,"909":1999,"935":2000,"Alica":2001,"Be":2002,"Bu":2003,"BFB":2004,"CFD":2005,"CBB":2006,"FRO":2007,"Ja":2008,"Mi":2009,"Ve":2010,"rm":2011,"laci":2012,"dia":2013,"all":2014,"232":2015,"876":2016,"431":2017,"892":2018,"491":2019,"illo":2020,"CCF":2021,"558":2022,"DCE":2023,"590":2024,"305":2025,"Toledo":2026,"FROM":2027,"009":2028,"077":2029,"339":2030,"385":2031,"365":2032,"411":2033,"519":2034,"545":2035,"566":2036,"535":2037,"719":2038,"839":2039,"811":2040,"821":2041,"939":2042,"AEB":2043,"BAA":2044,"bur":2045,"ero":2046,"her":2047,"rf":2048,"tan":2049,"Ġ41":2050,"oso":2051,"802":2052,"808":2053,"ente":2054,"Las":2055,"171":2056,"202":2057,"284":2058,"DBA":2059,"732":2060,"550":2061,"790":2062,"BBE":2063,"CBA":2064,"CBC":2065,"881":2066,"782":2067,"051":2068,"Vila":2069,"Tarrag":2070,"Huesca":2071,"Alicante":2072,"048":2073,"057":2074,"360":2075,"343":2076,"344":2077,"415":2078,"462":2079,"525":2080,"510":2081,"625":2082,"729":2083,"785":2084,"769":2085,"718":2086,"863":2087,"812":2088,"940":2089,"969":2090,"933":2091,"984":2092,"957":2093,"BDF":2094,"Cer":2095,"ER":2096,"Jo":2097,"Jose":2098,"Ne":2099,"ban":2100,"jar":2101,"lon":2102,"sco":2103,"Ġ63":2104,"Ġ58":2105,"Ġ256":2106,"reto":2107,"doba":2108,"896":2109,"452":2110,"207":2111,"832":2112,"836":2113,"acion":2114,"DBF":2115,"737":2116,"DCD":2117,"502":2118,"BBB":2119,"308":2120,"216":2121,"rememberA":2122,"534":2123,"CEF":2124,"BAK":2125,"Ġ249":2126,"Cantabria":2127,"Tarragona":2128,"+-":2129,"+.":2130,"065":2131,"049":2132,"022":2133,"162":2134,"214":2135,"340":2136,"310":2137,"363":2138,"311":2139,"374":2140,"321":2141,"449":2142,"464":2143,"629":2144,"745":2145,"784":2146,"985":2147,"970":2148,"937":2149,"Bcat":2150,"Fpassw":2151,"FFB":2152,"Fet":2153,"Gi":2154,"az":2155,"gra":2156,"ral":2157,"sy":2158,"tz":2159,"tre":2160,"ye":2161,"tel":2162,"archi":2163,"mas":2164,"671":2165,"678":2166,"237":2167,"238":2168,"151":2169,"608":2170,"831":2171,"EDo":2172,"755":2173,"FDE":2174,"708":2175,"793":2176,"508":2177,"BBC":2178,"006":2179,"007":2180,"371":2181,"072":2182,"sty":2183,"joz":2184,"exec":2185,"file":2186,"Fpasswd":2187,"Fetc":2188,"archivo":2189,"029":2190,"018":2191,"016":2192,"149":2193,"211":2194,"380":2195,"345":2196,"320":2197,"312":2198,"440":2199,"423":2200,"487":2201,"513":2202,"573":2203,"717":2204,"713":2205,"789":2206,"762":2207,"848":2208,"910":2209,"987":2210,"920":2211,"948":2212,"911":2213,"950":2214,"977":2215,"Bada":2216,"EEC":2217,"For":2218,"Her":2219,"Pal":2220,"bon":2221,"mag":2222,"sec":2223,"vio":2224,"ws":2225,"wor":2226,"yn":2227,"Ġ46":2228,"801":2229,"dan":2230,"let":2231,"Cal":2232,"rea":2233,"ret":2234,"nto":2235,"2540":2236,"2578":2237,"655":2238,"834":2239,"752":2240,"551":2241,"556":2242,"557":2243,"559":2244,"886":2245,"990":2246,"905":2247,"908":2248,"346":2249,"581":2250,"INC":2251,"back":2252,"Castell":2253,"Badajoz":2254,"069":2255,"075":2256,"239":2257,"269":2258,"266":2259,"326":2260,"520":2261,"544":2262,"743":2263,"722":2264,"712":2265,"810":2266,"988":2267,"Aur":2268,"Aalert":2269,"Fon":2270,"Gar":2271,"Is":2272,"JECT":2273,"Lo":2274,"Los":2275,"Por":2276,"PAR":2277,"bro":2278,"bas":2279,"bra":2280,"dre":2281,"ger":2282,"ii":2283,"ix":2284,"net":2285,"san":2286,"zu":2287,"Ġ39":2288,"Ġ73":2289,"803":2290,"chez":2291,"ubi":2292,"dir":2293,"851":2294,"471":2295,"330":2296,"336":2297,"337":2298,"751":2299,"611":2300,"707":2301,"642":2302,"301":2303,"302":2304,"354":2305,"356":2306,"000":2307,"javas":2308,"378":2309,"902":2310,"907":2311,"076":2312,"script":2313,"Ġ255":2314,"lude":2315,"ierra":2316,"Torre":2317,"include":2318,"INJECT":2319,"Plaza":2320,"ground":2321,"style":2322,"secreto":2323,"background":2324,"Aurl":2325,"PARAM":2326,"javascript":2327,"INJECTED":2328,"040":2329,"089":2330,"030":2331,"038":2332,"369":2333,"425":2334,"483":2335,"422":2336,"818":2337,"913":2338,"945":2339,"968":2340,"961":2341,"Ast":2342,"Ben":2343,"Di":2344,"Esp":2345,"Fuente":2346,"No":2347,"Ta":2348,"Vir":2349,"cf":2350,"han":2351,"hac":2352,"ku":2353,"ns":2354,"ny":2355,"pr":2356,"pin":2357,"rdoba":2358,"sim":2359,"Ġ250":2360,"804":2361,"lis":2362,"are":2363,"dal":2364,"ric":2365,"852":2366,"676":2367,"481":2368,"736":2369,"702":2370,"555":2371,"597":2372,"598":2373,"amar":2374,"376":2375,"901":2376,"904":2377,"052":2378,"Ġ248":2379,"Ġ259":2380,"045":2381,"083":2382,"068":2383,"084":2384,"058":2385,"164":2386,"413":2387,"466":2388,"426":2389,"529":2390,"517":2391,"568":2392,"570":2393,"577":2394,"648":2395,"728":2396,"711":2397,"829":2398,"822":2399,"866":2400,"929":2401,"949":2402,"918":2403,"944":2404,"926":2405,"934":2406,"946":2407,"942":2408,"981":2409,"Ap":2410,"Ale":2411,"Ant":2412,"BAC":2413,"Cu":2414,"CDD":2415,"Pon":2416,"ctor":2417,"ete":2418,"ira":2419,"jon":2420,"tw":2421,"ug":2422,"tera":2423,"ene":2424,"lina":2425,"loca":2426,"ento":2427,"2562":2428,"672":2429,"652":2430,"apellidosA":2431,"096":2432,"731":2433,"734":2434,"504":2435,"303":2436,"884":2437,"991":2438,"998":2439,"572":2440,"956":2441,"Plza":2442,"-%":2443,"027":2444,"013":2445,"060":2446,"074":2447,"044":2448,"081":2449,"218":2450,"262":2451,"316":2452,"412":2453,"565":2454,"543":2455,"584":2456,"662":2457,"740":2458,"768":2459,"748":2460,"774":2461,"766":2462,"827":2463,"814":2464,"844":2465,"927":2466,"912":2467,"966":2468,"900":2469,"978":2470,"Bor":2471,"Cru":2472,"Cscript":2473,"Edocument":2474,"Flo":2475,"Fcookie":2476,"Fcgi":2477,"Fhac":2478,"Gui":2479,"He":2480,"Ho":2481,"Mas":2482,"Ru":2483,"Ser":2484,"Sierra":2485,"Za":2486,"cl":2487,"dos":2488,"ms":2489,"mil":2490,"rie":2491,"tti":2492,"val":2493,"Ġ65":2494,"Ġ66":2495,"one":2496,"char":2497,"seo":2498,"das":2499,"mati":2500,"Casti":2501,"Coru":2502,"dio":2503,"4040":2504,"094":2505,"735":2506,"704":2507,"554":2508,"794":2509,"795":2510,"306":2511,"307":2512,"351":2513,"358":2514,"888":2515,"cantidadA":2516,"amon":2517,"536":2518,"842":2519,"571":2520,"576":2521,"906":2522,"386":2523,"952":2524,"931":2525,"soy":2526,"Ġ263":2527,"Maria":2528,"steal":2529,"Sevilla":2530,"Ġ251":2531,"examp":2532,"Fscript":2533,"urias":2534,"Asturias":2535,"location":2536,"Fcookiesteal":2537,"Fhacker":2538,"example":2539,"010":2540,"019":2541,"020":2542,"014":2543,"066":2544,"021":2545,"268":2546,"361":2547,"314":2548,"362":2549,"384":2550,"416":2551,"512":2552,"518":2553,"561":2554,"645":2555,"668":2556,"624":2557,"763":2558,"869":2559,"974":2560,"914":2561,"Fi":2562,"Huel":2563,"Il":2564,"LE":2565,"Lla":2566,"Mer":2567,"Sar":2568,"bla":2569,"cer":2570,"ff":2571,"fran":2572,"gan":2573,"ky":2574,"ote":2575,"oli":2576,"par":2577,"can":2578,"tella":2579,"lie":2580,"cher":2581,"mad":2582,"rez":2583,"uren":2584,"656":2585,"ill":2586,"ntcA":2587,"091":2588,"506":2589,"992":2590,"993":2591,"846":2592,"582":2593,"Huelva":2594,"/_":2595,"017":2596,"088":2597,"026":2598,"325":2599,"448":2600,"548":2601,"564":2602,"524":2603,"514":2604,"526":2605,"661":2606,"725":2607,"714":2608,"883":2609,"828":2610,"864":2611,"816":2612,"923":2613,"924":2614,"962":2615,"982":2616,"Bal":2617,"Eu":2618,"Fa":2619,"Gra":2620,"Oli":2621,"Ros":2622,"Si":2623,"Tra":2624,"ed":2625,"fu":2626,"far":2627,"gr":2628,"gon":2629,"gas":2630,"ham":2631,"iz":2632,"iro":2633,"kin":2634,"mos":2635,"ming":2636,"sal":2637,"ty":2638,"tte":2639,"Ġ70":2640,"Ġ57":2641,"Ġ242":2642,"apa":2643,"ses":2644,"lero":2645,"Agu":2646,"ane":2647,"632":2648,"654":2649,"201":2650,"Real":2651,"emailA":2652,"335":2653,"552":2654,"501":2655,"591":2656,"594":2657,"595":2658,"596":2659,"599":2660,"772":2661,"004":2662,"008":2663,"995":2664,"997":2665,"531":2666,"532":2667,"903":2668,"341":2669,"078":2670,"056":2671,"954":2672,"932":2673,"Ġ247":2674,"Ġ265":2675,"Ġ260":2676,"Ġ243":2677,"Ġ245":2678,"Ġ262":2679,"Ġ254":2680,"vera":2681,"Rodri":2682,"Pedro":2683,"Lugo":2684,"Carrer":2685,"Franci":2686,"*+":2687,"046":2688,"082":2689,"212":2690,"329":2691,"364":2692,"424":2693,"515":2694,"622":2695,"739":2696,"749":2697,"764":2698,"721":2699,"922":2700,"938":2701,"Ab":2702,"Aven":2703,"Far":2704,"Gen":2705,"LI":2706,"Lar":2707,"Puer":2708,"Web":2709,"br":2710,"bs":2711,"blo":2712,"dE":2713,"esp":2714,"hal":2715,"ito":2716,"jos":2717,"ment":2718,"mor":2719,"nar":2720,"nan":2721,"samples":2722,"tv":2723,"we":2724,"cam":2725,"laga":2726,"lino":2727,"colo":2728,"nova":2729,"nge":2730,"mac":2731,"rell":2732,"ciano":2733,"dniA":2734,"direccionA":2735,"092":2736,"507":2737,"666":2738,"352":2739,"441":2740,"994":2741,"342":2742,"586":2743,"031":2744,"951":2745,"936":2746,"sad":2747,"Almer":2748,"Albac":2749,"mann":2750,"usu":2751,"bert":2752,"examples":2753,"land":2754,"Quint":2755,"horas":2756,"Francisco":2757,"Avenida":2758,"Albacete":2759,"025":2760,"011":2761,"261":2762,"348":2763,"366":2764,"461":2765,"414":2766,"574":2767,"761":2768,"726":2769,"826":2770,"964":2771,"916":2772,"986":2773,"Ad":2774,"Gal":2775,"Hu":2776,"LET":2777,"Mu":2778,"Nu":2779,"On":2780,"Pin":2781,"Sol":2782,"ate":2783,"ach":2784,"bor":2785,"dk":2786,"gre":2787,"gui":2788,"hen":2789,"ic":2790,"kar":2791,"mel":2792,"nie":2793,"od":2794,"vti":2795,"vel":2796,"wil":2797,"Ġ253":2798,"Ġ44":2799,"Ġ252":2800,"onso":2801,"agu":2802,"eck":2803,"pan":2804,"Camp":2805,"rist":2806,"provinciaA":2807,"338":2808,"ray":2809,"792":2810,"798":2811,"592":2812,"304":2813,"001":2814,"005":2815,"538":2816,"381":2817,"036":2818,"uig":2819,"linda":2820,"And":2821,"Camino":2822,"Ciudad":2823,"Anton":2824,"Puerto":2825,"+*+":2826,"015":2827,"511":2828,"562":2829,"588":2830,"861":2831,"862":2832,"917":2833,"963":2834,"971":2835,"Ay":2836,"DRO":2837,"HER":2838,"Isa":2839,"KE":2840,"Llo":2841,"LECT":2842,"Ouren":2843,"RS":2844,"Sp":2845,"Sim":2846,"TAB":2847,"USE":2848,"WHER":2849,"ala":2850,"aju":2851,"bb":2852,"bl":2853,"cn":2854,"cen":2855,"cin":2856,"cur":2857,"dar":2858,"die":2859,"gl":2860,"gal":2861,"hol":2862,"ica":2863,"ita":2864,"mun":2865,"pol":2866,"tri":2867,"uy":2868,"wen":2869,"indo":2870,"agra":2871,"htm":2872,"novi":2873,"sey":2874,"ardo":2875,"datos":2876,"leta":2877,"ueva":2878,"SELECT":2879,"ther":2880,"872":2881,"436":2882,"nico":2883,"ciudadA":2884,"098":2885,"auto":2886,"553":2887,"742":2888,"776":2889,"DELET":2890,"pwdA":2891,"ament":2892,"071":2893,"032":2894,"sof":2895,"ofer":2896,"vide":2897,"ett":2898,"Ġ264":2899,"mira":2900,"ster":2901,"liano":2902,"hiper":2903,"arios":2904,"Virgen":2905,"LIKE":2906,"usuarios":2907,"DROP":2908,"Ourense":2909,"TABLE":2910,"USERS":2911,"WHERE":2912,"DELETE":2913,"*%":2914,"062":2915,"418":2916,"522":2917,"541":2918,"628":2919,"868":2920,"941":2921,"972":2922,"=*":2923,"Bi":2924,"Bas":2925,"Cap":2926,"Cub":2927,"Er":2928,"Est":2929,"Je":2930,"Mal":2931,"Pu":2932,"Pad":2933,"Puig":2934,"Tr":2935,"ano":2936,"bri":2937,"bia":2938,"cos":2939,"cla":2940,"dj":2941,"gg":2942,"gs":2943,"har":2944,"jan":2945,"lc":2946,"mk":2947,"mul":2948,"mini":2949,"pen":2950,"tn":2951,"vie":2952,"vil":2953,"ze":2954,"zca":2955,"Ġ270":2956,"Ġ244":2957,"tero":2958,"tell":2959,"enla":2960,"line":2961,"pal":2962,"Cala":2963,"llar":2964,"rer":2965,"rera":2966,"ntament":2967,"mbra":2968,"cial":2969,"dis":2970,"riz":2971,"anes":2972,"4755":2973,"EDs":2974,"754":2975,"701":2976,"aun":2977,"796":2978,"996":2979,"781":2980,"786":2981,"ston":2982,"gol":2983,"Manuel":2984,"Ġ269":2985,"Alde":2986,"bay":2987,"ador":2988,"ney":2989,"uis":2990,"she":2991,"Vall":2992,"Villar":2993,"Campo":2994,"Carretera":2995,"Doctor":2996,"lacios":2997,"Cruz":2998,"Illes":2999,"Traves":3000,"ajuntament":3001,".%":3002,"012":3003,"028":3004,"061":3005,"024":3006,"041":3007,"042":3008,"264":3009,"724":3010,"928":3011,"921":3012,"Ame":3013,"Cla":3014,"Esc":3015,"Fab":3016,"Pro":3017,"Pet":3018,"Ron":3019,"Su":3020,"Sil":3021,"Sagra":3022,"ay":3023,"ben":3024,"bes":3025,"bet":3026,"bus":3027,"cr":3028,"cv":3029,"ev":3030,"gh":3031,"ges":3032,"gran":3033,"jas":3034,"ps":3035,"pre":3036,"rs":3037,"rin":3038,"sl":3039,"sr":3040,"sz":3041,"sar":3042,"ud":3043,"uk":3044,"wo":3045,"zan":3046,"Ġ77":3047,"Ġ37":3048,"Ġ42":3049,"Ġ246":3050,"ong":3051,"tec":3052,"lado":3053,"infor":3054,"api":3055,"sel":3056,"leares":3057,"pain":3058,"uez":3059,"Cami":3060,"gio":3061,"doro":3062,"ris":3063,"mobi":3064,"the":3065,"anne":3066,"1031":3067,"3973":3068,"2387":3069,"ssa":3070,"4927":3071,"Rey":3072,"FAz":3073,"cpA":3074,"passwordA":3075,"332":3076,"706":3077,"771":3078,"537":3079,"382":3080,"054":3081,"vic":3082,"Ques":3083,"zaro":3084,"bot":3085,"Vizca":3086,"Arro":3087,"Martin":3088,"Paseo":3089,"May":3090,"Ġ257":3091,"Ġ258":3092,"Baleares":3093,"Valle":3094,"Ġ231":3095,"Ġ236":3096,"Feli":3097,"monte":3098,"aniz":3099,"violeta":3100,"nsf":3101,"App":3102,"Ponte":3103,"informati":3104,"Vizcaya":3105,"034":3106,"086":3107,"373":3108,"825":3109,"At":3110,"Au":3111,"Ali":3112,"Ang":3113,"Adel":3114,"Bon":3115,"Blan":3116,"Blas":3117,"Cin":3118,"Cec":3119,"Don":3120,"Este":3121,"Fuen":3122,"Gor":3123,"Ger":3124,"II":3125,"Ig":3126,"Les":3127,"Pue":3128,"Per":3129,"Pel":3130,"Plan":3131,"Qui":3132,"Res":3133,"Samples":3134,"Tene":3135,"Ver":3136,"cy":3137,"dina":3138,"eg":3139,"fr":3140,"fan":3141,"gor":3142,"guer":3143,"hn":3144,"hard":3145,"iti":3146,"ila":3147,"jet":3148,"mm":3149,"mes":3150,"mus":3151,"nz":3152,"nal":3153,"ph":3154,"pu":3155,"ple":3156,"sdk":3157,"ula":3158,"wf":3159,"win":3160,"wal":3161,"xi":3162,"zr":3163,"Ġ55":3164,"Ġ56":3165,"ten":3166,"tet":3167,"tico":3168,"lada":3169,"8071":3170,"inter":3171,"chu":3172,"china":3173,"chea":3174,"coa":3175,"cocolo":3176,"dera":3177,"lez":3178,"uelas":3179,"Cast":3180,"Casa":3181,"llan":3182,"quer":3183,"SSamples":3184,"2500":3185,"rique":3186,"riba":3187,"rife":3188,"espa":3189,"6714":3190,"2381":3191,"1904":3192,"ash":3193,"757":3194,"6844":3195,"4845":3196,"mez":3197,"casa":3198,"002":3199,"003":3200,"578":3201,"dun":3202,"Ġ261":3203,"Alf":3204,"Alcal":3205,"Santi":3206,"Mart":3207,"Barri":3208,"Pala":3209,"bella":3210,"Monte":3211,"barcelona":3212,"Torres":3213,"6436":3214,"Ġ238":3215,"travioleta":3216,"andre":3217,"guez":3218,"ession":3219,"Castro":3220,"lacion":3221,"Joan":3222,"Merca":3223,"Quintana":3224,"cincocolo":3225,"softw":3226,"Travesia":3227,"IISSamples":3228,"cincocolores":3229,"516":3230,"542":3231,"925":3232,"Aba":3233,"Aran":3234,"Br":3235,"Dan":3236,"Hor":3237,"Ll":3238,"Men":3239,"Mur":3240,"Ni":3241,"Ram":3242,"Sen":3243,"TE":3244,"Ti":3245,"Ya":3246,"ali":3247,"ale":3248,"ama":3249,"ant":3250,"aje":3251,"cs":3252,"clo":3253,"eu":3254,"gun":3255,"hy":3256,"ise":3257,"illa":3258,"ire":3259,"ji":3260,"jor":3261,"kr":3262,"my":3263,"mir":3264,"nc":3265,"np":3266,"om":3267,"op":3268,"pm":3269,"qa":3270,"sb":3271,"sj":3272,"sn":3273,"sla":3274,"tE":3275,"ut":3276,"vent":3277,"Ġ8":3278,"Ġ241":3279,"ones":3280,"cala":3281,"tivo":3282,"osti":3283,"lad":3284,"laz":3285,"entes":3286,"lig":3287,"liz":3288,"chin":3289,"col":3290,"dez":3291,"nor":3292,"sex":3293,"ario":3294,"iego":3295,"dalu":3296,"lee":3297,"lera":3298,"uero":3299,"Mora":3300,"rei":3301,"rero":3302,"rella":3303,"nta":3304,"ntas":3305,"mbo":3306,"cios":3307,"4027":3308,"4059":3309,"rich":3310,"pez":3311,"esc":3312,"rosa":3313,"2911":3314,"2984":3315,"6927":3316,"2389":3317,"1909":3318,"4759":3319,"4795":3320,"6040":3321,"ssat":3322,"4528":3323,"4949":3324,"illi":3325,"illos":3326,"acio":3327,"4865":3328,"097":3329,"aud":3330,"1113":3331,"2420":3332,"0027":3333,"999":3334,"stin":3335,"mente":3336,"9865":3337,"ull":3338,"vida":3339,"etti":3340,"Ġ240":3341,"Ġ267":3342,"Ġ266":3343,"nez":3344,"nero":3345,"dell":3346,"Marti":3347,"mis":3348,"Passat":3349,"berg":3350,"Guil":3351,"Nava":3352,"Mata":3353,"verde":3354,"Pere":3355,"Mont":3356,"here":3357,"Ġ237":3358,"anilla":3359,"Urb":3360,"essionid":3361,"Quin":3362,"Espa":3363,"Avda":3364,"Casas":3365,"way":3366,"Salva":3367,"amarina":3368,"Guip":3369,"FAzcoa":3370,"Tenerife":3371,"Passatge":3372,"521":3373,"Ara":3374,"Bell":3375,"Edu":3376,"Fo":3377,"Fre":3378,"Gr":3379,"Gon":3380,"Gas":3381,"Jos":3382,"Luis":3383,"Mos":3384,"Mig":3385,"Pan":3386,"Para":3387,"Pine":3388,"Puente":3389,"Ren":3390,"Ramon":3391,"TI":3392,"Zu":3393,"aw":3394,"bw":3395,"bio":3396,"cli":3397,"cra":3398,"ella":3399,"fj":3400,"fel":3401,"gin":3402,"ili":3403,"kn":3404,"ks":3405,"kw":3406,"king":3407,"mue":3408,"nu":3409,"ov":3410,"py":3411,"rui":3412,"sm":3413,"sky":3414,"tta":3415,"tran":3416,"uda":3417,"vg":3418,"vell":3419,"wn":3420,"whi":3421,"yen":3422,"zas":3423,"Ġ69":3424,"Ġ76":3425,"Ġ271":3426,"ons":3427,"cano":3428,"camb":3429,"cata":3430,"tea":3431,"lava":3432,"lian":3433,"ind":3434,"inar":3435,"inal":3436,"cou":3437,"deh":3438,"lom":3439,"seig":3440,"dado":3441,"imen":3442,"may":3443,"Mor":3444,"spar":3445,"ube":3446,"2581":3447,"diz":3448,"esa":3449,"esca":3450,"ers":3451,"1720":3452,"1799":3453,"6793":3454,"6950":3455,"6347":3456,"1927":3457,"6527":3458,"6518":3459,"1507":3460,"4578":3461,"8345":3462,"EDas":3463,"adilla":3464,"1248":3465,"6818":3466,"rac":3467,"2819":3468,"aul":3469,"audi":3470,"ABFC":3471,"5029":3472,"melo":3473,"3565":3474,"8839":3475,"1625":3476,"CADB":3477,"3769":3478,"0340":3479,"0412":3480,"Pasaje":3481,"tanto":3482,"vich":3483,"Ġ239":3484,"Alto":3485,"onales":3486,"aix":3487,"bera":3488,"berta":3489,"bernero":3490,"Guar":3491,"uena":3492,"sho":3493,"fica":3494,"Santo":3495,"Valder":3496,"Villal":3497,"lasen":3498,"Ribera":3499,"donda":3500,"Urg":3501,"fredo":3502,"Doming":3503,"Vilanova":3504,"sanchez":3505,"otele":3506,"Rodriguez":3507,"WebSp":3508,"ofertas":3509,"Puebla":3510,"hardt":3511,"escuela":3512,"hereSamples":3513,"Gonza":3514,"Miguel":3515,"WebSphereSamples":3516,"Ada":3517,"AEBC":3518,"Ador":3519,"Bstyle":3520,"Du":3521,"Eno":3522,"Esg":3523,"Emi":3524,"Fla":3525,"Hig":3526,"Iz":3527,"Ili":3528,"Lagu":3529,"Mag":3530,"Ming":3531,"Mel":3532,"Ol":3533,"Pos":3534,"Pur":3535,"Rec":3536,"Ras":3537,"Rillo":3538,"Serra":3539,"Script":3540,"Tri":3541,"Vie":3542,"alo":3543,"brid":3544,"bby":3545,"cA":3546,"cO":3547,"cg":3548,"dona":3549,"ech":3550,"ear":3551,"fie":3552,"fur":3553,"fession":3554,"gy":3555,"hk":3556,"hir":3557,"hua":3558,"ide":3559,"ile":3560,"igo":3561,"jen":3562,"kam":3563,"kai":3564,"mg":3565,"mx":3566,"mcc":3567,"mtos":3568,"mia":3569,"ning":3570,"ndi":3571,"ola":3572,"rE":3573,"sk":3574,"samp":3575,"tg":3576,"tura":3577,"uli":3578,"uni":3579,"uta":3580,"von":3581,"vor":3582,"vlet":3583,"wol":3584,"yan":3585,"zw":3586,"Ġ78":3587,"Ġ230":3588,"Ġ276":3589,"tele":3590,"tic":3591,"tis":3592,"tino":3593,"ting":3594,"tina":3595,"tista":3596,"8069":3597,"8055":3598,"8056":3599,"cci":3600,"eni":3601,"enel":3602,"ines":3603,"chan":3604,"roy":3605,"degol":3606,"seum":3607,"ieta":3608,"ime":3609,"imar":3610,"iment":3611,"pas":3612,"uelo":3613,"ueta":3614,"Caba":3615,"quez":3616,"quesa":3617,"IDE":3618,"ori":3619,"2515":3620,"2524":3621,"cion":3622,"dol":3623,"2727":3624,"2737":3625,"rick":3626,"pel":3627,"pes":3628,"lena":3629,"more":3630,"eros":3631,"allo":3632,"ans":3633,"ante":3634,"ania":3635,"1088":3636,"2915":3637,"2962":3638,"3963":3639,"3920":3640,"1713":3641,"1745":3642,"8529":3643,"8553":3644,"8592":3645,"6764":3646,"6700":3647,"6940":3648,"6965":3649,"6975":3650,"6977":3651,"6952":3652,"2347":3653,"2360":3654,"2342":3655,"2371":3656,"1978":3657,"1993":3658,"4793":3659,"6593":3660,"1573":3661,"1355":3662,"1384":3663,"8715":3664,"8799":3665,"8757":3666,"8703":3667,"6020":3668,"6083":3669,"6030":3670,"6077":3671,"6095":3672,"4380":3673,"4319":3674,"4313":3675,"4330":3676,"8933":3677,"2014":3678,"asy":3679,"4940":3680,"4973":3681,"8379":3682,"8336":3683,"carritos":3684,"2219":3685,"2220":3686,"adio":3687,"3359":3688,"1813":3689,"1841":3690,"6815":3691,"rad":3692,"rat":3693,"2885":3694,"6167":3695,"aut":3696,"7905":3697,"1169":3698,"1115":3699,"2440":3700,"2423":3701,"7460":3702,"1483":3703,"EEFA":3704,"6220":3705,"met":3706,"7727":3707,"0045":3708,"jainformati":3709,"cortin":3710,"372":3711,"CFIDE":3712,"4663":3713,"4110":3714,"stru":3715,"gold":3716,"0189":3717,"0685":3718,"5413":3719,"0415":3720,"ller":3721,"Passeig":3722,"ultravioleta":3723,"strator":3724,"Alber":3725,"Alfa":3726,"Alonso":3727,"bala":3728,"zano":3729,"credito":3730,"admin":3731,"admini":3732,"bou":3733,"Sanchez":3734,"Barto":3735,"vedra":3736,"jobs":3737,"lls":3738,"llon":3739,"isapi":3740,"Carden":3741,"exp":3742,"fic":3743,"Perez":3744,"Leon":3745,"hote":3746,"hojainformati":3747,"ells":3748,"Torr":3749,"ders":3750,"DFCC":3751,"munt":3752,"museum":3753,"bios":3754,"Ġ235":3755,"rena":3756,"Bern":3757,"Rafa":3758,"Riu":3759,"Fede":3760,"you":3761,"loral":3762,"long":3763,"Palmas":3764,"cfm":3765,"simu":3766,"Floren":3767,"club":3768,"madrid":3769,"Agustin":3770,"Rodrigo":3771,"WebApp":3772,"examplesWebApp":3773,"Antonio":3774,"Pontevedra":3775,"Ceci":3776,"Urbaniz":3777,"Urgell":3778,"Gonzalez":3779,"fessional":3780,"degolf":3781,"carritosessionid":3782,"cortinas":3783,"administrator":3784,"=+&":3785,"Am":3786,"Ama":3787,"Arag":3788,"Bra":3789,"Baix":3790,"Cos":3791,"Cen":3792,"Cue":3793,"Cel":3794,"DO":3795,"Dor":3796,"Der":3797,"Diego":3798,"EN":3799,"Ex":3800,"Eli":3801,"Eche":3802,"Fru":3803,"Fray":3804,"Glor":3805,"Ha":3806,"Hel":3807,"Jun":3808,"Mes":3809,"Nt":3810,"Nar":3811,"Nie":3812,"Nue":3813,"Nel":3814,"Os":3815,"Rie":3816,"Rui":3817,"Stella":3818,"TO":3819,"Ven":3820,"Vin":3821,"Vent":3822,"Van":3823,"Xo":3824,"Zo":3825,"ax":3826,"aca":3827,"amb":3828,"aas":3829,"ame":3830,"bog":3831,"bru":3832,"bral":3833,"beck":3834,"ct":3835,"cro":3836,"cle":3837,"cina":3838,"cpan":3839,"dg":3840,"dura":3841,"eh":3842,"ep":3843,"ela":3844,"eli":3845,"edu":3846,"fro":3847,"flo":3848,"fono":3849,"ffer":3850,"gn":3851,"gel":3852,"gad":3853,"gall":3854,"hag":3855,"hue":3856,"hil":3857,"hana":3858,"jes":3859,"jol":3860,"jera":3861,"kos":3862,"lv":3863,"lec":3864,"mn":3865,"mur":3866,"mpwd":3867,"msad":3868,"nf":3869,"oz":3870,"ode":3871,"pv":3872,"ping":3873,"pri":3874,"pper":3875,"para":3876,"rw":3877,"rue":3878,"ring":3879,"sin":3880,"sie":3881,"sto":3882,"sul":3883,"td":3884,"ts":3885,"tamarina":3886,"vc":3887,"vn":3888,"vu":3889,"wes":3890,"wel":3891,"well":3892,"zm":3893,"zon":3894,"zzi":3895,"Ġ99":3896,"Ġ26":3897,"Ġ273":3898,"til":3899,"tica":3900,"tida":3901,"tille":3902,"lap":3903,"lamar":3904,"laya":3905,"8027":3906,"8041":3907,"lit":3908,"lix":3909,"inos":3910,"chri":3911,"ches":3912,"htr":3913,"rola":3914,"dero":3915,"dear":3916,"apo":3917,"low":3918,"logi":3919,"ars":3920,"ima":3921,"imi":3922,"lem":3923,"less":3924,"mal":3925,"mani":3926,"pav":3927,"palo":3928,"pace":3929,"uera":3930,"servi":3931,"Cabal":3932,"Cata":3933,"Cana":3934,"Cabe":3935,"Coro":3936,"Comp":3937,"inguda":3938,"quet":3939,"quera":3940,"raga":3941,"bles":3942,"spo":3943,"red":3944,"rel":3945,"reda":3946,"resa":3947,"rett":3948,"2585":3949,"2545":3950,"2579":3951,"2553":3952,"2593":3953,"dilla":3954,"4012":3955,"4018":3956,"4009":3957,"4011":3958,"4024":3959,"4014":3960,"4031":3961,"2710":3962,"ril":3963,"rilla":3964,"ford":3965,"esto":3966,"estu":3967,"eral":3968,"1060":3969,"1089":3970,"1045":3971,"1009":3972,"1090":3973,"1097":3974,"2965":3975,"2983":3976,"2918":3977,"2974":3978,"2914":3979,"3939":3980,"3999":3981,"3990":3982,"3905":3983,"3936":3984,"3998":3985,"1763":3986,"1749":3987,"1770":3988,"1746":3989,"8588":3990,"6785":3991,"6747":3992,"6755":3993,"6734":3994,"6925":3995,"6920":3996,"6908":3997,"2317":3998,"2385":3999,"2320":4000,"2349":4001,"6315":4002,"6345":4003,"6373":4004,"6346":4005,"ello":4006,"elweb":4007,"1915":4008,"1922":4009,"1975":4010,"1955":4011,"1930":4012,"1990":4013,"1901":4014,"1932":4015,"4725":4016,"4727":4017,"4720":4018,"4750":4019,"6588":4020,"6553":4021,"6582":4022,"1599":4023,"1328":4024,"1379":4025,"1364":4026,"1356":4027,"8773":4028,"8735":4029,"8734":4030,"8781":4031,"8782":4032,"6050":4033,"6035":4034,"6099":4035,"4325":4036,"4343":4037,"4375":4038,"4370":4039,"4379":4040,"4326":4041,"8929":4042,"8961":4043,"8977":4044,"ssori":4045,"4580":4046,"4547":4047,"4535":4048,"2065":4049,"2006":4050,"8329":4051,"8319":4052,"8350":4053,"EDne":4054,"iden":4055,"emas":4056,"ECAA":4057,"FBAD":4058,"12253":4059,"3319":4060,"1888":4061,"1886":4062,"7567":4063,"6840":4064,"6810":4065,"6885":4066,"6869":4067,"6887":4068,"6841":4069,"4825":4070,"FDCC":4071,"0945":4072,"0935":4073,"0953":4074,"DBBD":4075,"6147":4076,"AAFB":4077,"AACC":4078,"7033":4079,"7018":4080,"7053":4081,"5529":4082,"5549":4083,"5516":4084,"7957":4085,"DCFC":4086,"1119":4087,"ACDF":4088,"2424":4089,"7425":4090,"6285":4091,"6211":4092,"mea":4093,"med":4094,"BBBA":4095,"3061":4096,"FEFB":4097,"DDAB":4098,"DDDA":4099,"DDDF":4100,"6649":4101,"CBFC":4102,"4439":4103,"4483":4104,"2129":4105,"5384":4106,"2640":4107,"5715":4108,"BAFB":4109,"3725":4110,"3775":4111,"incorrectasany":4112,"CDEB":4113,"CFEB":4114,"5812":4115,"7823":4116,"0526":4117,"0355":4118,"4220":4119,"8140":4120,"8189":4121,"7120":4122,"0110":4123,"5217":4124,"5287":4125,"Pastor":4126,"9167":4127,"Alb":4128,"Alt":4129,"Almen":4130,"zada":4131,"bull":4132,"bous":4133,"nego":4134,"cea":4135,"Vic":4136,"deltamarina":4137,"Aren":4138,"Arriba":4139,"Palacios":4140,"veri":4141,"ruz":4142,"stein":4143,"Tamar":4144,"Mati":4145,"ign":4146,"hou":4147,"4800":4148,"DEAD":4149,"Valverde":4150,"mera":4151,"Infan":4152,"Julio":4153,"Ġ232":4154,"hipe":4155,"sito":4156,"EFCB":4157,"quin":4158,"quie":4159,"Polo":4160,"Dels":4161,"Luci":4162,"Lugar":4163,"BDCD":4164,"feli":4165,"travel":4166,"amiento":4167,"Orte":4168,"mont":4169,"Quir":4170,"webapp":4171,"Avinguda":4172,"Fernan":4173,"Frances":4174,"Gomez":4175,"Vega":4176,"Forn":4177,"work":4178,"world":4179,"Isid":4180,"Lopez":4181,"iiss":4182,"iisad":4183,"Benito":4184,"Alex":4185,"Sarri":4186,"Balles":4187,"Galle":4188,"Isabel":4189,"blue":4190,"video":4191,"Padre":4192,"enlaces":4193,"ajuntamentbarcelona":4194,"Escri":4195,"wood":4196,"zarote":4197,"Arroyo":4198,"montessori":4199,"intercamb":4200,"Murcia":4201,"Martinez":4202,"Eduardo":4203,"escuelamontessori":4204,"Alfambra":4205,"Torrent":4206,"Rafael":4207,"simulacion":4208,"Urbanizacion":4209,"Glorieta":4210,"braltar":4211,"cpanelweb":4212,"pvt":4213,"iisadmpwd":4214,"intercambio":4215,"/?":4216,"0430":4217,"2157":4218,"2116":4219,"3850":4220,"3188":4221,"4290":4222,"4135":4223,"4390":4224,"5470":4225,"5435":4226,"6157":4227,"6873":4228,"7835":4229,"7697":4230,"7684":4231,"8271":4232,"8699":4233,"9630":4234,"=-":4235,"=.":4236,"Aca":4237,"Ari":4238,"Air":4239,"Ace":4240,"Abe":4241,"AECA":4242,"Bro":4243,"Bau":4244,"Bus":4245,"BScript":4246,"CH":4247,"Cara":4248,"Dami":4249,"Duero":4250,"Edel":4251,"EEBC":4252,"EECA":4253,"Ebro":4254,"Fl":4255,"Fn":4256,"Fu":4257,"Fan":4258,"Fra":4259,"FRioja":4260,"Fad":4261,"FEBF":4262,"Ge":4263,"Gin":4264,"Gre":4265,"Hi":4266,"Hon":4267,"Han":4268,"IEn":4269,"Mac":4270,"Met":4271,"Mun":4272,"Nor":4273,"Oca":4274,"Open":4275,"Pen":4276,"Pag":4277,"Pol":4278,"Pres":4279,"Pera":4280,"Son":4281,"Sec":4282,"Sau":4283,"Tu":4284,"Tro":4285,"Tap":4286,"Ul":4287,"Vid":4288,"VBScript":4289,"Yo":4290,"Yami":4291,"Zur":4292,"ae":4293,"ambros":4294,"bj":4295,"bv":4296,"bil":4297,"bona":4298,"bran":4299,"bara":4300,"cx":4301,"cz":4302,"cti":4303,"cke":4304,"ctu":4305,"dd":4306,"dm":4307,"dr":4308,"dll":4309,"ea":4310,"eon":4311,"eti":4312,"ese":4313,"ere":4314,"ever":4315,"fon":4316,"fle":4317,"fes":4318,"fal":4319,"fra":4320,"fbi":4321,"ffe":4322,"gt":4323,"gw":4324,"hes":4325,"hof":4326,"hart":4327,"iN":4328,"iS":4329,"iq":4330,"iu":4331,"iv":4332,"isa":4333,"iza":4334,"ista":4335,"jal":4336,"kh":4337,"kim":4338,"kil":4339,"kara":4340,"llos":4341,"mh":4342,"mr":4343,"mpe":4344,"nl":4345,"nr":4346,"nda":4347,"naci":4348,"ness":4349,"pf":4350,"pp":4351,"pra":4352,"pul":4353,"pres":4354,"pis":4355,"pig":4356,"pint":4357,"rO":4358,"rt":4359,"sur":4360,"sio":4361,"sinc":4362,"sand":4363,"tA":4364,"tk":4365,"tru":4366,"tsch":4367,"ulla":4368,"vier":4369,"ys":4370,"yos":4371,"Ġ6":4372,"Ġ272":4373,"Ġ295":4374,"caro":4375,"caser":4376,"camp":4377,"tek":4378,"teo":4379,"teres":4380,"tia":4381,"tie":4382,"tio":4383,"tintas":4384,"osan":4385,"lah":4386,"lagon":4387,"8067":4388,"8087":4389,"8037":4390,"8034":4391,"8032":4392,"eno":4393,"enne":4394,"enlan":4395,"enzo":4396,"ink":4397,"intro":4398,"inosa":4399,"chor":4400,"chis":4401,"xtre":4402,"rol":4403,"row":4404,"delos":4405,"apla":4406,"nom":4407,"nou":4408,"nolinda":4409,"noindo":4410,"seca":4411,"sell":4412,"ngel":4413,"htmlsamp":4414,"arte":4415,"ies":4416,"imo":4417,"iminal":4418,"lea":4419,"lei":4420,"leen":4421,"maj":4422,"mat":4423,"mana":4424,"Cat":4425,"Cali":4426,"Camer":4427,"Coma":4428,"Cobo":4429,"constru":4430,"Chi":4431,"spen":4432,"revi":4433,"orio":4434,"2523":4435,"2547":4436,"2511":4437,"2550":4438,"2599":4439,"2584":4440,"2503":4441,"mbar":4442,"cillo":4443,"dick":4444,"dista":4445,"4080":4446,"4060":4447,"4089":4448,"4083":4449,"4035":4450,"4021":4451,"2780":4452,"2763":4453,"2760":4454,"2773":4455,"2735":4456,"2799":4457,"2753":4458,"2794":4459,"rib":4460,"rica":4461,"rillo":4462,"ritte":4463,"urn":4464,"movi":4465,"motor":4466,"movil":4467,"anda":4468,"ander":4469,"anueva":4470,"1039":4471,"1043":4472,"1068":4473,"1059":4474,"1003":4475,"cias":4476,"2924":4477,"2930":4478,"2988":4479,"2900":4480,"2953":4481,"2934":4482,"3969":4483,"3965":4484,"3933":4485,"3970":4486,"3955":4487,"3951":4488,"39293":4489,"1765":4490,"1775":4491,"1773":4492,"1758":4493,"1701":4494,"1796":4495,"17143":4496,"8527":4497,"8567":4498,"8587":4499,"8570":4500,"8524":4501,"8562":4502,"8546":4503,"8598":4504,"6733":4505,"6779":4506,"6772":4507,"6948":4508,"6928":4509,"6944":4510,"6999":4511,"6905":4512,"6902":4513,"2375":4514,"2368":4515,"2373":4516,"2355":4517,"2335":4518,"2300":4519,"2372":4520,"6329":4521,"6319":4522,"6360":4523,"6379":4524,"6350":4525,"6305":4526,"6371":4527,"6354":4528,"1929":4529,"1947":4530,"1973":4531,"1979":4532,"1916":4533,"1903":4534,"4780":4535,"4763":4536,"4745":4537,"4707":4538,"4756":4539,"6513":4540,"6509":4541,"6590":4542,"6576":4543,"6531":4544,"1515":4545,"1513":4546,"1549":4547,"1535":4548,"1595":4549,"1349":4550,"1348":4551,"1361":4552,"1337":4553,"8779":4554,"6060":4555,"6064":4556,"6090":4557,"6001":4558,"6096":4559,"4339":4560,"4385":4561,"4367":4562,"4369":4563,"4389":4564,"4383":4565,"4328":4566,"4366":4567,"4337":4568,"8975":4569,"8914":4570,"8988":4571,"8953":4572,"8937":4573,"8941":4574,"sson":4575,"ssia":4576,"4534":4577,"4538":4578,"2034":4579,"2086":4580,"aso":4581,"progra":4582,"4980":4583,"4989":4584,"4983":4585,"4975":4586,"4955":4587,"4903":4588,"4956":4589,"8385":4590,"8313":4591,"8370":4592,"8316":4593,"8357":4594,"8382":4595,"carritoany":4596,"EDEA":4597,"EDFD":4598,"EDCF":4599,"2249":4600,"2248":4601,"2211":4602,"adia":4603,"adillo":4604,"tari":4605,"vina":4606,"vino":4607,"FAED":4608,"FAEC":4609,"FACF":4610,"cciones":4611,"FCBA":4612,"ECEB":4613,"ECCC":4614,"ECBE":4615,"FBEA":4616,"FBBF":4617,"EBFD":4618,"EBDB":4619,"1280":4620,"1239":4621,"1287":4622,"1245":4623,"3330":4624,"1839":4625,"1889":4626,"1864":4627,"1881":4628,"7587":4629,"7599":4630,"7526":4631,"7537":4632,"EACF":4633,"6827":4634,"6867":4635,"6862":4636,"4839":4637,"4828":4638,"4844":4639,"4841":4640,"FDCE":4641,"FDBF":4642,"ram":4643,"rado":4644,"2869":4645,"2845":4646,"2812":4647,"2862":4648,"2826":4649,"CCFD":4650,"6165":4651,"6113":4652,"6143":4653,"6183":4654,"7359":4655,"7357":4656,"AAAC":4657,"7063":4658,"5511":4659,"5588":4660,"5576":4661,"5571":4662,"7917":4663,"7987":4664,"7937":4665,"7994":4666,"6410":4667,"6467":4668,"6424":4669,"ABFD":4670,"ABFF":4671,"DCBB":4672,"DCDA":4673,"DCBF":4674,"FFED":4675,"1149":4676,"1162":4677,"2417":4678,"2413":4679,"2461":4680,"5039":4681,"5063":4682,"7429":4683,"7467":4684,"7463":4685,"1480":4686,"1422":4687,"5965":4688,"ADED":4689,"ADAE":4690,"6225":4691,"6215":4692,"mero":4693,"media":4694,"BBBB":4695,"BBDE":4696,"BBCA":4697,"3089":4698,"3056":4699,"3006":4700,"castella":4701,"FEFF":4702,"DDFD":4703,"6613":4704,"CBCA":4705,"7743":4706,"7778":4707,"8845":4708,"0010":4709,"0064":4710,"0082":4711,"DAFA":4712,"DAEC":4713,"9962":4714,"2165":4715,"2189":4716,"auten":4717,"1643":4718,"1648":4719,"ams":4720,"AEED":4721,"2689":4722,"2645":4723,"2664":4724,"5710":4725,"5775":4726,"CAFC":4727,"CAFD":4728,"CAFF":4729,"9035":4730,"tasde":4731,"3429":4732,"BDEB":4733,"BDFE":4734,"CDAD":4735,"3827":4736,"5864":4737,"0773":4738,"AFED":4739,"EFEC":4740,"EFEB":4741,"4662":4742,"0525":4743,"0517":4744,"stor":4745,"stan":4746,"0389":4747,"0366":4748,"4210":4749,"9545":4750,"7269":4751,"7615":4752,"8227":4753,"8239":4754,"8223":4755,"8283":4756,"say":4757,"7110":4758,"7168":4759,"gob":4760,"gov":4761,"goog":4762,"5685":4763,"5647":4764,"0143":4765,"9661":4766,"5239":4767,"0639":4768,"0683":4769,"3610":4770,"0815":4771,"0812":4772,"5469":4773,"5419":4774,"9712":4775,"0469":4776,"sol":4777,"som":4778,"0225":4779,"3212":4780,"tajo":4781,"9180":4782,"9113":4783,"9162":4784,"9265":4785,"vis":4786,"visco":4787,"turo":4788,"Demun":4789,"ette":4790,"zaragoza":4791,"Ġ268":4792,"errada":4793,"Alu":4794,"Albal":4795,"Albe":4796,"Albor":4797,"nueva":4798,"navar":4799,"iano":4800,"adas":4801,"cep":4802,"cela":4803,"ceda":4804,"cement":4805,"Viso":4806,"Vidal":4807,"manzan":4808,"gat":4809,"gant":4810,"gahan":4811,"Arre":4812,"unil":4813,"under":4814,"ush":4815,"Barrio":4816,"Paz":4817,"vez":4818,"berto":4819,"steven":4820,"Naval":4821,"Sebas":4822,"Segun":4823,"isner":4824,"Mat":4825,"Carlos":4826,"Carras":4827,"Bail":4828,"torre":4829,"toria":4830,"veros":4831,"exe":4832,"sher":4833,"fitn":4834,"Peri":4835,"Perio":4836,"Pedra":4837,"19243":4838,"home":4839,"DEAE":4840,"ebac":4841,"6890":4842,"1655":4843,"DECE":4844,"Monti":4845,"Montes":4846,"Valde":4847,"Torren":4848,"jeda":4849,"Villanueva":4850,"EFBC":4851,"mpi":4852,"stabernero":4853,"2892":4854,"rensa":4855,"Bergu":4856,"Ray":4857,"viajes":4858,"2158":4859,"uerte":4860,"EFCF":4861,"FEAA":4862,"Navarre":4863,"ciopin":4864,"Polig":4865,"6631":4866,"Andalu":4867,"Gaspar":4868,"osalagon":4869,"31750":4870,"scan":4871,"Corre":4872,"andro":4873,"63423":4874,"Tarciano":4875,"raso":4876,"EFDA":4877,"5754":4878,"FFDE":4879,"1666":4880,"CDBA":4881,"aresaas":4882,"6692":4883,"dys":4884,"fern":4885,"Meza":4886,"Parque":4887,"7884":4888,"EEDA":4889,"Canal":4890,"7832":4891,"Ferre":4892,"minas":4893,"turn":4894,"tural":4895,"vanco":4896,"burn":4897,"Vilal":4898,"+.*%":4899,"magritte":4900,"danie":4901,"Calzada":4902,"Font":4903,"network":4904,"Flori":4905,"Masca":4906,"Masia":4907,"Castille":4908,"farma":4909,"General":4910,"campa":4911,"campo":4912,"Pintor":4913,"Andres":4914,"novias":4915,"automovi":4916,"oferta":4917,"videos":4918,"palma":4919,"Petr":4920,"Ronda":4921,"criminal":4922,"tecnoindo":4923,"Mayor":4924,"Adelqui":4925,"Ignolinda":4926,"espaciopin":4927,"Alfonso":4928,"Alcalde":4929,"andrestabernero":4930,"softwaresaas":4931,"Salvador":4932,"show":4933,"Domingo":4934,"Enoch":4935,"eneltajo":4936,"imentosalagon":4937,"Baixada":4938,"ExAir":4939,"Fructu":4940,"pavimentosalagon":4941,"EDneo":4942,"Vicente":4943,"feliciano":4944,"Isidro":4945,"iissamples":4946,"Escritor":4947,"Metauten":4948,"eonon":4949,"nacionales":4950,"sincla":4951,"tintasultravioleta":4952,"enlanzarote":4953,"introito":4954,"Cameros":4955,"google":4956,"viscotek":4957,"Demuner":4958,"Segundo":4959,"fitness":4960,"Periodista":4961,"Poligono":4962,"automoviles":4963,"tecnoindomo":4964,"espaciopintor":4965,"/~":4966,"0190":4967,"0450":4968,"0607":4969,"0235":4970,"0194":4971,"0205":4972,"1493":4973,"1626":4974,"2190":4975,"2494":4976,"2134":4977,"3136":4978,"3190":4979,"3276":4980,"3807":4981,"4199":4982,"4277":4983,"5104":4984,"5805":4985,"5690":4986,"5837":4987,"5258":4988,"5492":4989,"6173":4990,"6244":4991,"7095":4992,"7093":4993,"8637":4994,"8255":4995,"8133":4996,"8175":4997,"8653":4998,"9494":4999,"9170":5000,"9195":5001,"9644":5002,"9474":5003,"9159":5004,"9859":5005,"9499":5006,"9158":5007,"9099":5008,"9777":5009,"9858":5010,"=_":5011,"Az":5012,"Ach":5013,"Amar":5014,"Ana":5015,"AECC":5016,"AEBB":5017,"ACCC":5018,"Alar":5019,"Atico":5020,"Bos":5021,"Bri":5022,"Ban":5023,"Bara":5024,"Bab":5025,"BFAB":5026,"BEBF":5027,"BECC":5028,"BCCC":5029,"BEDC":5030,"Bras":5031,"BFBF":5032,"Buena":5033,"Badia":5034,"CO":5035,"Cn":5036,"Cro":5037,"Cig":5038,"CEBF":5039,"CECE":5040,"CDBC":5041,"CFAF":5042,"Crist":5043,"Dur":5044,"Dam":5045,"DEBF":5046,"ES":5047,"Ei":5048,"Ech":5049,"Estra":5050,"Emp":5051,"EEBB":5052,"EEBE":5053,"FAg":5054,"Fol":5055,"Fig":5056,"FFAB":5057,"FECE":5058,"FEEE":5059,"FFBF":5060,"Ferrada":5061,"Gil":5062,"Hos":5063,"Hen":5064,"IA":5065,"Ir":5066,"Iri":5067,"Iso":5068,"Ita":5069,"Igu":5070,"Jor":5071,"Jes":5072,"Jard":5073,"Kar":5074,"Lor":5075,"Lagar":5076,"Lara":5077,"Llan":5078,"Meng":5079,"Mit":5080,"Nte":5081,"Nueva":5082,"Od":5083,"Ori":5084,"Obi":5085,"Pr":5086,"Pie":5087,"Pes":5088,"Pau":5089,"Pis":5090,"Plu":5091,"Prin":5092,"RE":5093,"Rt":5094,"Rub":5095,"Ran":5096,"Rosa":5097,"Rua":5098,"Ste":5099,"Sas":5100,"Shar":5101,"Tre":5102,"Tal":5103,"Trist":5104,"UE":5105,"Up":5106,"VE":5107,"Var":5108,"Via":5109,"Vera":5110,"Xx":5111,"Zuri":5112,"aj":5113,"ade":5114,"ang":5115,"ado":5116,"ata":5117,"avi":5118,"aero":5119,"ases":5120,"bn":5121,"bt":5122,"bag":5123,"bir":5124,"bell":5125,"bren":5126,"bena":5127,"cd":5128,"cub":5129,"cros":5130,"cto":5131,"cul":5132,"cum":5133,"dz":5134,"dul":5135,"dora":5136,"drid":5137,"dge":5138,"dney":5139,"eta":5140,"eve":5141,"eiro":5142,"echea":5143,"easy":5144,"fE":5145,"fli":5146,"fil":5147,"ful":5148,"fia":5149,"gm":5150,"gq":5151,"ght":5152,"gec":5153,"gent":5154,"gadas":5155,"hp":5156,"hel":5157,"his":5158,"ib":5159,"ico":5160,"iar":5161,"iana":5162,"icho":5163,"jani":5164,"kz":5165,"ken":5166,"kas":5167,"kley":5168,"lt":5169,"mpa":5170,"nen":5171,"nil":5172,"nell":5173,"och":5174,"ore":5175,"oce":5176,"pl":5177,"pos":5178,"pio":5179,"pura":5180,"prensa":5181,"rI":5182,"rd":5183,"rier":5184,"sche":5185,"sas":5186,"star":5187,"ski":5188,"sley":5189,"sms":5190,"sign":5191,"tj":5192,"tm":5193,"tlla":5194,"tter":5195,"uz":5196,"uch":5197,"uro":5198,"uar":5199,"ure":5200,"udi":5201,"una":5202,"vol":5203,"war":5204,"wer":5205,"wash":5206,"xo":5207,"yna":5208,"ytan":5209,"zy":5210,"zamp":5211,"zosa":5212,"zanilla":5213,"zuelo":5214,"Ġ40":5215,"Ġ89":5216,"Ġ45":5217,"Ġ49":5218,"Ġ22":5219,"Ġ79":5220,"Ġ88":5221,"Ġ81":5222,"Ġ82":5223,"Ġ52":5224,"Ġ36":5225,"Ġ54":5226,"Ġ234":5227,"Ġ133":5228,"Ġ277":5229,"Ġ119":5230,"Ġ116":5231,"Ġ278":5232,"onet":5233,"casp":5234,"cant":5235,"cana":5236,"cabe":5237,"cador":5238,"capi":5239,"tez":5240,"tean":5241,"tian":5242,"tienes":5243,"lal":5244,"lame":5245,"8049":5246,"8090":5247,"8046":5248,"cch":5249,"ens":5250,"enie":5251,"enko":5252,"engi":5253,"enTo":5254,"lion":5255,"lich":5256,"litar":5257,"list":5258,"inni":5259,"injet":5260,"invent":5261,"instein":5262,"agn":5263,"aggio":5264,"tions":5265,"chap":5266,"chal":5267,"chini":5268,"chine":5269,"chaud":5270,"chev":5271,"htran":5272,"zia":5273,"xto":5274,"core":5275,"coach":5276,"coop":5277,"roig":5278,"royo":5279,"dem":5280,"deenlaces":5281,"apoli":5282,"lof":5283,"lot":5284,"loaf":5285,"applications":5286,"noz":5287,"noly":5288,"ecla":5289,"sella":5290,"sevilla":5291,"nga":5292,"ngar":5293,"ages":5294,"arr":5295,"arra":5296,"aria":5297,"artes":5298,"arron":5299,"Conde":5300,"day":5301,"dada":5302,"data":5303,"dana":5304,"imer":5305,"led":5306,"leda":5307,"maz":5308,"mala":5309,"mack":5310,"ueca":5311,"servlet":5312,"Cato":5313,"Cani":5314,"Camar":5315,"Cabre":5316,"Laba":5317,"Colon":5318,"inga":5319,"kel":5320,"Molaci":5321,"kola":5322,"kova":5323,"kovic":5324,"consul":5325,"Cho":5326,"Agua":5327,"bley":5328,"tiendasy":5329,"rey":5330,"real":5331,"reta":5332,"2560":5333,"2543":5334,"2559":5335,"2507":5336,"2541":5337,"2502":5338,"25400":5339,"cir":5340,"cis":5341,"cit":5342,"cien":5343,"gia":5344,"gil":5345,"dida":5346,"digo":5347,"diana":5348,"dientes":5349,"doy":5350,"4019":5351,"4045":5352,"4048":5353,"4061":5354,"4062":5355,"4030":5356,"4088":5357,"4016":5358,"4090":5359,"4076":5360,"4052":5361,"2769":5362,"2747":5363,"2783":5364,"2770":5365,"2716":5366,"2784":5367,"2734":5368,"2778":5369,"rik":5370,"rigo":5371,"peli":5372,"pedro":5373,"cara":5374,"card":5375,"cary":5376,"carlos":5377,"mol":5378,"molin":5379,"mott":5380,"modelos":5381,"thor":5382,"estar":5383,"esmer":5384,"erg":5385,"ert":5386,"alde":5387,"alma":5388,"aldo":5389,"alvar":5390,"alha":5391,"alud":5392,"anti":5393,"ande":5394,"ando":5395,"anza":5396,"anka":5397,"andalu":5398,"1029":5399,"1019":5400,"1049":5401,"1066":5402,"1077":5403,"1034":5404,"1082":5405,"1092":5406,"ciacion":5407,"mbreo":5408,"2940":5409,"2917":5410,"2985":5411,"2969":5412,"2913":5413,"2920":5414,"2979":5415,"2957":5416,"2946":5417,"2995":5418,"2972":5419,"2956":5420,"2996":5421,"2936":5422,"2902":5423,"3910":5424,"3917":5425,"3947":5426,"3960":5427,"3983":5428,"3975":5429,"3968":5430,"3961":5431,"3950":5432,"3962":5433,"3903":5434,"3981":5435,"3908":5436,"1740":5437,"1743":5438,"1735":5439,"1784":5440,"1737":5441,"1778":5442,"1703":5443,"1706":5444,"1791":5445,"17265":5446,"17752":5447,"8510":5448,"8547":5449,"8564":5450,"8500":5451,"8590":5452,"8534":5453,"8552":5454,"8508":5455,"8532":5456,"6740":5457,"6729":5458,"6739":5459,"6763":5460,"6722":5461,"6712":5462,"6762":5463,"6788":5464,"6799":5465,"6716":5466,"6784":5467,"6737":5468,"6703":5469,"6708":5470,"6754":5471,"6945":5472,"6964":5473,"6959":5474,"6957":5475,"6937":5476,"6946":5477,"6978":5478,"6904":5479,"6951":5480,"6991":5481,"69782":5482,"2339":5483,"2369":5484,"2365":5485,"2333":5486,"2318":5487,"2309":5488,"2379":5489,"2359":5490,"2377":5491,"2306":5492,"6310":5493,"6339":5494,"6323":5495,"6364":5496,"6311":5497,"6316":5498,"6386":5499,"6356":5500,"6308":5501,"tou":5502,"tool":5503,"elle":5504,"1980":5505,"1910":5506,"1965":5507,"1987":5508,"1914":5509,"1977":5510,"1900":5511,"1921":5512,"1907":5513,"1942":5514,"1908":5515,"4765":5516,"4713":5517,"4789":5518,"4718":5519,"4799":5520,"4737":5521,"4738":5522,"4741":5523,"4781":5524,"6580":5525,"6522":5526,"6535":5527,"6596":5528,"6552":5529,"6591":5530,"65185":5531,"1510":5532,"1539":5533,"1563":5534,"1547":5535,"1587":5536,"1543":5537,"1548":5538,"1555":5539,"1559":5540,"1538":5541,"1593":5542,"1501":5543,"1552":5544,"1551":5545,"15475":5546,"1367":5547,"1347":5548,"1383":5549,"1370":5550,"1377":5551,"1358":5552,"1307":5553,"1301":5554,"8785":5555,"8765":5556,"8709":5557,"8700":5558,"8772":5559,"8736":5560,"8797":5561,"6027":5562,"6085":5563,"6047":5564,"6015":5565,"6045":5566,"6022":5567,"6009":5568,"6059":5569,"6066":5570,"6000":5571,"6007":5572,"6086":5573,"6051":5574,"6092":5575,"4360":5576,"4373":5577,"4358":5578,"8945":5579,"8918":5580,"8955":5581,"8979":5582,"8964":5583,"8944":5584,"8921":5585,"8958":5586,"8981":5587,"8993":5588,"8994":5589,"ssi":5590,"4540":5591,"4517":5592,"4589":5593,"4575":5594,"4509":5595,"4574":5596,"4500":5597,"4507":5598,"4556":5599,"2080":5600,"2027":5601,"2048":5602,"2079":5603,"2050":5604,"2074":5605,"2000":5606,"2044":5607,"2081":5608,"2096":5609,"professional":5610,"4939":5611,"4909":5612,"4959":5613,"4935":5614,"4953":5615,"8339":5616,"8315":5617,"8349":5618,"8318":5619,"8328":5620,"8346":5621,"8305":5622,"8371":5623,"EDFA":5624,"EDDB":5625,"EDEE":5626,"2229":5627,"2223":5628,"2245":5629,"2224":5630,"2226":5631,"2246":5632,"adiana":5633,"nik":5634,"nices":5635,"idt":5636,"Redonda":5637,"Rebull":5638,"FAl":5639,"FAn":5640,"FAFB":5641,"FADB":5642,"FAAA":5643,"FABE":5644,"FCe":5645,"FCFC":5646,"FCFB":5647,"FCEA":5648,"FCAB":5649,"FCBB":5650,"FCBC":5651,"ECFB":5652,"ECAB":5653,"ECFF":5654,"ECDF":5655,"ECEF":5656,"FBFB":5657,"FBEB":5658,"FBBB":5659,"FBCE":5660,"FBCF":5661,"EBEB":5662,"EBFF":5663,"EBBC":5664,"1214":5665,"3369":5666,"3315":5667,"3383":5668,"3353":5669,"3352":5670,"1863":5671,"1865":5672,"1818":5673,"1866":5674,"1846":5675,"1882":5676,"7547":5677,"7515":5678,"7575":5679,"7548":5680,"7555":5681,"7559":5682,"EAFE":5683,"6843":5684,"6820":5685,"6883":5686,"6812":5687,"6824":5688,"6866":5689,"6881":5690,"68640":5691,"4867":5692,"4869":5693,"4843":5694,"4849":5695,"4862":5696,"4821":5697,"4886":5698,"FDFB":5699,"FDEA":5700,"FDCA":5701,"FDCD":5702,"0939":5703,"0915":5704,"0928":5705,"0957":5706,"rano":5707,"ramo":5708,"raulla":5709,"2880":5710,"2823":5711,"2814":5712,"28685":5713,"CCEE":5714,"CCDD":5715,"DBED":5716,"DBEB":5717,"DBDB":5718,"DBEE":5719,"DBDF":5720,"6125":5721,"6169":5722,"6112":5723,"6146":5724,"7339":5725,"7320":5726,"7383":5727,"7348":5728,"7350":5729,"7305":5730,"7381":5731,"7352":5732,"7308":5733,"AAED":5734,"AAAA":5735,"AAAD":5736,"7019":5737,"7083":5738,"7021":5739,"7081":5740,"aus":5741,"5590":5742,"5534":5743,"5501":5744,"5596":5745,"7910":5746,"7983":5747,"7921":5748,"7958":5749,"7981":5750,"6440":5751,"6415":5752,"6420":5753,"ABCD":5754,"DCEB":5755,"DCAD":5756,"DCEF":5757,"FFFD":5758,"1180":5759,"1139":5760,"1165":5761,"1112":5762,"1166":5763,"1142":5764,"ACi":5765,"ACEC":5766,"ACEA":5767,"ACBB":5768,"ACDE":5769,"2429":5770,"2419":5771,"2465":5772,"2487":5773,"2483":5774,"2468":5775,"2414":5776,"5070":5777,"5059":5778,"5038":5779,"5056":5780,"50873":5781,"ball":5782,"7480":5783,"7449":5784,"1417":5785,"1463":5786,"5949":5787,"5976":5788,"5954":5789,"ADAD":5790,"ADDE":5791,"6227":5792,"6267":5793,"6212":5794,"6248":5795,"BBDA":5796,"3015":5797,"3007":5798,"3078":5799,"3042":5800,"30191":5801,"cast":5802,"DDFA":5803,"DDCC":5804,"DDDC":5805,"6618":5806,"CBFB":5807,"CBEB":5808,"3510":5809,"3575":5810,"3537":5811,"3576":5812,"0067":5813,"0075":5814,"0003":5815,"0006":5816,"4489":5817,"DAFE":5818,"DEFA":5819,"DEFB":5820,"DEEB":5821,"DEFF":5822,"9921":5823,"9907":5824,"9956":5825,"2127":5826,"2169":5827,"BCEC":5828,"BCEA":5829,"BCDB":5830,"stillo":5831,"1667":5832,"1615":5833,"1662":5834,"5380":5835,"5355":5836,"5311":5837,"8445":5838,"2623":5839,"DFFA":5840,"cortell":5841,"corjet":5842,"5767":5843,"5716":5844,"5781":5845,"CAEE":5846,"teria":5847,"3765":5848,"3789":5849,"3748":5850,"37621":5851,"37891":5852,"9070":5853,"BEEC":5854,"3469":5855,"3423":5856,"incorrectassessionid":5857,"BDED":5858,"BDFD":5859,"CDEE":5860,"3880":5861,"3818":5862,"CFFB":5863,"5820":5864,"5866":5865,"BFEA":5866,"0780":5867,"0720":5868,"0761":5869,"0764":5870,"0782":5871,"4680":5872,"4620":5873,"4664":5874,"4129":5875,"4167":5876,"4145":5877,"4122":5878,"7880":5879,"0565":5880,"0549":5881,"0548":5882,"stad":5883,"0322":5884,"4239":5885,"4260":5886,"4245":5887,"4283":5888,"42192":5889,"9525":5890,"9589":5891,"9518":5892,"9574":5893,"9535":5894,"9584":5895,"8180":5896,"7248":5897,"8685":5898,"866844":5899,"7625":5900,"8240":5901,"8214":5902,"mary":5903,"sab":5904,"sala":5905,"sant":5906,"7167":5907,"gow":5908,"2702":5909,"5649":5910,"9640":5911,"961909":5912,"5267":5913,"5247":5914,"0627":5915,"0645":5916,"0622":5917,"3629":5918,"3643":5919,"3649":5920,"3683":5921,"0883":5922,"08673":5923,"3125":5924,"3169":5925,"31293":5926,"5423":5927,"9713":5928,"9775":5929,"0460":5930,"sot":5931,"sou":5932,"5113":5933,"oftw":5934,"3280":5935,"3266":5936,"9460":5937,"tada":5938,"tatanto":5939,"9880":5940,"9817":5941,"9869":5942,"9160":5943,"9245":5944,"vista":5945,"viaggio":5946,"10042":5947,"tucasa":5948,"Deu":5949,"Manzan":5950,"zara":5951,"Alci":5952,"Alfor":5953,"Alha":5954,"Alfredo":5955,"bao":5956,"bano":5957,"fore":5958,"zabal":5959,"nada":5960,"vate":5961,"valo":5962,"iaz":5963,"Saiz":5964,"adra":5965,"aire":5966,"bol":5967,"boor":5968,"body":5969,"botille":5970,"neu":5971,"new":5972,"neotele":5973,"celino":5974,"mancia":5975,"olu":5976,"oltean":5977,"pers":5978,"1234":5979,"Arte":5980,"Arqui":5981,"Arturo":5982,"respa":5983,"Sanz":5984,"Sancho":5985,"Marnet":5986,"Marcelino":5987,"michaud":5988,"usto":5989,"vela":5990,"vero":5991,"velo":5992,"runa":5993,"berle":5994,"berry":5995,"Guadiana":5996,"6236":5997,"Seg":5998,"Segar":5999,"Maz":6000,"Maes":6001,"Mass":6002,"bek":6003,"beth":6004,"beau":6005,"Batet":6006,"vers":6007,"expo":6008,"shan":6009,"pola":6010,"poli":6011,"polo":6012,"pota":6013,"6607":6014,"yama":6015,"Pedre":6016,"17315":6017,"1275":6018,"1400":6019,"14092":6020,"hoe":6021,"44528":6022,"43016":6023,"1692":6024,"6852":6025,"6855":6026,"orges":6027,"DECA":6028,"Monta":6029,"Monroyo":6030,"barra":6031,"barnices":6032,"Burch":6033,"Tormes":6034,"08719":6035,"gua":6036,"guy":6037,"derni":6038,"1394":6039,"2870":6040,"2631":6041,"2633":6042,"DFCB":6043,"DFCD":6044,"EFBA":6045,"muta":6046,"mucho":6047,"1878":6048,"2476":6049,"447866844":6050,"heal":6051,"kaya":6052,"Ġ233":6053,"8873":6054,"8878":6055,"Bertil":6056,"BEAF":6057,"RaS":6058,"hibrid":6059,"4201":6060,"AFAE":6061,"ADCD":6062,"ADCF":6063,"DEDA":6064,"uerga":6065,"1635":6066,"8804":6067,"Bovera":6068,"DACF":6069,"dorra":6070,"CFBA":6071,"DFAE":6072,"pital":6073,"CACA":6074,"Pozo":6075,"Pobla":6076,"Pozuelo":6077,"1222":6078,"12214":6079,"CAAA":6080,"CAAB":6081,"BFDE":6082,"Zarzosa":6083,"hangar":6084,"3872":6085,"CEBD":6086,"vende":6087,"descom":6088,"Andorra":6089,"CDCF":6090,"FEDB":6091,"BDCF":6092,"Gala":6093,"Gaytan":6094,"5302":6095,"scala":6096,"inton":6097,"Cortes":6098,"Corral":6099,"vilano":6100,"6652":6101,"Cela":6102,"monnal":6103,"rones":6104,"ronio":6105,"guete":6106,"guero":6107,"guera":6108,"villas":6109,"21340":6110,"FFAA":6111,"itan":6112,"Campa":6113,"85728685":6114,"busey":6115,"50373":6116,"6834":6117,"dydanie":6118,"Medina":6119,"Pare":6120,"Parra":6121,"lyn":6122,"yuan":6123,"juan":6124,"8474012":6125,"empe":6126,"Ferran":6127,"belcher":6128,"Liberta":6129,"Bustillo":6130,"Cerro":6131,"Cerda":6132,"Cervera":6133,"Johana":6134,"azkara":6135,"Herman":6136,"maguer":6137,"magicho":6138,"wski":6139,"worth":6140,"Fontan":6141,"Port":6142,"broad":6143,"ubilla":6144,"ubiku":6145,"twinjet":6146,"ugh":6147,"Flores":6148,"Zabala":6149,"rieta":6150,"Castil":6151,"amontatanto":6152,"soycata":6153,"Llano":6154,"franq":6155,"Baldo":6156,"Eula":6157,"Eudoro":6158,"eddydanie":6159,"furet":6160,"salsas":6161,"tten":6162,"apalacios":6163,"Larra":6164,"espinosa":6165,"Hugo":6166,"Numancia":6167,"Campos":6168,"mundo":6169,"thers":6170,"Cubillo":6171,"Estrella":6172,"multasde":6173,"miniloaf":6174,"discon":6175,"Aldeanueva":6176,"ajuntamentde":6177,"bette":6178,"grante":6179,"Felices":6180,"informatica":6181,"Angel":6182,"Bonet":6183,"Esteban":6184,"Fuentes":6185,"Peral":6186,"Planells":6187,"Residen":6188,"gordo":6189,"chinavende":6190,"Castany":6191,"espanoly":6192,"Santiago":6193,"Barrios":6194,"Mercadal":6195,"Aranda":6196,"Rams":6197,"slations":6198,"sexotele":6199,"494914092":6200,"Guillen":6201,"Peregr":6202,"Bellmunt":6203,"muebe":6204,"imenez":6205,"1248447866844":6206,"tantomont":6207,"Altozano":6208,"Valderr":6209,"lasencia":6210,"Esgueva":6211,"Emigrante":6212,"Laguna":6213,"Rasmira":6214,"Serrano":6215,"466385728685":6216,"Bartolo":6217,"Cardenal":6218,"hoteles":6219,"hojainformativas":6220,"biosoftw":6221,"young":6222,"Ceciliano":6223,"cortinasarte":6224,"Aragon":6225,"Cuesta":6226,"Derdys":6227,"Ruiz":6228,"Ventura":6229,"Xove":6230,"msadc":6231,"Corominas":6232,"negocios":6233,"Tamarindo":6234,"house":6235,"hiperespa":6236,"Luciliano":6237,"Gallegos":6238,"blueberry":6239,"intercambiodeenlaces":6240,"76973319":6241,"Gredos":6242,"Yamila":6243,"caseros":6244,"teresapalacios":6245,"osanfranq":6246,"Alumbreo":6247,"cementosanfranq":6248,"stevensen":6249,"Sebastian":6250,"Navarredonda":6251,"fernand":6252,"noviasteresapalacios":6253,"ofertachina":6254,"automovilesalha":6255,"Brasc":6256,"Echaniz":6257,"Hospital":6258,"Obispo":6259,"Xxii":6260,"Zurita":6261,"easyviaggio":6262,"prensahp":6263,"enieria":6264,"engibraltar":6265,"innis":6266,"inventos":6267,"htranslations":6268,"coaching":6269,"apolicial":6270,"Molacillos":6271,"tiendasyofertas":6272,"andaluz":6273,"50873406":6274,"96190989":6275,"31293475":6276,"Alhama":6277,"botilleria":6278,"neotelecom":6279,"olteanu":6280,"Marnetti":6281,"Segarra":6282,"Bertilda":6283,"hibridos":6284,"8474012494914092":6285,"magichobby":6286,"ubikuo":6287,"soycatalan":6288,"eddydaniele":6289,"salsaspain":6290,"multasdetran":6291,"espanolynegocios":6292,"sexotelefono":6293,"1248447866844219":6294,"tantomontamontatanto":6295,"4663857286858703":6296,"biosoftware":6297,"cortinasartesol":6298,"blueberryminiloaf":6299,"automovilesalhambra":6300,"0253":6301,"0270":6302,"0393":6303,"0493":6304,"0673":6305,"0132":6306,"0698":6307,"0850":6308,"0495":6309,"0659":6310,"0395":6311,"0158":6312,"0099":6313,"0700":6314,"0777":6315,"1136":6316,"1486":6317,"1130":6318,"1193":6319,"1430":6320,"1172":6321,"1641":6322,"2271":6323,"2637":6324,"2257":6325,"2670":6326,"2400":6327,"2107":6328,"2614":6329,"2673":6330,"2105":6331,"2698":6332,"2144":6333,"2182":6334,"2686":6335,"2616":6336,"2642":6337,"3253":6338,"3173":6339,"3450":6340,"3673":6341,"3690":6342,"3490":6343,"3195":6344,"3196":6345,"3679":6346,"3607":6347,"3653":6348,"3474":6349,"3697":6350,"3102":6351,"3395":6352,"3137":6353,"3657":6354,"3503":6355,"3397":6356,"4270":6357,"4614":6358,"4494":6359,"4698":6360,"4177":6361,"4279":6362,"4150":6363,"4621":6364,"4499":6365,"4603":6366,"4638":6367,"4228":6368,"4224":6369,"4898":6370,"5256":6371,"5103":6372,"5153":6373,"5694":6374,"5450":6375,"5490":6376,"5698":6377,"5175":6378,"5195":6379,"5644":6380,"5299":6381,"5102":6382,"5688":6383,"5244":6384,"5137":6385,"5109":6386,"5477":6387,"5703":6388,"5278":6389,"5778":6390,"5446":6391,"6253":6392,"6250":6393,"6221":6394,"6130":6395,"6630":6396,"6135":6397,"6190":6398,"6179":6399,"6175":6400,"6674":6401,"6686":6402,"6159":6403,"6254":6404,"6499":6405,"6181":6406,"7100":6407,"7730":6408,"7637":6409,"7234":6410,"7133":6411,"7208":6412,"7837":6413,"7144":6414,"7279":6415,"7246":6416,"7890":6417,"7659":6418,"7496":6419,"7224":6420,"7700":6421,"7626":6422,"7631":6423,"7209":6424,"7744":6425,"7184":6426,"8190":6427,"8493":6428,"8157":6429,"8208":6430,"8191":6431,"8196":6432,"8433":6433,"8621":6434,"8395":6435,"8684":6436,"8635":6437,"9270":6438,"9100":6439,"9257":6440,"9805":6441,"9192":6442,"9135":6443,"9650":6444,"9107":6445,"9208":6446,"9293":6447,"9175":6448,"9279":6449,"9095":6450,"9273":6451,"9686":6452,"9435":6453,"9453":6454,"9188":6455,"9288":6456,"9101":6457,"9809":6458,"9154":6459,"9184":6460,"9331":6461,"9206":6462,"9746":6463,"AL":6464,"As":6465,"Ax":6466,"Aci":6467,"Ales":6468,"Aida":6469,"ADBB":6470,"AEBF":6471,"Acu":6472,"ADBC":6473,"AEBE":6474,"Asen":6475,"Azu":6476,"Amus":6477,"BO":6478,"Bl":6479,"Bel":6480,"Bran":6481,"Bol":6482,"BDBB":6483,"BEDF":6484,"BEBB":6485,"BDDE":6486,"BDBE":6487,"BADA":6488,"BACA":6489,"Ball":6490,"Bone":6491,"Borges":6492,"CI":6493,"Cost":6494,"Cle":6495,"Cur":6496,"Ces":6497,"Cros":6498,"CDBB":6499,"CEDF":6500,"CECC":6501,"CEDC":6502,"Cisner":6503,"Dag":6504,"Due":6505,"Des":6506,"Dona":6507,"Dora":6508,"DFAB":6509,"DEDF":6510,"DCCC":6511,"DDBC":6512,"DABE":6513,"Dario":6514,"EM":6515,"Ed":6516,"Edi":6517,"EEDF":6518,"EECE":6519,"EECB":6520,"EECD":6521,"ENe":6522,"Eraso":6523,"Einstein":6524,"FI":6525,"FX":6526,"Fs":6527,"Fin":6528,"Fle":6529,"Fun":6530,"Fus":6531,"Flu":6532,"FEDF":6533,"FFBC":6534,"FECD":6535,"FEBA":6536,"Fron":6537,"Flor":6538,"FFBA":6539,"Frui":6540,"Fuerte":6541,"Gru":6542,"Gab":6543,"Gorg":6544,"Gari":6545,"GENe":6546,"HI":6547,"Hino":6548,"IL":6549,"Ie":6550,"Ii":6551,"Io":6552,"Ica":6553,"Ida":6554,"Ido":6555,"Ian":6556,"Iver":6557,"Isi":6558,"Ivanco":6559,"Jar":6560,"Jane":6561,"Ka":6562,"Km":6563,"Ko":6564,"Lli":6565,"Lap":6566,"Llen":6567,"Lion":6568,"Min":6569,"MEn":6570,"Medi":6571,"Mir":6572,"Maga":6573,"Oc":6574,"Oni":6575,"Ores":6576,"Ofi":6577,"Omer":6578,"Orella":6579,"Olof":6580,"PA":6581,"Pra":6582,"Pir":6583,"Perra":6584,"Pane":6585,"Presa":6586,"Rion":6587,"Rog":6588,"Rab":6589,"Rida":6590,"Rami":6591,"RACi":6592,"SA":6593,"Sing":6594,"Sof":6595,"Sul":6596,"Sit":6597,"Session":6598,"Tin":6599,"Tub":6600,"Tir":6601,"Tara":6602,"Tab":6603,"Tren":6604,"Tera":6605,"Tons":6606,"Tubilla":6607,"Ue":6608,"Ull":6609,"Ugar":6610,"Utri":6611,"Ves":6612,"Vil":6613,"Vai":6614,"VAn":6615,"Villo":6616,"Wal":6617,"Wil":6618,"Xa":6619,"Xi":6620,"Yes":6621,"Yem":6622,"Yaz":6623,"Yom":6624,"Zor":6625,"Zaf":6626,"aL":6627,"aR":6628,"ao":6629,"aq":6630,"av":6631,"ain":6632,"alla":6633,"ato":6634,"acor":6635,"ange":6636,"aexp":6637,"atorre":6638,"aderni":6639,"bU":6640,"bf":6641,"bh":6642,"bm":6643,"bz":6644,"bie":6645,"blog":6646,"bau":6647,"bis":6648,"blan":6649,"bcn":6650,"cU":6651,"cie":6652,"clen":6653,"clar":6654,"cHo":6655,"cbb":6656,"dA":6657,"dn":6658,"din":6659,"dda":6660,"due":6661,"dur":6662,"dino":6663,"dier":6664,"eS":6665,"ee":6666,"ef":6667,"eche":6668,"edo":6669,"eri":6670,"eth":6671,"eres":6672,"ejo":6673,"elas":6674,"elia":6675,"edon":6676,"egro":6677,"fm":6678,"ft":6679,"fy":6680,"fla":6681,"fad":6682,"fab":6683,"fis":6684,"ffi":6685,"fly":6686,"fiel":6687,"frie":6688,"facio":6689,"gI":6690,"gO":6691,"gd":6692,"gf":6693,"gmo":6694,"genes":6695,"gier":6696,"gemas":6697,"hon":6698,"hos":6699,"huen":6700,"hat":6701,"hls":6702,"hett":6703,"idi":6704,"icode":6705,"iros":6706,"ias":6707,"iva":6708,"iara":6709,"iente":6710,"jm":6711,"jer":6712,"jel":6713,"jona":6714,"josa":6715,"jares":6716,"kg":6717,"km":6718,"kp":6719,"kno":6720,"kue":6721,"kri":6722,"kra":6723,"kab":6724,"kho":6725,"kua":6726,"khor":6727,"kash":6728,"lk":6729,"lr":6730,"lmen":6731,"lgo":6732,"mq":6733,"mt":6734,"mw":6735,"mz":6736,"meng":6737,"mina":6738,"mora":6739,"mson":6740,"moso":6741,"nA":6742,"nde":6743,"nes":6744,"nau":6745,"naga":6746,"nsito":6747,"oj":6748,"ota":6749,"owen":6750,"others":6751,"pE":6752,"pw":6753,"pon":6754,"pec":6755,"pier":6756,"psi":6757,"rro":6758,"rse":6759,"run":6760,"rus":6761,"rina":6762,"rzano":6763,"sG":6764,"sd":6765,"stro":6766,"sue":6767,"sor":6768,"seng":6769,"sil":6770,"sion":6771,"sme":6772,"sam":6773,"sia":6774,"space":6775,"tc":6776,"tub":6777,"tros":6778,"tac":6779,"tman":6780,"tany":6781,"tge":6782,"tras":6783,"tsu":6784,"tRaS":6785,"uv":6786,"ual":6787,"uil":6788,"usa":6789,"uso":6790,"ujos":6791,"vy":6792,"vos":6793,"vadi":6794,"vid":6795,"vir":6796,"vet":6797,"vento":6798,"wag":6799,"wat":6800,"wley":6801,"xen":6802,"xica":6803,"yk":6804,"ying":6805,"yes":6806,"yce":6807,"ygu":6808,"zing":6809,"zko":6810,"zal":6811,"zet":6812,"zona":6813,"zhe":6814,"zuela":6815,"zone":6816,"zadilla":6817,"Ġ80":6818,"Ġ47":6819,"Ġ20":6820,"Ġ83":6821,"Ġ12":6822,"Ġ14":6823,"Ġ21":6824,"Ġ93":6825,"Ġ97":6826,"Ġ51":6827,"Ġ127":6828,"Ġ115":6829,"Ġ279":6830,"Ġ282":6831,"Ġ118":6832,"Ġ274":6833,"Ġ308":6834,"ony":6835,"onora":6836,"onaga":6837,"caba":6838,"cares":6839,"cafe":6840,"caju":6841,"canto":6842,"tech":6843,"teci":6844,"tepe":6845,"teed":6846,"tegui":6847,"tejani":6848,"tit":6849,"tiu":6850,"tiz":6851,"tint":6852,"tido":6853,"ticia":6854,"tiva":6855,"tiana":6856,"tilacion":6857,"tiveros":6858,"tiful":6859,"osam":6860,"osat":6861,"ospas":6862,"lag":6863,"lam":6864,"lat":6865,"lasp":6866,"laur":6867,"lares":6868,"lamore":6869,"layos":6870,"8019":6871,"8065":6872,"8015":6873,"8083":6874,"8022":6875,"8048":6876,"8028":6877,"8070":6878,"8011":6879,"8044":6880,"8053":6881,"8026":6882,"8038":6883,"8007":6884,"8093":6885,"8086":6886,"8097":6887,"8091":6888,"80165":6889,"80889":6890,"80243":6891,"80328":6892,"enca":6893,"ende":6894,"enig":6895,"encu":6896,"lib":6897,"lic":6898,"lida":6899,"liser":6900,"lidad":6901,"lito":6902,"liss":6903,"limi":6904,"lish":6905,"lisen":6906,"litz":6907,"ins":6908,"inform":6909,"inia":6910,"inmadrid":6911,"ague":6912,"agua":6913,"agacion":6914,"aghan":6915,"aguero":6916,"chon":6917,"ching":6918,"chami":6919,"zira":6920,"xta":6921,"cob":6922,"cox":6923,"coy":6924,"cole":6925,"colle":6926,"cofer":6927,"covan":6928,"colis":6929,"coencu":6930,"rou":6931,"ropa":6932,"rolla":6933,"roto":6934,"roid":6935,"robo":6936,"rodri":6937,"robb":6938,"rofessional":6939,"rocke":6940,"rocofer":6941,"dev":6942,"dey":6943,"depa":6944,"deal":6945,"deil":6946,"deven":6947,"deseo":6948,"decampo":6949,"develo":6950,"apio":6951,"aptea":6952,"lola":6953,"lori":6954,"loan":6955,"lora":6956,"lobe":6957,"lodge":6958,"novo":6959,"nocaseros":6960,"ecio":6961,"sega":6962,"segu":6963,"seosa":6964,"seguer":6965,"seale":6966,"ager":6967,"ageles":6968,"hostrofessional":6969,"latelia":6970,"arn":6971,"arin":6972,"aremas":6973,"Condado":6974,"iet":6975,"ielo":6976,"ieri":6977,"iello":6978,"dani":6979,"dane":6980,"dades":6981,"dante":6982,"dambo":6983,"impe":6984,"imote":6985,"leb":6986,"lev":6987,"leon":6988,"leas":6989,"leres":6990,"leria":6991,"lejos":6992,"legs":6993,"lepper":6994,"mai":6995,"mao":6996,"max":6997,"main":6998,"malla":6999,"manec":7000,"maci":7001,"mata":7002,"malas":7003,"maine":7004,"maher":7005,"paseo":7006,"enta":7007,"entron":7008,"enthal":7009,"ues":7010,"uevo":7011,"sera":7012,"serv":7013,"serig":7014,"Cab":7015,"Cane":7016,"Casi":7017,"Caban":7018,"Cabot":7019,"Enrique":7020,"Enpara":7021,"llah":7022,"llano":7023,"llares":7024,"losa":7025,"Lauren":7026,"come":7027,"Colo":7028,"Compa":7029,"Codigo":7030,"ingenieria":7031,"kessia":7032,"quel":7033,"queo":7034,"Molina":7035,"Motta":7036,"Morena":7037,"Mojeda":7038,"Molt":7039,"Moeche":7040,"koo":7041,"kov":7042,"kows":7043,"koff":7044,"coni":7045,"conga":7046,"conera":7047,"conven":7048,"Chin":7049,"Chill":7050,"Chapi":7051,"Agui":7052,"playa":7053,"IDor":7054,"Linares":7055,"spers":7056,"rega":7057,"reben":7058,"reaptea":7059,"ntE":7060,"ntra":7061,"ntza":7062,"ubet":7063,"ort":7064,"orgis":7065,"orra":7066,"ormack":7067,"2509":7068,"2530":7069,"2516":7070,"2557":7071,"2505":7072,"2542":7073,"2592":7074,"25185":7075,"25791":7076,"255413":7077,"mba":7078,"mbr":7079,"mbas":7080,"cilla":7081,"cidad":7082,"ciru":7083,"cisla":7084,"ciapla":7085,"gilio":7086,"dig":7087,"dica":7088,"dich":7089,"dici":7090,"dido":7091,"diga":7092,"dicci":7093,"diagn":7094,"rard":7095,"doza":7096,"doug":7097,"dolitz":7098,"doqueo":7099,"4025":7100,"4067":7101,"4069":7102,"4015":7103,"4087":7104,"4020":7105,"4033":7106,"4070":7107,"4050":7108,"4007":7109,"4095":7110,"4081":7111,"4008":7112,"4097":7113,"4002":7114,"4051":7115,"4091":7116,"40174":7117,"40007":7118,"2785":7119,"2723":7120,"2715":7121,"2712":7122,"2709":7123,"2779":7124,"2750":7125,"2726":7126,"2757":7127,"2703":7128,"2793":7129,"2798":7130,"2791":7131,"27243":7132,"27467":7133,"27797":7134,"rici":7135,"rias":7136,"rija":7137,"rianne":7138,"uru":7139,"urin":7140,"pero":7141,"peda":7142,"petre":7143,"cars":7144,"caraz":7145,"cardina":7146,"lene":7147,"lente":7148,"mobley":7149,"thie":7150,"esh":7151,"erlich":7152,"alm":7153,"alber":7154,"alqui":7155,"rose":7156,"rosenthal":7157,"miel":7158,"ann":7159,"anni":7160,"anime":7161,"aniello":7162,"1017":7163,"1069":7164,"1047":7165,"1065":7166,"1033":7167,"1075":7168,"1079":7169,"1026":7170,"1057":7171,"1058":7172,"1086":7173,"1001":7174,"1096":7175,"1054":7176,"1002":7177,"1091":7178,"10250":7179,"10133":7180,"10240":7181,"10880":7182,"10996":7183,"dador":7184,"recilla":7185,"2912":7186,"2961":7187,"2937":7188,"2907":7189,"2982":7190,"2994":7191,"29183":7192,"29689":7193,"29189":7194,"29490":7195,"29410":7196,"291031":7197,"3967":7198,"3912":7199,"3974":7200,"3959":7201,"3966":7202,"3988":7203,"3942":7204,"3971":7205,"3980165":7206,"1780":7207,"1785":7208,"1719":7209,"1715":7210,"1789":7211,"1748":7212,"1764":7213,"1724":7214,"1714":7215,"1730":7216,"1777":7217,"1734":7218,"1797":7219,"1751":7220,"1732":7221,"1798":7222,"8565":7223,"8583":7224,"8522":7225,"8509":7226,"8555":7227,"8511":7228,"8599":7229,"8558":7230,"8578":7231,"8503":7232,"8542":7233,"8593":7234,"8576":7235,"8571":7236,"8596":7237,"8554":7238,"8594":7239,"85439":7240,"85453":7241,"6743":7242,"6770":7243,"6724":7244,"6750":7245,"6759":7246,"6738":7247,"6707":7248,"6705":7249,"6771":7250,"6797":7251,"6704":7252,"6798":7253,"6791":7254,"6929":7255,"6947":7256,"6913":7257,"6987":7258,"6933":7259,"6930":7260,"6988":7261,"6942":7262,"6995":7263,"6993":7264,"6986":7265,"6956":7266,"6954":7267,"6994":7268,"69254":7269,"69235":7270,"2329":7271,"2319":7272,"2315":7273,"2357":7274,"2303":7275,"2354":7276,"23679":7277,"23210":7278,"23391":7279,"6367":7280,"6320":7281,"6312":7282,"6348":7283,"6361":7284,"6359":7285,"6330":7286,"6366":7287,"6321":7288,"6337":7289,"6338":7290,"6358":7291,"6376":7292,"6301":7293,"6306":7294,"63540":7295,"tol":7296,"tola":7297,"tores":7298,"tobia":7299,"toinformatica":7300,"elles":7301,"1925":7302,"1917":7303,"1923":7304,"1949":7305,"1948":7306,"1984":7307,"1926":7308,"1937":7309,"1976":7310,"1956":7311,"1951":7312,"19110":7313,"19185":7314,"19895":7315,"4710":7316,"4715":7317,"4743":7318,"4709":7319,"4714":7320,"4730":7321,"4778":7322,"4786":7323,"4776":7324,"4731":7325,"4794":7326,"47494":7327,"6525":7328,"6567":7329,"6569":7330,"6547":7331,"6512":7332,"6575":7333,"6573":7334,"6511":7335,"6514":7336,"6559":7337,"6544":7338,"6521":7339,"6557":7340,"6541":7341,"6503":7342,"6542":7343,"6581":7344,"6501":7345,"6536":7346,"6594":7347,"65454":7348,"1575":7349,"1570":7350,"1579":7351,"1511":7352,"1574":7353,"1590":7354,"1503":7355,"1576":7356,"1592":7357,"15076":7358,"1329":7359,"1385":7360,"1323":7361,"1387":7362,"1368":7363,"1350":7364,"1335":7365,"1300":7366,"1344":7367,"1321":7368,"1334":7369,"1346":7370,"1303":7371,"1376":7372,"1382":7373,"1308":7374,"13001":7375,"8727":7376,"8760":7377,"8755":7378,"8762":7379,"8730":7380,"8788":7381,"8753":7382,"8737":7383,"8795":7384,"8701":7385,"8708":7386,"8754":7387,"87860":7388,"872387":7389,"872585":7390,"6023":7391,"6087":7392,"6033":7393,"6075":7394,"6061":7395,"6055":7396,"6079":7397,"6011":7398,"6053":7399,"6084":7400,"6058":7401,"6042":7402,"6081":7403,"6056":7404,"6052":7405,"6031":7406,"6054":7407,"60477":7408,"4323":7409,"4387":7410,"4320":7411,"4314":7412,"4344":7413,"4353":7414,"4307":7415,"4341":7416,"4386":7417,"43694":7418,"43732":7419,"8915":7420,"8960":7421,"8989":7422,"8983":7423,"8973":7424,"8935":7425,"8990":7426,"8978":7427,"8956":7428,"8902":7429,"ssen":7430,"ssand":7431,"4543":7432,"4545":7433,"4520":7434,"4549":7435,"4518":7436,"4550":7437,"4559":7438,"4566":7439,"4544":7440,"4590":7441,"4572":7442,"4508":7443,"4591":7444,"45200":7445,"45479":7446,"45952":7447,"2010":7448,"2085":7449,"2067":7450,"2047":7451,"2049":7452,"2088":7453,"2090":7454,"2058":7455,"2093":7456,"2071":7457,"2054":7458,"2004":7459,"2098":7460,"2092":7461,"20905":7462,"201886":7463,"asa":7464,"asia":7465,"asher":7466,"asdn":7467,"promotor":7468,"4925":7469,"4945":7470,"4964":7471,"4914":7472,"4962":7473,"4916":7474,"4984":7475,"4958":7476,"4978":7477,"4996":7478,"4931":7479,"4998":7480,"49129":7481,"49430":7482,"49639":7483,"49638":7484,"8367":7485,"8369":7486,"8323":7487,"8365":7488,"8322":7489,"8321":7490,"8353":7491,"83698":7492,"83263":7493,"83617":7494,"ilus":7495,"carritobob":7496,"EDG":7497,"EDAC":7498,"EDDA":7499,"EDBD":7500,"2263":7501,"2268":7502,"2228":7503,"2261":7504,"22257":7505,"adillas":7506,"nic":7507,"nix":7508,"nica":7509,"nior":7510,"idor":7511,"ionari":7512,"ionador":7513,"Reg":7514,"Rebes":7515,"FAEA":7516,"FAFE":7517,"FACE":7518,"FACD":7519,"FABF":7520,"ntcu":7521,"FCEB":7522,"FCDC":7523,"FCDD":7524,"FCCB":7525,"FCDF":7526,"FCCE":7527,"FCCD":7528,"FCCF":7529,"ECFC":7530,"ECAD":7531,"ECBC":7532,"ECAE":7533,"FBCC":7534,"FBDB":7535,"FBAA":7536,"FBAB":7537,"FBFF":7538,"FBAC":7539,"FBFE":7540,"FBBE":7541,"FBAF":7542,"FBEF":7543,"acid":7544,"EBED":7545,"EBEC":7546,"EBDC":7547,"EBFE":7548,"EBDE":7549,"EBCE":7550,"EBBE":7551,"EBBD":7552,"EBCD":7553,"1210":7554,"1285":7555,"1213":7556,"1289":7557,"1218":7558,"1268":7559,"1281":7560,"1282":7561,"12230":7562,"3367":7563,"3323":7564,"3363":7565,"3365":7566,"3300":7567,"3305":7568,"3332":7569,"1815":7570,"1860":7571,"1849":7572,"1814":7573,"18660":7574,"18179":7575,"18178":7576,"7549":7577,"7533":7578,"7509":7579,"7530":7580,"7546":7581,"7541":7582,"7578":7583,"7505":7584,"7503":7585,"7501":7586,"7552":7587,"7508":7588,"75639":7589,"75478":7590,"754319":7591,"EAED":7592,"EACC":7593,"EADB":7594,"EAAD":7595,"EABC":7596,"EADF":7597,"EACE":7598,"EACD":7599,"giftos":7600,"6863":7601,"6860":7602,"6849":7603,"6816":7604,"6826":7605,"4827":7606,"4847":7607,"4887":7608,"4848":7609,"4864":7610,"4811":7611,"48600":7612,"48195":7613,"FDFD":7614,"FDAD":7615,"FDDE":7616,"FDBA":7617,"FDBD":7618,"FDAF":7619,"0943":7620,"0989":7621,"0949":7622,"0975":7623,"0955":7624,"0903":7625,"0942":7626,"0956":7627,"09129":7628,"09390":7629,"09227":7630,"09199":7631,"09258":7632,"rabel":7633,"rafia":7634,"2865":7635,"2887":7636,"2843":7637,"2883":7638,"2822":7639,"2888":7640,"28127":7641,"CCED":7642,"CCFA":7643,"CCCC":7644,"CCAA":7645,"CCAD":7646,"CCCA":7647,"CCBA":7648,"CCCF":7649,"CCBF":7650,"DBFA":7651,"DBFB":7652,"DBAD":7653,"DBBB":7654,"DBFE":7655,"DBDE":7656,"DBBC":7657,"DBCA":7658,"DBCF":7659,"6180":7660,"6139":7661,"6189":7662,"6145":7663,"6120":7664,"6149":7665,"6166":7666,"6144":7667,"7340":7668,"7360":7669,"7345":7670,"7349":7671,"7324":7672,"7386":7673,"AAFA":7674,"AAEB":7675,"AAAE":7676,"AADF":7677,"AACE":7678,"AAEF":7679,"7025":7680,"7029":7681,"7085":7682,"7020":7683,"7075":7684,"7009":7685,"7064":7686,"7074":7687,"7066":7688,"7077":7689,"7088":7690,"7058":7691,"7005":7692,"7086":7693,"70479":7694,"aup":7695,"aula":7696,"aume":7697,"5510":7698,"5518":7699,"5573":7700,"5559":7701,"5530":7702,"5546":7703,"5532":7704,"5591":7705,"7939":7706,"7919":7707,"7918":7708,"7909":7709,"7973":7710,"7914":7711,"7988":7712,"7953":7713,"7986":7714,"7982":7715,"7952":7716,"7902":7717,"7992":7718,"79447":7719,"6487":7720,"6460":7721,"6414":7722,"6416":7723,"6426":7724,"64107":7725,"64627":7726,"ABED":7727,"ABFB":7728,"ABEA":7729,"ABDB":7730,"ABDC":7731,"ABAC":7732,"ABEE":7733,"ABBB":7734,"DCFB":7735,"DCAA":7736,"DCBD":7737,"DCAF":7738,"FFFC":7739,"FFEC":7740,"FFFB":7741,"1127":7742,"1167":7743,"1187":7744,"1189":7745,"1168":7746,"1146":7747,"ACED":7748,"ACFA":7749,"ACDB":7750,"ACEE":7751,"ACBC":7752,"ACBD":7753,"ACBFA":7754,"2415":7755,"2443":7756,"2445":7757,"2411":7758,"2446":7759,"24210":7760,"5067":7761,"5015":7762,"5022":7763,"5033":7764,"5009":7765,"5055":7766,"5074":7767,"5062":7768,"5044":7769,"5005":7770,"5003":7771,"5082":7772,"5054":7773,"50614":7774,"50178":7775,"50296":7776,"ballo":7777,"balto":7778,"7447":7779,"7424":7780,"1427":7781,"1429":7782,"1465":7783,"1420":7784,"1449":7785,"1444":7786,"1421":7787,"141648":7788,"EEED":7789,"EEFF":7790,"5925":7791,"5929":7792,"5915":7793,"5987":7794,"5989":7795,"5933":7796,"5918":7797,"5914":7798,"5959":7799,"5906":7800,"59882":7801,"ADFC":7802,"ADDB":7803,"ADAA":7804,"ADAB":7805,"ADFF":7806,"ADEE":7807,"ADFE":7808,"6280":7809,"6266":7810,"gloves":7811,"mee":7812,"mei":7813,"meda":7814,"melinda":7815,"merich":7816,"medici":7817,"BBFC":7818,"BBEA":7819,"BBCC":7820,"BBCE":7821,"BBEF":7822,"3040":7823,"3067":7824,"3083":7825,"3014":7826,"3059":7827,"3066":7828,"3001":7829,"3004":7830,"3032":7831,"casti":7832,"casmi":7833,"DDAF":7834,"6640":7835,"6617":7836,"6660":7837,"6661":7838,"6664":7839,"CBAB":7840,"CBFF":7841,"CBAC":7842,"CBDA":7843,"CBAF":7844,"2534":7845,"3580":7846,"3585":7847,"3547":7848,"3589":7849,"3561":7850,"3579":7851,"3566":7852,"3577":7853,"3588":7854,"3578":7855,"3542":7856,"3536":7857,"35889":7858,"35453":7859,"7710":7860,"7717":7861,"7785":7862,"7763":7863,"7747":7864,"7765":7865,"7775":7866,"7768":7867,"7709":7868,"7784":7869,"8869":7870,"8843":7871,"8861":7872,"8842":7873,"8886":7874,"0040":7875,"0047":7876,"0043":7877,"0020":7878,"0028":7879,"0077":7880,"0057":7881,"0058":7882,"0041":7883,"jam":7884,"javila":7885,"4445":7886,"4422":7887,"4462":7888,"DAFD":7889,"DAFF":7890,"DAEF":7891,"acuel":7892,"acena":7893,"9947":7894,"9913":7895,"9949":7896,"9970":7897,"9999":7898,"9946":7899,"9976":7900,"9936":7901,"2163":7902,"2145":7903,"21890":7904,"BCDC":7905,"BCEE":7906,"BCAD":7907,"BCBB":7908,"tosa":7909,"toscbb":7910,"1629":7911,"1617":7912,"1619":7913,"1613":7914,"1687":7915,"1612":7916,"16270":7917,"16193":7918,"16807":7919,"162819":7920,"ames":7921,"5327":7922,"5339":7923,"5365":7924,"5360":7925,"5320":7926,"5328":7927,"5373":7928,"5364":7929,"5378":7930,"8440":7931,"8489":7932,"8449":7933,"8412":7934,"8461":7935,"8411":7936,"AEFB":7937,"AEFF":7938,"2629":7939,"2669":7940,"2665":7941,"2643":7942,"263973":7943,"DFED":7944,"DFFD":7945,"CEED":7946,"corte":7947,"cordia":7948,"coradio":7949,"5725":7950,"5717":7951,"5773":7952,"5766":7953,"CAFA":7954,"CAEB":7955,"dena":7956,"BAFA":7957,"3785":7958,"3733":7959,"3781":7960,"37470":7961,"9069":7962,"9047":7963,"9013":7964,"9028":7965,"9084":7966,"9041":7967,"9078":7968,"BEED":7969,"BEEA":7970,"BEFF":7971,"3449":7972,"3422":7973,"3414":7974,"Cresp":7975,"BDDC":7976,"CDa":7977,"CDEA":7978,"CDDB":7979,"3885":7980,"3868":7981,"3861":7982,"5840":7983,"5829":7984,"5839":7985,"5823":7986,"5848":7987,"5816":7988,"BFED":7989,"BFFB":7990,"0769":7991,"0763":7992,"0783":7993,"0718":7994,"07191":7995,"AFFA":7996,"AFEB":7997,"AFFD":7998,"EFFC":7999}