#version: 0.2
o n
c a
t e
t i
m l
o s
l a
8 0
c c
e n
l i
p t
cc e
A cce
Acce pt
i n
a g
ti on
c h
ch e
h t
os t
z i
x t
x ml
te xt
c o
r o
d e
a p
l o
li ca
ap p
lica tion
app lication
n o
e c
s e
n g
t f
ca l
ag e
h ost
ht ml
de f
la te
lo cal
local host
ca che
* ;
H T
g zi
u tf
Ġ (
Ġ K
Ġ x
Ġ no
Ġ utf
def late
gzi p
80 80
a r
C on
d a
i e
t ro
i m
l e
m a
p a
en t
u e
C a
se r
E n
ro r
l la
l os
L a
co m
C o
o k
ok ie
k e
q ue
in g
M o
k o
c on
r ag
A g
C h
S E
b le
t p
ht tp
p la
I D
u x
S S
ar se
n ec
I O
L in
ng u
: /
d ing
tro l
H ost
con trol
:/ /
pa ti
li ke
los e
IO N
c lose
zi lla
* /
, */
G ec
J SE
M L
P rag
T P
U ser
p ng
x html
Ġ en
Ġ text
Ġ localhost
Ġ *;
Ġ HT
Ġ deflate
Ġ gzip
Ġ Mo
Ġ http
Ġ Lin
Ġ close
Ġ Gec
Ġ JSE
on que
co ding
HT ML
ĠK onque
ĠK HTML
Con nec
im age
Ca che
En coding
La ngu
com pati
Co okie
Ag ent
Ch arse
pla in
SS ION
,*/ *;
Prag ma
ĠHT TP
ĠMo zilla
ĠLin ux
ĠGec ko
ĠJSE SSION
ĠKonque ror
Connec tion
Langu age
compati ble
Charse t
ĠJSESSION ID
en da
ti enda
r e
s p
j sp
E T
G ET
n t
o r
u b
te nt
w w
Con tent
p ub
li co
pub lico
m b
c i
2 5
g i
d i
gi s
r ar
d o
4 0
u r
r i
p e
2 7
m o
ca r
l en
t h
mo do
f or
en g
for m
co de
y pe
L eng
ur len
T ype
Ġ application
ww w
code d
Leng th
urlen coded
S T
e s
P O
PO ST
e r
lo g
a l
r os
a n
m ie
mb ros
mie mbros
1 0
da d
ci a
mb re
no mbre
log in
re gis
regis tro
t rar
2 9
r ec
1 7
en es
ag enes
im agenes
2 3
e l
6 3
1 3
i o
8 5
1 5
t o
6 9
6 5
4 3
6 7
s s
1 9
4 7
8 7
2 0
p ro
4 5
6 0
a s
8 9
8 3
i l
4 9
n i
2 2
E D
R e
i on
car ri
carri to
a di
li d
t ar
n ti
v in
i d
pa ss
pass w
u dad
adi r
e ma
cc ion
or d
nt c
c p
ap el
pro vin
d ni
passw ord
re ccion
ci udad
di reccion
lid os
ema il
apel lidos
provin cia
p rec
Re gis
prec io
Regis trar
3 9
F A
ent rar
E C
F C
1 2
F D
a ci
F B
3 3
4 8
E B
0 9
1 8
r a
aci ar
A C
6 8
gi f
7 5
2 8
A D
A B
6 1
7 0
a u
6 4
7 3
7 9
5 5
F E
B B
D C
1 4
6 2
5 9
C C
E E
0 0
D B
1 1
A A
m e
2 4
b al
F F
7 4
ca s
g lo
5 0
glo bal
3 0
D D
p g
j pg
6 6
A E
C B
3 7
4 4
3 5
8 8
a c
9 9
le s
j a
2 1
D E
au te
w d
e di
an adir
nti car
aute nticar
mb er
7 7
p wd
re me
25 3
reme mber
B C
ca nti
canti dad
A F
edi tar
ag ar
En trar
+ &
p agar
3 8
s ti
in ser
2 6
inser tar
t os
C D
0 5
a m
1 6
C E
B D
B E
8 4
9 0
co r
te ri
s g
v aciar
5 7
car ac
carac teri
sti cas
caracteri sticas
M sg
ror Msg
er rorMsg
B A
d en
3 4
t as
C A
9 5
C re
D A
den cia
C F
V aciar
in cor
Cre dencia
incor rec
Credencia les
incorrec tas
E A
7 8
D F
B F
E F
4 6
i r
4 1
7 2
8 1
s t
4 2
5 3
8 2
7 1
9 3
8 6
0 3
m en
7 6
m ar
5 8
in de
g o
25 6
inde x
s a
l le
0 7
3 1
5 6
9 7
5 4
3 6
0 8
o f
0 1
9 4
27 0
3 2
5 2
9 2
9 6
log o
0 2
s o
0 6
9 8
= %
5 1
t a
9 1
P as
Ca lle
0 4
p or
f ir
of f
Con fir
Confir mar
i a
ca ja
Pas ar
in o
10 0
u l
u m
25 2
t u
D e
R io
+ %
d u
M an
z ar
- -
Rio ja
e t
Ġ 2
f o
o g
z a
n a
25 0
Q ue
v a
v i
V ino
A l
on o
che go
Man chego
S a
er ra
st ra
ri co
n ue
Ġ 33
c re
I b
Que so
b a
ti tu
au z
titu lo
J am
zar auz
Ġ 17
Ġ 4
og ono
es ti
men um
25 63
cre di
ti erra
du c
credi tos
c ss
on a
esti los
stra tierra
nue stratierra
pro duc
produc tos
sa li
b ul
cas tro
sali r
fo tos
c men
cmen bul
ar os
V i
ma n
a d
a i
25 74
a da
r u
b o
c e
r an
w i
pe r
le r
de l
g a
u n
-- %
u i
o l
re s
as f
n e
wi de
A r
S an
co okie
1 23
m i
j o
ar a
1 10
25 29
25 69
P a
25 65
B ar
6 40
09 0
de la
M ar
b er
6 13
F N
v e
s c
10 4
s te
V a
S C
l l
P T
SC R
I PT
C ar
ler t
b e
s h
P aros
a lert
w ai
t or
29 0
tf or
T am
i s
u s
M a
dela y
B wai
Bwai tfor
id A
Ġ 25
S et
B Tam
u en
BTam per
25 22
an y
a b
23 5
R o
G u
an a
Ġ 38
7 83
in a
v er
i g
S e
N a
Ġ 43
L e
am p
23 4
or a
73 0
B a
len cia
Sa nt
l u
la n
A Set
y a
v ar
P e
c el
e x
13 0
errorMsg A
ue l
22 1
. +
87 6
ri pt
ri a
f i
27 1
25 61
V al
m p
M on
C SCR
E alert
B ur
g os
25 7
i da
Vi lla
de r
ie r
19 0
1 83
b ar
m er
17 0
1 40
li n
e b
23 0
27 9
Sa la
6 60
25 28
19 2
cel ona
1 60
ED a
1 85
p aros
a t
T or
1 27
17 5
h o
s i
ri d
47 27
1 29
ag o
15 9
te r
15 0
15 3
1 89
2 63
1 65
25 37
g e
80 5
23 9
87 89
1 13
19 3
1 67
1 47
1 63
1 20
4 45
b i
25 73
17 9
19 9
1 43
h i
4 43
25 70
k a
h e
j e
17 3
ue r
10 3
2 43
13 5
69 0
1 87
de s
Bur gos
6 85
6 20
6 43
T o
65 0
47 0
45 9
104 12
v ia
or g
110 2537
640 1102537
10412 6401102537
104126401102537 4727
13 3
Ġ 24
25 27
10 5
v o
40 9
27 3
el l
15 7
m u
19 7
12 4
27 5
10 7
2 49
29 3
15 5
la s
m d
80 0
25 5
17 4
47 3
man ca
I n
19 5
Sala manca
D el
in c
13 9
87 5
45 3
6 89
h a
li a
F sc
v as
Ġ 67
23 7
67 0
45 0
4 63
d or
t r
87 0
20 0
Gu ada
c k
49 9
st a
49 3
613 6
2 65
4 47
40 0
17 8
87 9
40 3
Ġ 74
45 7
29 9
p o
27 8789
48 6136
18 8
2529 278789
Bar celona
amp les
486136 2529278789
4861362529278789 730
10 9
69 9
2 85
P l
15 8
43 9
61 4
A FB
q u
23 8
AC B
1 80
4 80
4 85
25 9
23 3
63 9
49 5
FA B
R O
43 0
49 0
6 83
Z ar
l lo
p i
6 47
67 9
19 1
EC A
60 0
R a
c md
modo A
17 7
F EB
40 5
12 6
2 89
10 8
14 4
-- &
D FC
J u
g u
ED F
1 69
2 47
4 83
67 5
2 83
te s
AC E
68 8
b ac
j ara
Ġ 71
13 8
87 3
20 9
60 9
12 8
A v
P o
z o
25 4
A FA
E AB
ch a
69 5
ED B
AC C
63 5
15 4
19 8
6 80
B er
17 2
6 65
B o
D BB
ci o
67 3
6 27
A EB
E FA
m in
29 7
69 7
45 5
E l
F FA
t t
vi la
Guada la
T er
ED C
14 2
A AD
30 63
ago za
Guadala jara
E EB
29 8
D EB
f a
85 0
65 3
43 3
19 4
E FB
25 72
10 6
87 7
49 7
48 8
1 15
C EC
27 7
23 6
89 9
B EB
N D
ch i
13 2
47 5
60 7
49 8
1 18
A FC
D DC
27 2
13 7
E FC
os a
80 9
ur a
63 0
85 5
83 0
G ir
25 8
85 9
22 8
Va lencia
2 20
C DC
R i
69 8
89 0
Co r
60 3
ED E
14 1
A FD
Z am
69 090
89 5
1 45
F FC
c u
17 6
43 7
47 7
83 5
68 6
FE F
2563 290
783 2563290
3063 7832563290
69090 30637832563290
4 20
A AB
l d
Ġ 34
en a
10 2
89 3
Na var
A ND
B AD
13 4
85 7
D AB
E FD
g ar
47 8
39 0
I N
t ra
80 3
or ia
67 7
Zar agoza
C DB
M ad
29 2
13 6
83 9
EC E
48 4
Zam ora
C AD
27 8
65 9
43 5
45 8
22 4
14 6
C FA
C FB
er a
29 5
64 4
7 79
C FD
D AC
y o
do c
69 3
60 2
89 7
12 1
B AB
C BB
P la
lla do
40 4
27 4
29 4
19 6
60 5
B CC
T ar
la r
87 8
20 3
D AD
F FD
L le
i t
40 7
FE E
un d
1 17
2 23
6 10
b u
25 20
27 6
63 3
65 5
ED D
09 3
bo b
/ .
A EE
B CB
m on
67 4
20 55
EC D
28 8
B FC
B DC
D FD
G a
69 4
09 5
62 4
2 45
L u
r as
43 4
2 15
7 75
9 090
F H
j u
40 8
63 8
67 8
1 22
D FB
47 9
49 2
D DB
O r
l s
x y
Ġ 5
80 7
EC B
18 6
Sant a
Navar ra
1 61
B FD
B DB
F G
J a
s ca
an d
EC C
18 2
C i
C EB
f e
ar i
63 7
precio A
7 39
A n
C AC
C AB
87 4
Va llado
Vallado lid
2 25
60 4
EC F
1 25
1 62
67 2
49 4
18 4
FF F
57 65
A AC
P U
1 19
C AA
i pt
q ui
r IPT
43 8
20 5
pro xy
83 7
ED A
68 4
70 0
FE A
11 1
CSCR ipt
paros proxy
Fsc rIPT
Lle ida
Mad rid
PU T
+ --%
C FC
D FA
Ġ 62
ur i
15 2
15 6
65 7
60 8
83 8
11 6
B FB
Ġ 18
47 4
20 8
75 0
61 6
F FB
Ġ 68
Ġ 75
48 6
EE F
1 64
B FA
D AE
c ript
23 2
65 4
EC T
75 9
na me
uen ca
2 80
E AD
en te
le y
23 1
85 8
BB F
50 3
Pa lencia
B DE
k i
s on
Ġ 61
85 3
89 6
83 3
EB D
Gir ona
A ED
g ro
h or
lo r
29 6
67 234
68 1
50 5
876 235
2055 67234
5765 205567234
5765205567234 876235
2 87
A R
B ED
C DE
C uenca
y le
22 6
G ran
n er
80 4
ar d
ue la
29 1
A FF
D ED
F EC
u a
83 4
EB E
62 1
2 10
v es
45 4
18 1
28 1
62 6
DB C
go via
C AE
M e
l y
s ch
28 4
28 6
AA F
2 19
3 79
7 67
d on
25 75
13 1
68 2
EE E
Se govia
F e
an i
89 4
ED n
FC E
EB A
AC F
70 5
DD E
DD F
ke r
25 67
63 4
69 2
FB E
33 5
48 2
AC A
B EC
40 1
33 0
66 6
2 17
3 75
A FE
D o
g ue
Ġ 72
Ca s
Ca ste
20 4
AB D
55 0
DD D
S o
S oria
FC F
CB D
Ter uel
3 59
F SCR
P i
c gi
nombre A
65 8
FB C
28 2
64 6
EE A
AA A
CD A
Car re
CSCR IPT
FSCR IPT
1 49
2 27
40 6
22 2
64 2
BE F
um ent
0 85
5 79
C ED
E AE
P ar
m c
Ġ 60
ca t
FA D
FD F
AA E
doc ument
0 55
C FE
L i
os e
ch o
15 1
45 6
89 1
FC A
en e
10 1
FD B
09 4
35 7
3 39
8 85
u ser
ar es
47 6
FC B
61 1
2 29
2 60
F FE
s u
ag a
63 1
67 1
89 2
FD A
75 3
37 7
E X
n te
w eb
in e
69 6
20 7
FD C
DB D
BE A
st yle
0 87
a sp
v an
25 64
49 1
33 7
EB B
ol d
EX EC
1 14
v en
00 0
24 4
ja vas
bac k
B e
U r
login A
43 6
20 6
89 8
AB C
BB A
DC E
DC F
74 4
AE A
77 7
D EE
rag ona
ur l
67 6
FA A
FC D
70 7
123 12
C FF
E FF
F RO
O L
f er
25 68
63 6
60 1
39 5
75 8
59 9
DD A
AE F
CD F
FRO M
9 55
17 1
85 6
49 6
ion id
44 4
44 6
123 12312
Ju an
user name
0 35
A alert
A url
B FF
F ED
r on
Ca mp
69 1
65 2
87 1
FD D
00 5
DB E
gro und
javas cript
back ground
3 47
B EE
g ra
r y
Ġ 63
63 2
45 1
FC C
EB F
64 1
0 09
7 09
t on
ti n
li o
ri o
45 2
39 9
FA C
FB B
48 1
79 5
79 9
DC D
88 4
BC A
Tar ragona
3 55
5 85
80 6
40 2
43 2
EB C
AD D
3 17
3 15
B FE
C AF
E AC
d ra
u t
FA F
FB D
79 0
DE A
9 75
E AA
M i
d ro
Ġ 59
80 8
60 6
AB A
73 5
BC F
3 09
D FF
E ED
E AF
DC B
CC A
E EC
T e
b in
83 6
FB F
70 8
59 8
CB A
88 2
25 1
87 2
70 3
CC C
BC D
jo z
3 27
B ada
D EC
in i
33 8
DB F
74 1
ja va
05 8
2 67
A EC
B AC
E s
ar t
65 6
FB A
AD F
AB B
59 5
vi lla
4 67
G ar
le do
es s
AB E
CC D
00 7
30 5
CE A
ce res
Bada joz
3 70
E FE
H ue
47 2
75 5
AD B
AD C
73 7
0 63
6 87
9 09
D FE
t an
Ca m
Ca n
FD E
33 3
AB F
79 3
2 13
8 17
c es
le t
85 4
33 4
AD A
BB D
DC C
CC B
0 37
1 68
4 19
5 80
5 09
7 15
B AF
Ġ 64
65 1
BB C
CB C
DE F
To ledo
C e
D AA
39 3
39 8
75 6
73 8
79 7
DC A
DB A
CB E
21 6
0 59
1 48
F er
H er
30 7
44 2
88 6
77 8
1 12
g en
85 2
ss ionid
AD E
24 6
50 8
88 8
BC E
am i
CE F
B DD
t z
CB F
35 3
5 27
B AA
y u
BB B
BB E
BD F
In c
5 40
6 17
C EE
T a
c os
t al
20 2
73 2
CC E
24 1
BD A
OL D
3 60
5 30
D AF
N e
O R
S al
80 2
ie l
di a
37 8
7 27
9 30
L os
33 6
AC D
75 2
00 4
Pl za
0 13
0 70
Ca nt
83 1
73 4
CC F
35 8
7 19
7 87
7 60
8 15
B AE
C DD
L o
h er
w a
95 3
Gran ada
4 22
9 39
N o
47 1
FA E
99 0
Tor re
0 43
3 23
4 17
5 13
5 49
O ld
b y
b re
e te
s an
al l
24 2
Vi la
3 44
4 23
6 23
7 23
7 70
9 35
e z
s en
te l
+ .
3 67
4 27
5 39
7 47
8 20
h an
80 1
75 4
59 0
00 3
uen te
2 40
2 69
3 10
3 19
3 50
0 89
3 43
4 65
6 63
8 27
9 13
9 15
Q u
V e
ma d
il lo
73 1
ru z
Hue sca
4 15
5 17
6 19
8 45
9 89
g r
ec re
se ssionid
99 4
77 2
0 10
1 66
3 87
3 49
4 89
5 69
5 67
5 87
7 17
9 79
A M
A lica
E R
b el
d y
s co
te ra
00 8
30 8
ab ria
0 39
0 33
3 89
4 40
7 43
b ra
e m
n an
u re
25 40
83 2
05 3
Alica nte
0 38
3 29
3 13
4 49
7 65
8 10
8 23
A nt
F ran
b r
j ar
s k
t re
09 2
59 3
88 1
Ba k
2 48
5 23
5 35
6 69
7 69
8 63
b an
hor as
0 50
5 20
9 19
9 60
M u
a z
ma s
39 2
ier ra
0 67
0 79
3 80
4 87
4 60
5 45
5 38
G o
b as
c tor
r m
in t
0 27
2 68
3 63
3 20
3 12
3 24
8 80
8 13
8 60
8 89
9 10
9 23
9 65
9 45
9 83
9 70
9 50
9 05
9 57
D a
T ra
b ur
f f
h u
i c
l on
s ecre
55 5
84 6
3 18
4 13
4 68
4 21
6 15
7 40
7 22
E sp
n s
Ġ 65
ar chi
40 40
90 8
BA K
78 2
78 6
sc ript
archi vo
3 65
5 63
8 65
9 27
e ro
n et
La s
33 1
00 6
74 6
Caste ll
0 83
3 22
5 60
5 77
7 29
7 89
7 18
r ie
os o
li na
lla s
39 1
55 7
84 2
90 6
fi le
0 64
5 70
6 49
8 24
P AR
Ġ 66
li s
20 1
75 7
73 6
79 1
55 9
0 23
0 69
0 73
5 29
5 83
5 00
9 69
J o
J ECT
y e
ED o
ba k
IN JECT
PAR AM
INJECT ED
0 45
3 74
4 69
4 11
6 45
6 18
7 80
9 61
G ui
d ri
f re
en i
re z
ub i
43 1
84 1
0 17
2 18
5 10
5 19
5 28
6 67
7 13
7 14
8 67
8 49
8 11
9 49
J ose
c f
g er
m s
p r
p ar
25 00
39 4
44 1
3 83
3 61
3 88
4 10
9 17
9 85
9 33
9 59
P or
r f
Ġ 58
da n
di o
50 7
0 29
3 48
5 15
5 43
6 25
6 22
8 47
9 80
b ro
99 7
5 26
7 20
7 64
8 40
8 29
L E
s y
li ng
75 1
79 4
37 6
35 6
57 6
* +
0 80
2 12
5 89
5 33
5 44
6 68
8 87
h ac
t ri
Ġ 41
aci on
09 6
99 3
Ġ2 48
lu de
ex ec
inc lude
secre to
+ -
0 47
0 20
2 14
7 25
7 45
8 83
9 29
9 00
B cat
F passw
F et
m y
do ba
ri s
09 8
55 6
59 4
59 7
90 4
53 6
Pla za
Cant abria
Fpassw d
Fet c
0 40
2 62
3 25
3 69
3 00
5 24
7 62
9 63
9 20
A le
F on
G i
f ran
i x
u g
u la
v al
Ca l
85 1
Re al
IN C
Carre r
6 29
8 43
9 37
a ju
u d
w s
55 8
50 6
0 49
0 18
4 64
8 25
L I
M as
c l
i ra
Ġ 46
lo ca
Co ru
70 2
30 3
05 7
am ent
95 4
Ġ2 49
us u
0 22
3 85
3 11
3 26
4 29
5 73
6 28
6 64
9 43
9 67
9 48
9 38
A st
D i
u y
Ġ 39
di r
70 4
74 2
05 6
0 19
0 48
0 68
3 45
4 48
5 25
5 65
7 73
9 77
A b
F a
I l
j an
p re
t y
Ġ 250
da s
pa n
il l
39 7
09 7
30 2
90 7
Ġ25 4
Ci udad
0 15
0 60
0 78
3 40
3 28
4 66
5 47
8 21
E r
I s
P on
t ti
ca n
nt ament
90 1
57 2
34 1
34 6
3 16
4 25
4 14
5 37
5 81
9 84
H ER
P in
a f
g as
p in
z an
Ġ 44
lla r
39 6
33 2
30 6
38 6
Ġ2 47
Ġ25 1
HER E
5 14
7 63
8 66
9 28
9 11
9 81
S er
e d
on io
im a
70 6
00 1
50 2
30 4
34 2
+ *+
0 88
0 16
3 68
5 12
5 84
5 46
8 48
9 47
9 18
9 78
B u
D RO
K E
L ECT
T AB
W HERE
b la
c n
g an
Ġ 256
da tos
SE LECT
re a
or n
Ġ2 62
ari os
uri as
aju ntament
LI KE
usu arios
DRO P
TAB LE
/ _
0 65
0 75
0 81
5 64
7 49
7 84
8 44
9 40
C script
E document
F cookie
F cgi
F hac
P uer
d ar
m or
m il
50 4
05 4
53 2
man n
ste al
amp le
ex ample
Fsc ript
loca tion
Fcookie steal
Fhac ker
0 77
0 84
3 64
5 48
5 68
5 75
6 48
7 85
7 48
9 87
R os
S ierra
e sp
g ui
ent o
Ca sti
79 8
57 8
95 8
0 74
0 42
2 64
3 73
3 21
4 28
7 10
7 74
9 82
h ar
o d
la ga
co a
se o
09 1
70 1
sa d
Ġ25 8
0 28
0 14
0 11
2 11
7 33
7 16
8 12
9 22
9 68
9 73
S i
a no
i i
s d
te n
25 62
25 78
55 4
35 4
57 1
Ġ2 60
Ast urias
0 62
2 61
3 14
7 12
8 64
9 64
C er
b s
o p
t s
w in
y n
che r
che z
da l
ur en
59 1
30 1
remember A
38 1
am on
Al bac
Cam ino
Albac ete
0 66
0 82
4 12
4 24
4 16
5 61
6 61
6 62
7 24
8 22
9 25
9 12
9 76
H e
k ar
t ur
v io
li e
nt o
59 2
03 1
4 61
5 11
6 12
7 66
8 69
8 19
9 16
d os
m ing
v el
Ġ 73
Ġ 252
ma ti
09 9
35 2
90 2
90 3
93 1
93 2
Al mer
Mon te
Ġ24 2
Ġ24 6
0 25
0 30
0 72
4 18
7 68
7 28
9 24
D on
F uente
M er
j os
r al
s al
55 3
50 1
37 1
ad min
ber g
Ġ25 5
0 61
0 76
8 61
9 26
B or
B as
C ruz
r en
ri z
email A
00 2
pwd A
93 6
Ġ2 63
Ġ25 9
Se villa
7 61
7 11
8 14
9 74
G en
L ET
O li
g al
o li
r doba
v il
w or
SE R
re ll
ri c
cia no
79 2
99 8
77 1
38 4
4 62
9 62
C u
G ra
h am
i ro
s amples
Ġ 70
de z
apellidos A
99 1
99 6
95 2
03 2
so y
ui g
Fran ci
Tra ves
0 71
8 18
9 42
B al
O uren
U SER
V ir
k in
p u
z u
Ġ 253
Ġ 57
ch ar
DE LET
Ġ2 65
Mar ia
Pe dro
ex amples
Ġ24 4
Ouren se
USER S
DELET E
5 66
5 34
8 28
8 16
9 14
9 34
F i
H o
L la
M ur
b on
c y
g g
w e
z ca
ar e
ci on
di s
95 6
ber to
Av en
0 12
5 82
8 68
9 21
9 46
B style
g re
m el
p h
p p
u da
w en
on e
Ca la
ntc A
55 1
77 6
05 2
Aven ida
0 34
2 66
5 22
7 88
9 44
9 71
N i
r s
ra y
35 1
cantidad A
38 2
05 1
am ar
78 1
bar celona
lia no
g on
j as
m ent
r ing
s to
t w
de a
password A
59 6
99 5
95 1
0 86
7 21
8 62
E sc
L lo
P er
c ur
m os
li no
li ne
ci os
direccion A
FA z
79 6
ver a
Ġ24 1
Franci sco
0 24
4 26
5 62
7 26
8 26
9 41
H uel
P ra
b en
c la
f ar
k u
o la
ht m
Ag u
provincia A
55 2
53 1
03 6
ber t
Ġ25 7
Traves ia
0 41
5 88
5 21
5 42
P al
P uig
S ol
d d
m ag
w al
z e
Ġ 69
on i
ED as
cp A
Ġ2 45
hi per
Av da
ess ion
Puer to
3 62
9 88
b b
b lo
n ie
r in
u k
y en
le ta
ciudad A
cas a
99 9
Ġ2 43
Do ctor
Carre tera
Huel va
0 44
0 21
9 86
B i
E st
G al
O n
Z a
m es
n ar
v ent
ss a
dni A
Ant onio
sk y
* %
5 86
9 72
A d
A ma
C la
C ap
W eb
f an
99 2
Pa la
Mon t
An d
Gui p
FAz coa
5 18
5 74
5 41
a je
c r
h en
h ol
de ra
ec k
Ġ2 40
Ġ2 61
ui s
San ti
sh a
Val l
Camp o
0 46
3 66
5 16
9 66
M en
M ig
P u
b ri
c er
g or
o m
t te
w il
on g
im o
men te
Vi zca
Val le
Villa r
Vizca ya
- %
H u
I I
M al
O l
b es
b ia
c in
d ina
g es
t v
v ie
on so
ag u
se s
ng e
le ares
SS amples
go l
ad or
sh o
Ba leares
Fe li
mad rid
sd k
II SSamples
0 26
R u
T i
f ession
u z
v ti
te c
in es
no va
lla n
mb ra
th er
au to
37 2
ne y
Il les
fession al
E ste
a la
b et
c en
e g
h n
h y
w o
w hi
re r
Re y
Ġ2 69
A la
C ue
V er
a y
b ru
j i
m un
p ol
s of
te ro
ti a
ti s
ma y
pa in
nt a
au l
lan d
ns f
H or
P an
m ul
n y
s l
x i
te lla
ec i
im i
le ro
re y
ri st
el lo
ul l
Ġ2 66
za ro
Pa seo
Pon te
= *
B ra
F ar
L ar
e u
f r
g ran
k s
Ġ 42
in s
se l
ar io
Ca mi
que r
re da
re ra
Ġ2 64
vi de
sh e
A m
B on
B en
B lan
S il
d r
i ta
k y
p y
Ġ 239
te le
en s
en la
co l
au di
Ġ2 67
Al b
Lu go
Mig uel
F or
G er
a ch
b us
i stra
j es
ti co
ti ng
pa l
Ca st
ID E
ci al
pe z
an da
ED s
CF IDE
Que s
Al cal
mi ra
mon te
cf m
admin istra
administra tor
A u
A ra
d ora
e a
n u
t ura
y an
Ġ 238
la do
in ter
de v
im e
Ca sa
re d
es ca
aci o
Ġ2 68
vi c
E N
E li
I sa
J e
R on
S ag
S ar
c li
e lla
h os
h al
j on
n c
p s
s z
t j
v let
Ġ 270
Ġ 237
li g
ke l
Mo ra
es pa
er s
Ar ro
Mar t
ste r
Ma y
Ro dri
ver de
Le on
der s
Tor res
Cas tro
Cas as
L or
T r
a te
a le
d ie
g uer
s r
s ar
la z
do l
ni co
nue va
del l
ber a
A rag
C O
N u
P ad
S p
S u
c ti
e la
i la
i to
s j
s n
t ran
z on
la va
ie ta
le z
len a
st on
Pas aje
Man uel
Al f
. %
E x
G or
L uis
M ai
S im
c s
i z
k im
p le
u ni
en o
in for
de h
ar do
ma j
ue ro
gi o
ri llo
car s
for d
ra t
Sal va
Qu in
Vir gen
infor mati
D an
G r
I g
M ag
P lan
a li
c z
l ec
s as
u ro
Ġ 8
Ġ 56
Ġ 235
cc i
lo res
ue las
que z
ri ch
er al
el li
so l
ona les
ne z
Pa ss
ve dra
uen a
Villa nueva
lin da
ajuntament barcelona
A li
A ba
B ell
B eni
D u
F uen
I r
m cc
s in
u p
y i
ca m
te o
ie go
re l
ci s
th e
ros a
pro fessional
at ge
ani z
Pass atge
F ab
P ro
g h
k h
n f
r ub
Ġ 77
Ġ 236
ch u
ma c
ue z
ing uda
Mo r
re ta
ri ba
es a
es t
il los
et t
ba y
Av inguda
Gar cia
ii ss
C ub
S amples
b l
c A
c ro
d E
m ur
p os
q a
t n
v u
Ġ 273
ca mp
ti no
la d
de gol
ap a
no r
ng el
ma t
gi l
ur an
ra do
of er
gue z
nan dez
A y
G on
L l
N ar
Q ui
T E
T I
a nt
e as
g l
i li
k p
n al
p l
p v
s amp
v ol
Ġ 37
ti c
in do
lo m
le i
le m
ue va
Ca ta
re t
re sa
mb o
87 65
sa y
za no
Mar tin
cl ub
Mur cia
Ponte vedra
degol f
pv t
A ran
A del
B r
F Rioja
J or
T ene
V ie
a w
c v
d j
e h
e o
e jo
g un
j et
k r
m ue
m us
o z
w el
z m
z as
ca do
ti l
en zo
ch ina
ap la
que s
ri ck
ri fe
il li
me z
du n
ste in
sh i
Pe re
Val de
Villa l
Do ming
Ur b
+. *%
vio leta
A pp
B ru
F ig
F lor
H uer
S erra
S cript
V en
b n
b os
c ente
e ta
e du
f ra
i as
m sad
n p
s im
w n
Ġ 271
ca d
te a
ch in
se xt
da ta
le a
le ra
ub er
di z
ri ca
23 87
69 45
60 20
carrito any
adi lla
bo l
Bar ri
be lla
Na va
Sant o
Val verde
and re
Tene rife
A s
F re
M ing
P r
Z u
b cn
e y
g s
h ir
h ard
i ca
i co
m ir
p ing
s b
x a
z uela
Ġ 55
Ġ 76
te ll
li t
ap i
se y
ar ro
er os
65 27
47 55
as h
vin a
48 65
me ro
st ru
sa nt
et ti
mi s
Ma es
mer a
ho te
ho ja
qu in
tra violeta
lon g
A z
A me
C ru
F lo
G as
P ue
R amon
a o
b j
d re
m x
n au
p m
t E
z r
Ġ 234
ca no
ca nt
ro l
ap o
ma l
ue los
Ca be
or ca
40 73
pe s
mo bi
st an
lle r
vi s
Mar ti
he re
ell s
Ra fa
ly n
Gen eral
whi te
sof tw
= .
C ur
P ara
R am
b or
b lan
c le
d ur
e e
f le
f el
l v
m m
n es
r ent
s la
u li
u se
v ier
w f
te t
cc h
no m
ue lo
ue ta
ser vi
que t
sp ar
40 59
mo de
17 13
19 39
mar i
Val der
lin os
mu nt
Cor re
Fe de
web app
Camp os
Es pa
sho w
Arro yo
B Script
C es
G lor
N og
V BScript
c g
f u
g ada
h k
h ue
h el
i q
i ti
i re
k z
l c
m g
m w
m ia
o t
p ra
t g
t k
t ta
t ru
u na
w er
z y
ti ca
la da
80 29
80 69
li an
de ro
se ll
da do
pa s
re ro
di lla
69 27
69 05
19 17
19 75
48 67
au d
64 60
62 20
sa la
ta t
za da
ba la
ga t
ol s
Pa lo
Ma ta
ig n
hi pe
ani lla
Jo an
Doming o
Glor ieta
= +&
A L
D O
F res
M os
P uente
S en
Y a
c ra
f al
g w
g in
h r
k en
l b
m k
n z
s m
s tar
t l
v c
w ar
y s
Ġ 231
ti na
la ya
80 56
lo d
ie s
que ra
25 11
es c
cia s
ss on
83 39
28 19
bal l
sti n
teri a
71 19
Man zan
vi da
Car los
tra vel
and ro
Lo pez
san chez
Qu int
Ale x
iiss amples
Urb aniz
Rafa el
A c
A ir
C I
C ri
F ru
F orn
G in
G re
H i
O ro
R ui
a q
b io
d bs
e li
g ri
h at
k n
p res
r w
t m
te ch
la g
ch ing
ar ia
ser vlet
que l
ci ru
25 45
gi a
do ro
ri da
ri va
an es
29 39
17 88
23 60
63 13
13 64
13 07
65 64
43 13
67 80
67 63
67 14
19 49
47 43
87 49
20 09
20 14
adi a
tar i
68 15
ac e
ja da
93 65
et te
Al de
ad os
ve lla
ll on
Pe rez
fi ca
Mon tes
si to
via jes
Fer re
wa y
ajuntament de
Web Sp
Cue sta
Ex Air
Gon za
hoja informati
here Samples
dbs amp
WebSp hereSamples
A t
B el
B las
C eci
D or
E che
G ab
H on
J os
M edi
N or
R E
R ec
R ub
R es
R osa
S el
V in
Z o
a ma
b il
c I
c pan
f j
f la
h on
h il
h ua
i se
i an
l t
m h
n r
n ing
n aci
n ell
p is
s ur
v ell
Ġ 276
ti t
ti la
ti vo
ti llo
en cia
ue ra
Ca mer
Ag ui
ble s
re lla
or t
mb a
25 95
40 27
40 31
ur u
ri go
mo re
car az
al le
10 00
10 03
29 55
17 97
63 60
63 99
15 99
69 20
65 67
67 29
87 81
20 18
Re ina
18 65
68 87
61 47
au ti
au la
57 15
Al c
Al co
ba se
Vi lar
Vi cente
bo ur
ex p
si te
Ri u
Par que
wo od
zaro te
May or
Rodri guez
Pue bla
Urbaniz acion
cpan el
Camer os
C in
D iego
H ig
P elli
T re
V ia
b ie
b ara
b rid
c x
d s
d z
d in
e f
f il
i de
j al
k w
r E
Ġ 78
Ġ 275
Ġ 233
Ġ 272
on s
ca la
co co
de al
lo w
se ig
ma la
Ca na
Co m
ko v
Ch a
re g
25 85
25 39
40 17
40 15
mo l
es to
an s
an ne
10 29
10 09
29 43
23 81
13 49
85 43
15 60
65 83
67 87
19 47
20 65
83 19
12 49
48 17
48 23
18 29
ra m
61 17
61 67
55 65
55 20
14 63
62 85
59 49
24 20
72 69
58 12
go ld
lle ro
Pas tor
zar a
bo t
Ar en
Ar riba
mi la
Va len
tor ia
lu z
bi os
he al
min e
mon t
and ra
gue ra
Ur g
tin as
Vila nova
ris to
pin tor
examples Web
ring ring
Ron da
espa cio
msad c
examplesWeb App
= -
A na
B an
F l
L es
M el
O s
P et
R I
R ie
V ent
a e
a v
b ana
e ar
h is
i b
i lla
j er
k os
o h
p io
t c
v g
z al
te k
80 13
80 89
80 59
en el
en lan
in fo
ost a
lo gi
no vi
se ca
Con de
da v
ma ni
40 19
27 45
27 59
27 81
mo vil
al do
17 65
17 30
23 17
15 23
15 05
43 07
47 29
45 00
60 49
adi o
FA car
12 85
12 87
48 25
09 00
18 13
18 45
18 60
au dio
11 13
24 23
37 48
88 13
88 69
21 69
sti ca
16 48
cor tinas
go v
ta do
ia no
ul tor
ul travioleta
Al to
San chez
jo bs
Na val
eb ac
Po lig
doc s
ras o
Mi ra
fre do
cn f
Pra za
hos ting
bl ue
data base
hote les
Gonza lez
enlan zarote
Polig ono
/ ~
A ri
A ce
A dor
E d
I z
L li
M in
M un
P ine
S au
Z or
Z ur
a x
a ng
a do
b t
b v
b og
b ran
d ona
e N
e ch
f fe
g d
i N
i ri
j m
j en
j or
k m
m tos
p per
s ie
s cha
s ki
t d
v ir
Ġ 277
te gui
ti enes
la m
80 22
en ie
li lla
ag ua
che a
co op
se x
ar te
le d
le e
le da
ent a
los a
ke s
re i
ub e
25 81
40 89
ri que
27 70
27 35
al on
al ma
10 63
10 31
29 87
17 69
17 71
17 01
85 47
85 97
to ols
69 89
65 73
43 25
43 26
19 55
47 13
87 47
87 30
87 03
20 15
45 43
60 50
60 99
60 95
83 79
83 55
49 13
22 19
12 29
12 67
09 19
18 80
68 24
61 49
au n
64 89
79 00
62 80
62 15
62 44
me da
21 12
26 15
41 67
72 63
men orca
so m
ta nto
ne o
ne go
Ar g
Pa blo
Car ras
be ach
Se bas
var ez
Pe d
bi en
mu cho
In fan
bur n
Fon t
Pin tor
cin coco
dev uelos
Sag ra
laz quez
ofer tas
gada s
cpanel web
Urg ell
cincoco lores
B ure
C en
C ara
E u
F u
H a
I li
J es
O ri
T u
T erra
a me
c lo
e v
f as
g ht
g ema
h l
h in
h ag
i ana
j ue
j era
k g
m pe
p en
p lo
r ue
s ierra
t ch
u di
w ol
z w
Ġ 230
Ġ 274
os ti
80 48
80 73
en sa
ch an
che s
ro o
ro pa
ap oli
ng a
ar r
ma her
rag a
nt as
or i
ci llo
25 79
40 88
ri l
mo vi
mo linos
eng a
al t
an n
an ni
an der
10 01
17 29
17 49
23 39
el les
63 39
85 88
85 32
15 73
15 55
69 65
69 99
65 10
65 29
65 55
65 59
67 55
67 50
67 99
19 90
47 59
47 50
87 69
87 45
87 73
20 79
45 38
45 90
45 95
45 78
60 42
as ia
89 77
49 67
49 75
49 74
ni a
22 83
22 21
FC DC
12 19
48 29
48 63
48 45
48 89
AC DB
68 29
68 20
61 25
64 40
14 83
11 85
11 83
me d
me t
24 64
66 69
88 83
21 87
90 55
cor jet
Cre sp
41 80
st ri
go b
92 63
Pas seig
na var
ai x
ce ro
wi ck
ga y
Ar te
Bar to
Ma la
ex e
je res
tr on
Ber n
fe li
gra tis
ess ionid
han n
Ve ga
Fran ces
Pal mas
auto movi
Isa bel
cam pa
apla stica
show cars
Fres no
esc uela
deal caraz
sierra dealcaraz
automovi les
A da
B ro
B ri
D es
E du
E sca
F la
F ron
G ru
M es
M it
N ie
N ue
R en
R og
U n
a R
b h
b z
b by
c ri
c ina
c ena
f ie
g y
i sa
k ai
m q
t ac
u ar
v n
v os
y vi
Ġ 20
on es
ca mb
te u
ti z
ti do
os ca
la l
80 20
80 55
80 34
80 71
ag gio
de ar
lo t
no u
se le
se um
le f
ma nue
pa lo
Ca t
con stru
re tt
or io
40 23
40 47
40 24
27 25
es tar
an ia
10 96
29 15
17 45
23 35
23 99
el da
63 87
io l
85 30
85 53
85 76
15 15
15 65
69 69
69 50
69 51
67 89
19 28
47 95
87 67
87 26
87 57
20 45
20 98
45 39
60 75
60 78
89 00
89 37
83 59
il da
49 29
49 47
49 89
49 09
49 55
22 20
22 45
33 19
33 59
33 02
09 43
18 88
68 10
68 44
75 73
61 43
70 29
79 17
59 99
11 63
24 29
24 67
74 67
66 63
66 45
ac ruz
38 85
38 65
26 29
26 45
16 87
incorrectas any
46 40
81 45
st or
go og
31 89
08 83
96 15
51 83
tu gal
vi ch
vi sta
Al ber
Al be
ba o
del mar
res pa
Pa z
Bar ber
Bar rio
Mar ce
ve a
sh an
tor re
Ma lla
Gu ar
Na zar
Mon ti
ka wa
je an
mu jeres
mu seum
ha y
ha mbra
gu a
vila no
chi cas
Ri bera
yo u
sca n
So to
nan do
br al
Go mez
Cal zada
ii sad
Cala tra
vide o
bus ca
Alcal de
Arag on
Pad re
Alf onso
eas yvi
samp site
ciru gi
Bure ba
ropa degolf
goog le
easyvi aggio
A ta
D uero
F n
F o
I ng
J un
N t
P rin
R A
R ai
R ab
V an
V id
W al
a in
a ero
b m
b w
c O
c ke
c ub
d A
f on
f in
g el
h og
k ing
k il
l k
m r
m pwd
m ina
n l
p f
s E
s v
v et
v sky
w an
w at
y os
z ana
Ġ 83
Ġ 282
ca ta
ca fe
ti o
ti da
ti an
80 19
80 75
ht r
co fer
age s
le ss
ma z
ue da
Ca li
Co ro
que sa
ko va
con i
mb r
25 47
25 59
25 57
di gi
di go
di llo
40 05
ri tor
27 83
27 50
al ud
al hambra
an ueva
10 43
10 87
17 37
17 57
23 57
el sen
63 54
13 23
13 13
13 83
85 98
15 67
15 30
69 40
69 47
69 11
69 53
65 05
65 90
65 08
43 23
67 33
67 84
67 71
67 03
67 54
19 87
19 78
19 93
47 25
47 89
47 18
87 74
87 35
20 75
45 45
45 99
45 57
60 40
60 10
60 47
60 87
49 87
49 76
ED FA
adi ana
FA s
FD FC
33 79
09 89
18 81
18 86
ra mo
68 83
68 28
75 83
28 65
28 47
70 83
au s
64 24
73 29
79 18
79 81
DC CC
14 17
62 25
59 69
59 39
11 62
me dia
cas tella
CD a
am ente
16 29
tas de
CF FC
CF EB
st y
82 89
82 83
03 23
97 75
36 10
01 10
94 43
98 65
91 62
zar agoza
fo re
Al men
Sa ba
ad ora
ru na
ce a
ce p
ol l
San ch
ber ta
ve lazquez
sh er
ver s
ver os
Na vas
Ba la
ier ro
bar ni
eb s
he im
Del s
ha ng
tr as
qu ie
pi co
Ri ba
gar ra
Ga lin
Lu ci
Lu gar
ari as
qui tec
Fe ix
Her man
Her nandez
Qu ir
Fon tan
pre sti
Is la
tur al
Mer ca
sal va
Pala cios
Santi ago
mun do
may or
Salva dor
Huer ta
mode los
Rui z
ajuntamentde barcelona
naci onales
automoviles alhambra
iisad mpwd
Calatra va
0 093
9 457
= _
B os
B us
B ena
B uena
C lo
C ACB
C ECA
E sg
F un
G e
L lor
L agu
M ir
P res
P era
R as
T O
V il
X o
c un
d O
d m
d ll
e ti
e ve
f os
g f
g n
h art
k am
l un
o u
p w
s ue
s il
v on
Ġ 6
Ġ 22
ti e
ti va
80 83
en tes
in osa
de c
de sp
da ni
im ar
im ene
le o
ent al
Ca ban
Co mp
Co digo
rag o
Ag ua
25 15
40 33
40 09
40 18
40 11
40 30
40 95
ur n
pe ar
pe dro
27 87
27 39
es te
es tu
al b
al qui
mie l
10 19
10 83
10 90
17 39
17 14
23 78
63 15
63 95
13 27
13 01
85 27
15 48
15 90
15 95
69 25
69 85
69 75
69 37
65 25
65 93
43 66
43 37
67 00
67 35
67 16
19 00
47 47
47 39
47 09
87 19
87 70
87 99
87 82
20 37
20 03
20 36
20 06
pro gra
45 23
45 47
45 08
60 17
60 54
89 87
89 75
89 61
89 55
89 14
89 46
83 95
49 25
49 50
22 25
22 43
22 48
ED AF
ED CA
ion es
vin o
ntc u
39 55
39 90
FC BB
12 43
12 48
FD BD
33 50
AC CB
68 40
68 63
68 65
68 43
68 67
68 66
75 43
28 69
28 87
28 88
61 13
61 60
64 67
64 48
79 30
FE AA
14 40
62 48
59 14
11 69
24 80
24 13
24 14
74 60
50 29
30 29
66 85
44 61
99 33
21 83
77 09
sti tu
26 43
26 18
am s
16 69
41 40
41 29
41 45
71 10
71 20
03 89
sa ntcu
54 43
32 66
92 23
04 12
04 18
na t
Al ba
ba d
Vi ctor
ce o
ga z
un der
ne u
613 0
ve ro
ll s
Tam ar
is ner
is api
Se g
Pe la
Mon tor
ho me
uer as
des ign
ha ma
min i
fa ders
CEC B
lor al
gue s
Can al
Fer nandez
Her m
ami ento
script s
ws ki
Ser vlet
Esc ritor
And res
sha w
gor do
Feli pe
vide os
Cast rillo
anda luz
Rodri go
hipe respa
hojainformati vas
heal th
constru ccion
bral tar
velazquez lar
5 805
7 697
7 744
8 459
A i
A ca
C erra
C ure
C risto
D os
D er
E di
E stra
F ol
H os
H en
I i
I van
O ca
O fi
P ie
P ai
P ol
S or
T ri
T ran
a k
a lo
a as
b f
b ag
b ry
c U
c t
c tu
e k
e p
f ro
j un
k ri
k an
m t
m v
m z
p ur
p ul
r t
s os
s che
s ia
t A
u lla
u ta
v or
y ing
z zi
80 85
80 77
80 95
80 243
in d
in al
in madrid
ag an
co le
ro m
ro la
ro cofer
de ven
ar ra
da y
da na
da des
le on
le en
ma x
ma lla
ma ta
ue ca
Ca bal
ser rat
nt ra
mb ar
ci l
ci dad
25 50
25 02
di ana
40 10
40 45
40 14
40 78
40 08
ur t
ri as
ri tu
pe l
pe ra
27 90
27 53
27 98
al lo
10 13
10 69
10 45
10 60
29 67
29 83
29 26
17 19
17 20
17 74
17 54
23 65
23 52
63 27
63 10
63 93
63 56
13 65
13 87
13 79
13 82
85 46
15 27
15 75
15 11
15 44
15 07
69 19
69 82
69 52
65 22
43 83
67 64
67 04
19 80
19 72
19 04
47 17
47 63
47 99
47 05
87 85
20 70
20 00
20 66
45 85
60 67
60 35
60 05
60 53
60 96
89 89
89 84
89 53
83 00
49 80
49 01
22 80
22 23
22 65
ED DC
id ro
39 17
39 20
FA ED
FA FE
FA CE
EC AB
FC FA
FC DD
12 89
12 14
12 81
FD CE
FB EB
FB AD
33 05
48 83
48 49
48 64
48 81
EB AB
EB FF
18 67
18 46
ra c
AC EB
68 25
68 62
28 17
28 89
28 12
28 62
28 81
61 10
61 85
61 15
61 65
70 19
au t
64 13
79 82
DC EB
14 65
14 49
62 87
DB ED
11 27
11 66
AA FE
me lo
74 80
74 49
DD DF
66 13
37 25
37 75
DE AC
26 83
am es
CE EB
BD EB
BD FE
BE AF
90 47
cor doba
CA FC
41 10
71 12
86 85
07 70
07 73
54 69
36 83
92 65
02 29
91 27
tu casa
va lo
Al onso
ad ra
ai re
bo x
bo dy
ne ro
ve ri
tor io
is mo
is io
Ro da
at riz
Tor rent
ge inmadrid
uer te
via je
Ju li
Po la
DAE F
Me dina
Mi quel
Te o
Te resa
Es co
Gar ri
ubi lla
Gi an
ws ka
Mas ia
Puer ta
coa ching
Cer vera
Mer ce
Oli var
amar ina
Per al
Agu stin
hiper madrid
ges maher
Sar ri
Mora les
dol fo
uni dades
camp o
say uela
hard t
lod geinmadrid
Fru ctu
tila cion
aplastica cordoba
cirugi aplasticacordoba
salva dor
imene z
deven tilacion
gesmaher nan
unidades deventilacion
A mar
A be
A ACE
A ACC
A lar
B la
B EDE
C ACC
D ora
F I
F ra
F EDB
G an
J an
L ara
L lu
N te
P lu
S of
T rist
U p
Y as
a cch
b ona
c ie
c um
d k
d ura
e co
e se
e iro
f lo
f ul
f fi
g m
g q
g uri
h as
h ara
h ut
i S
m n
m eng
m io
m id
n and
p ru
p ara
s car
s un
s and
t res
u sa
u enga
w ag
y ar
Ġ 14
Ġ 99
Ġ 94
Ġ 232
Ġ 281
ca p
ca ro
ca na
te x
80 39
80 00
80 11
80 41
80 32
en ne
en cio
li er
in to
in vent
ch ie
ch ia
che t
co x
ro y
ro ya
se d
age r
ar s
ma da
Ca ma
lla h
La n
ing a
pla ya
arse ssionid
re al
re vi
or der
mb ri
25 09
25 44
25 84
40 80
40 67
40 70
40 35
40 21
40 77
40 16
40 76
ur as
ur ia
27 40
27 10
27 89
27 00
27 37
27 26
27 94
car do
car go
10 97
cia les
29 63
29 60
29 05
29 36
17 85
17 43
17 00
23 29
23 85
23 73
23 00
23 95
el le
63 09
63 50
63 71
13 43
13 48
13 44
13 94
85 54
85 08
15 17
15 43
15 83
15 09
15 68
15 79
15 35
69 08
43 27
43 33
43 59
43 90
67 49
67 46
67 53
ss o
19 27
19 79
19 37
19 84
87 28
87 50
20 19
20 89
20 12
20 42
20 71
45 56
60 25
60 15
60 12
60 74
60 90
60 76
89 20
83 29
83 23
83 09
83 66
83 35
83 56
83 97
49 45
49 37
49 53
ni ght
22 49
22 26
ED FD
ED AC
ED FE
Re g
39 65
39 75
39 05
FA n
FA EE
FA CD
EC FC
EC CF
12 10
FB CE
FB BE
33 29
EB FC
09 09
09 35
09 93
18 49
18 66
18 82
68 27
68 85
68 47
28 85
28 14
AD DE
AB FC
AB CC
61 69
61 83
64 10
64 63
64 68
64 16
73 59
79 09
79 53
55 21
BB EB
BB AE
DC FB
DC BA
DC CA
14 28
59 77
00 40
00 27
11 10
24 17
24 85
24 46
bal do
30 09
30 14
DD DC
66 17
66 89
66 49
AE FE
44 10
35 12
35 42
21 61
77 75
BC FB
BC FE
26 12
05 30
16 45
16 61
84 45
teri o
CA EC
DA EC
incorrectas bob
EA FC
EF FC
46 64
ir as
st ad
42 14
82 23
71 15
58 69
58 68
97 29
54 13
54 85
of tw
96 19
06 27
06 83
Ġ2 29
za les
vi sco
ne w
ne x
Ar quitec
San z
jo ubi
jo udi
Bar ra
dela vida
Mar cos
Mar ques
Car men
be e
Gu il
Pe ri
bar an
bi joubi
hi brid
je da
643 6
mu ni
po la
po li
Ra y
Ju lio
247 9
Po eta
Bo li
DBB D
AEB C
min as
EEB C
DEB B
Cor ta
mon ti
Ga la
122 6
An da
uri ta
Par ser
su per
fer ente
Cam pa
No el
net te
Jose p
dan ie
fran ca
llar d
ajuntament bcn
Casti llo
yn es
Lla ve
we i
Ni co
cur sos
Santi b
wil li
Lar ra
Cast any
lig ht
Lor enzo
lad im
club de
Jor ge
Maes tro
Marti nez
Manzan ares
tido delavida
elsen tidodelavida
sty les
Seg ura
oftw are
joudi ferente
bijoubi joudiferente
hibrid os
0 279
6 233
7 730
7 609
A ti
A ro
A lo
A ngel
B ut
B aix
C os
C us
C ig
C rist
E del
E ECA
E EDA
E bro
E ula
F an
F FAB
F uerte
G il
H orn
K a
K ar
L lan
M I
M et
O u
O ti
O la
P es
P esca
R an
S h
S ur
S ha
S har
U s
V era
a nge
c ent
c ul
e S
e do
e ri
e th
e mi
f m
f ly
g t
i k
i ci
i do
i za
j el
k as
k ara
k at
l E
m I
n ess
o R
o v
o ce
p k
r I
r O
r ubi
t ana
t ten
u ch
v id
v ana
y er
y sh
z os
z uelo
Ġ 9
Ġ 45
Ġ 89
Ġ 279
ti lla
la t
la no
la mo
80 25
80 87
80 37
80 21
80 91
en z
en za
li ch
in con
ch ad
che v
che co
ro u
ro w
ro fessional
de ux
lo me
ec er
se lla
se as
host rofessional
da u
le g
ma sa
ent re
Co ma
Co ll
ing er
re ras
sp on
25 43
25 07
di g
do mucho
40 65
40 74
ri lla
ri bas
pe ll
pe tit
27 43
27 09
27 73
mo to
car los
len e
es ta
es mer
an te
10 80
10 25
10 17
10 65
10 26
29 69
29 65
29 84
29 72
17 83
17 64
17 99
17 78
17 82
23 48
23 18
23 79
23 59
23 77
23 84
23 91
63 63
63 85
63 47
13 12
13 55
13 08
85 87
15 29
15 39
to p
69 78
69 86
65 88
65 38
65 56
43 43
43 47
43 88
67 85
67 47
67 83
ss ori
19 73
19 50
19 42
47 65
47 75
47 70
47 30
87 23
87 55
87 88
87 72
20 43
20 60
20 62
20 34
20 46
45 80
45 40
45 71
45 94
60 33
60 09
60 28
60 24
60 77
60 38
60 92
as i
as o
as alud
89 40
89 79
89 35
89 06
83 13
83 49
83 90
83 36
49 83
49 79
49 59
49 57
22 27
22 87
ED CC
adi llo
39 68
39 70
FA l
FA CC
FC EB
12 170
FB BB
FB CF
33 75
48 48
48 28
EB DE
09 390
18 15
ra d
ra ctor
ra ulla
AC DF
68 22
75 47
75 49
28 80
28 44
AD DB
AD DD
AD CE
AB FD
61 89
70 18
64 47
79 88
55 16
FE ED
FE AD
DC BF
62 49
59 09
59 37
00 70
DB EE
DB CF
11 89
AA FB
24 49
FF ED
FF FD
50 39
30 45
30 89
DD DA
AE AD
35 37
88 87
ac ena
99 07
21 49
DE s
DE FA
DE AE
77 43
BC EE
AF ED
AF FA
05 77
am or
16 10
16 17
16 65
84 18
84 11
CA FB
78 15
EF FE
46 29
46 22
81 40
81 69
81 12
42 15
42 89
71 87
71 18
86 15
lle t
31 69
08 281
of i
94 40
92 69
so u
06 85
04 47
zar asalud
za bal
na sext
vi petit
Al fa
Al dea
Al varez
cre acion
ba ch
man d
bo us
bo ut
ce da
Ar ti
110 3
ste n
Va z
Car ri
be a
be ria
be auti
ab lan
Ro m
Ba zan
lan da
257 16
ida l
bar ebac
127 2
ho use
si lla
263 1
147 2
las en
las co
tr en
439 77
pi ta
647 1
Po bla
EAB D
AEB B
min ia
FFA A
tt s
Ter a
EFC B
DAB C
CAD D
CFD A
gue te
Caste j
ares aas
fer nand
317 50
tan domucho
Fer nando
953 43977
bra d
Go chez
Esp ejo
eni ce
Por t
Gi or
ug h
Is idro
Pin ar
pin tandomucho
mor i
Casti l
Casti lla
wor th
hiper bil
mul tasde
imi ento
monte ssori
tran sito
informati ca
Aba jo
professional hosting
rub ia
ofer ta
xa vipetit
softw aresaas
1975 95343977
Quint ana
his pa
apoli cial
campa nasext
escuela montessori
Edu ardo
Fron tera
0093 197595343977
ful body
visco tek
ractor as
beauti fulbody
hiperbil bao
multasde transito
campanasext ractoras
0 809
2 190
2 670
2 109
4 253
7 858
8 430
8 616
9 279
A im
B l
B es
B ul
B EDF
B FFF
C el
C FAB
D ia
D ACB
D FAB
E no
E mi
E sta
E ECE
F ray
H el
I no
J al
J ard
K oh
L agar
N al
O c
P en
P au
P ru
U ll
V es
Y o
Z ap
a de
a to
a vi
b ir
b res
b ell
b ena
b eck
c E
c lar
d t
d rid
d ns
e da
e ver
e mp
f es
f ina
g ent
g et
g all
g audio
h au
i p
i tia
j osa
k ie
k ur
l les
o b
o re
r iel
s me
s mi
s ka
t R
t sch
u nt
u so
u tu
w es
w ell
y k
y na
Ġ 12
Ġ 81
Ġ 82
Ġ 51
ca ju
te z
te mp
ti lle
la o
la p
la mar
80 50
80 93
80 07
80 01
80 52
en de
en gi
in os
in ar
in st
ch ri
ch il
ch ini
xt o
de t
de le
lo va
lo bar
no ld
ec la
se t
age les
da nte
pa v
pa da
ue t
Ca to
Ca mar
com e
com er
Co ra
ke ss
que ta
Mo la
Ch o
re don
sp ro
sp ers
or no
or ra
mb la
ci r
ci lla
25 33
25 30
25 35
25 05
25 76
di da
di sta
rar d
do m
40 13
40 85
40 22
40 57
27 27
27 15
27 60
27 74
27 99
mo tor
car a
eng o
eng el
an ti
an co
10 16
10 07
29 22
29 33
29 48
29 14
29 30
29 31
17 15
17 05
23 69
63 14
63 35
63 53
63 01
13 85
13 68
13 61
13 77
13 34
13 02
13 91
85 18
85 70
85 11
85 99
85 05
15 10
15 13
15 74
15 38
to l
to de
69 23
69 30
69 44
69 34
69 42
69 96
69 98
65 43
65 45
65 12
65 18
65 44
65 95
65 03
65 36
43 73
43 30
43 53
67 65
67 45
67 39
67 44
67 95
67 41
67 93
67 08
67 91
19 29
19 20
19 45
19 48
19 64
19 21
19 03
19 32
19 96
19 98
47 62
47 74
47 35
47 93
47 02
87 37
87 53
20 50
20 99
20 95
20 82
45 29
45 15
45 79
45 84
60 45
60 22
as t
89 10
89 47
89 58
89 31
89 97
83 84
49 35
49 90
49 71
ED BB
carrito paros
39 40
39 36
39 98
FA FB
FA AC
FA CF
EC DC
EC BE
FC CB
FC CE
12 63
12 66
12 16
12 84
FD CB
FD CD
FB FA
FB DC
33 73
48 44
48 16
48 82
EB FE
EB CE
09 55
18 25
18 20
AC EC
68 60
75 87
75 99
28 60
28 68
28 24
AD AF
AD CD
AB EA
61 45
70 64
70 34
64 65
64 43
73 81
73 86
79 96
55 23
55 55
55 52
BB FB
BB DC
BB BE
BB EA
DC FC
DC AB
DC BB
14 10
62 23
62 43
62 67
62 18
CC ED
CC FD
EE FA
11 25
11 19
11 47
AA AA
24 24
74 16
cas ti
50 59
30 43
30 79
30 34
DD FD
DD AB
DD DB
DD DE
DD AF
66 18
AE AB
CB AC
37 61
44 89
44 46
35 87
35 77
99 89
aute n
77 78
sti na
CD EE
05 39
16 43
CE FC
84 22
84 61
cor te
57 88
57 16
BA FB
BA FF
34 10
34 66
CA EE
95 10
95 38
DA FE
46 63
46 83
41 85
72 85
st u
42 65
42 43
42 19
53 70
93 55
93 50
86 27
03 29
03 55
76 25
76 10
76 19
mar es
58 23
go w
07 13
31 85
56 63
56 85
01 89
270 2
32 12
52 43
92 10
92 49
ta sp
ta ntra
91 29
91 43
Pas cu
Calle jon
04 85
por tal
por tugal
um os
tu s
du la
du ali
fo ro
za ma
vi ana
vi vo
Al ci
Al fredo
cre ment
ona to
bul l
man y
ce re
ce ment
ler s
ui x
123 4
Pa tri
Mar ina
ber nero
Car les
sh in
Ro ca
Ro ble
Ro man
Gu al
Gu adiana
ver t
Se garra
Pe rio
140 7
ter ry
143 5
hi ro
tr acion
sta in
Ra mbla
FEB C
tes ania
Po lo
Po zo
Po zuelo
EAB F
Ber ro
Ber gu
EFA F
tt on
EEB E
BEB D
CDC A
Ri pol
cu sa
CFB A
Tar ciano
AEE F
BCB C
Ga li
ju guete
DFB A
BFD B
CAA A
Pi ca
mc rs
ose guri
cho tel
ron es
dra e
Gar c
Can dela
br en
oso to
fre d
bro ok
Di os
Cer ro
tur n
wor ld
soy andaluz
Cala f
far ma
rin con
Est rella
tec no
Este ve
Este ban
sof t
aul t
Blan co
enla ces
inter camb
cli chotel
deh umos
Beni to
sin duali
Cata lan
Adel qui
mue ve
Pere gr
Serra no
sext a
bol sa
Fede rico
Alde anueva
fil tracion
zara health
ringring cargo
espacio pintor
cortinas arte
Zur baran
enie ria
Ori on
gema s
Barto lome
Marce lino
Coro minas
barni ces
Feix as
Cerra to
Anda lu
Met auten
idal go
fernand osoto
hispa dis
Koh ls
caju car
engi braltar
ageles pa
spers onales
juguete spersonales
mcrs pain
oseguri dad
intercamb io
sinduali dad
filtracion dehumos
cortinasarte sol
1 199
2 275
3 650
3 390
4 150
4 154
5 250
6 190
7 159
7 642
8 271
8 175
9 159
9 150
9 690
9 293
A ng
A nti
A mor
A nge
B et
B ig
B DDD
B adia
C n
C ie
C ros
E me
E ACE
E FEF
E ACF
F in
F ad
H an
H ino
I ca
I da
I so
J ara
P os
Q U
R U
R ua
R ut
R illo
R sE
S ing
S es
S era
T A
U E
V ol
W en
Y az
a D
a ta
a der
a exp
a torre
b g
b log
b un
b uen
d ue
d ier
d ini
d rez
e i
e le
e res
f k
f ia
f ono
f fer
f ut
g enes
h p
h id
h ab
h ig
i dad
i go
i cho
k le
k ley
m ck
m und
n di
n as
o wen
p li
r ca
r ena
s or
s ul
s ms
s pain
t O
t ge
t su
u al
v ente
x ia
y l
y as
y ana
z in
z ko
z ona
z osa
Ġ 47
Ġ 79
Ġ 97
Ġ 113
Ġ 228
Ġ 292
os at
la na
la cant
80 63
80 43
80 36
en c
en ig
en casa
en cial
li b
li p
li to
in te
in tro
in form
in stein
tion s
ch s
ch ai
ch at
ht ran
xt re
de u
de mar
de sa
de seo
de tte
de tea
ap er
no ti
cal le
age l
ar tfor
da no
im an
im era
ma i
ma o
ue s
ue lle
ser a
ser os
En tra
los o
Mo lina
Mo lt
ko la
re p
re u
re ar
ci en
25 10
25 17
25 19
25 41
25 97
di se
rar do
do u
40 72
40 03
40 54
40 02
40 906
pe ines
27 13
27 18
27 16
for te
al fo
an no
an za
an kawa
10 33
10 79
10 44
10 84
10 57
10 02
29 85
29 07
29 97
17 25
17 63
17 61
17 38
17 84
17 34
17 95
17 72
17 58
23 67
23 70
23 05
23 34
el f
el rincon
63 43
63 64
63 11
13 67
13 39
13 11
13 50
13 37
13 84
85 63
85 75
85 55
85 90
85 41
15 63
15 70
15 59
15 88
15 84
to do
69 67
69 09
69 18
69 79
69 55
69 14
69 77
69 46
69 56
69 54
69 32
65 89
65 11
65 37
65 35
65 76
65 31
43 60
43 39
43 75
67 13
67 20
67 79
67 94
67 02
19 22
19 16
19 02
47 20
47 46
47 97
87 15
87 09
87 77
87 36
87 94
20 10
20 44
20 35
20 78
20 32
20 92
45 13
45 73
45 66
60 63
60 60
60 89
60 73
60 34
60 07
60 01
as te
89 43
89 09
83 69
83 67
83 37
83 57
83 86
83 32
83 98
49 27
49 65
49 19
49 84
49 95
49 03
49 02
22 22
ED EB
ED AD
ED EE
ED BC
Re bo
Re don
carri tos
adi llas
tar io
id or
39 99
FA FF
FA CB
EC ED
EC EB
EC AD
EC CC
EC AA
EC CD
EC DA
FC FC
12 25
12 15
12 45
FD CC
FD AF
FD BA
aci l
FB CC
33 23
33 15
33 30
48 10
48 87
48 12
48 11
48 42
EB EE
EB CD
09 45
18 47
18 68
18 62
18 660
AC FF
AC DE
AC BD
AC BE
AC EA
68 41
75 10
75 37
75 78
28 46
AD FB
AD AD
AD FE
AD BB
61 20
61 48
70 63
70 39
70 68
70 31
70 51
64 42
73 43
73 57
73 06
79 57
79 03
79 94
FE EE
BB EC
BB AC
DC EE
DC DE
DC EF
14 80
14 25
62 68
59 80
59 28
CC EC
CC CC
CC CA
EE ED
EE EE
00 47
00 75
00 82
00 06
DB DF
11 20
11 48
AA AC
AA EE
AA EA
me dilla
24 65
24 45
24 44
cas t
50 89
50 70
50 56
30 20
30 61
DD BB
66 40
66 29
66 23
66 22
CB DC
CB CA
44 40
35 65
35 78
88 45
88 49
88 82
99 09
99 94
les te
les ias
ja no
21 27
21 63
21 45
21 89
21 48
DE FB
DE EB
253 2
253 4
BC BB
BC DB
BC AE
38 43
26 40
26 13
tos a
CD AC
CD FE
05 63
16 47
16 49
BD AD
BE FC
84 13
90 45
90 89
90 78
BA FD
den a
34 23
CA FD
95 67
95 89
DA FA
78 80
78 28
EF EB
46 12
41 17
41 22
72 48
81 89
42 10
53 43
53 09
53 73
93 49
93 39
93 09
86 25
86 29
86 67
men e
76 65
76 67
58 44
07 80
07 64
31 23
31 18
97 65
97 20
54 15
36 67
96 45
98 67
98 47
51 19
ta lo
ta no
tu dio
Ġ2 80
na tura
Al mo
Al bal
Al ta
Al hama
Sa lo
Sa ng
rico lacant
ba no
Vi sta
man zan
ai da
ada n
bo u
ce do
per ro
res ort
ne da
ne ja
Ar co
Ar runa
mi ami
jo ya
Pa ter
Bar ca
640 9
Mar i
Car den
be ro
us k
Ma t
Ro x
Ro mero
ig h
ig no
Se gun
Ba y
Ba ta
Pe lei
fi c
Val ls
Villa franca
140 8
Tor r
Tor ra
Tor mes
165 2
ge cars
163 5
163 6
143 0
103 20
187 3
685 9
To ro
409 43
mu ta
689 1
po ta
qu illos
289 2
DFC F
gu ar
Po ma
AFA A
EAB A
EAB E
AEB F
FFA F
AAD C
DEB C
EFB D
EFB E
chi h
Cor tes
Cor ral
AFD D
BAD A
CDB A
CDB C
CDB D
DAC F
yo la
CBB A
CBB F
BCC B
bu ck
Lu de
122 14
Ja ime
and y
CEB F
qui lla
DFA A
DFA E
164 6
sch n
sch u
ker s
gue ro
Cas ares
Pi co
Par e
su ng
ron io
gra tu
Es cal
let te
Lo zana
her minia
gr im
ure t
secre t
rie s
rie ta
pr ensa
Cal z
Mas lo
esp osa
ral ba
sal sas
Vir ma
Ho yo
Esc ultor
dd ie
mag icho
casa bolsa
nar do
Cla ra
bru n
audi osat
lec ritu
Bell munt
Fuen tes
yi utu
club fore
Villal ba
Ming uez
Para tge
blan quillos
sla tions
Corre spon
Cri sp
lag ricolacant
Agui lar
hoteles top
alma scan
manue l
delmar mol
you ng
cub ier
hog ar
cafe detea
presti gecars
sue cas
pear l
Montor i
Cure ll
80243 620
Nico las
styles tudio
Eula lia
raulla zaro
oferta china
Perio dista
soft stylestudio
buen o
enig mati
intro ito
inform ex
htran slations
artfor all
alfo mbra
ankawa elda
elrincon delmarmol
carritos essionid
natura lagricolacant
Arruna tegui
Pater na
Pelei j
prensa hp
salsas pain
magicho bby
lecritu re
yiutu ve
clubfore x
Correspon dencia
hotelestop secret
almascan arias
cafedetea tro
naturalagricolacant abria
* *
0 139
0 855
0 286
0 395
1 159
1 457
2 459
2 157
2 293
2 298
3 270
3 400
3 188
3 095
3 741
3 007
4 199
4 135
4 197
4 499
4 878
5 153
5 875
5 435
5 834
6 192
6 157
7 133
7 144
7 209
7 646
7 884
8 255
8 174
9 270
9 805
9 853
A dela
A ya
A bi
A po
A ECA
A FEF
A ECC
A sad
B ad
B uen
B FAB
B ECA
B ACC
B EEF
B AAA
B ene
B all
B auti
C ir
C osta
D ECA
D EDB
D EDC
D acil
E ch
E AAE
F al
F EDE
F FEF
F ECE
G org
G ines
H ol
I S
I o
I ver
J ar
L ap
L im
N O
O d
P ir
P is
R ra
S O
S on
S te
S ub
S ac
S am
S ul
S tella
T ap
V o
V illo
Y ago
a ca
a ki
b au
c H
c d
c ros
c us
c ini
c bb
e vent
f ur
f ri
f bi
f iel
f uente
g ene
g ados
h es
i v
i le
i st
i tren
j uela
j ani
n ard
o lo
p on
p sy
q uen
r d
r n
s tro
s ley
s ima
t ros
u dio
y ok
y ce
z za
z one
Ġ 80
Ġ 40
Ġ 85
Ġ 26
Ġ 54
Ġ 36
Ġ 52
Ġ 118
Ġ 278
Ġ 114
on ia
ca th
te lo
ti ma
ti cas
la digi
80 67
80 88
80 26
80 08
80 92
80 04
en ko
en di
en menorca
li k
li da
li mi
li ana
pt a
in di
ag ra
ch ami
zi e
zi er
co tt
ro d
ro v
ro jo
ro let
ro cke
de ca
de imagenes
app s
no w
no ly
no linda
ec e
ec es
se villa
cal la
age ment
ar en
ar ders
ar tesania
ie t
im un
im inal
ma llo
pa ce
Ca b
Ca ba
Ca bre
lla na
los ofi
Co lon
nec er
re m
re te
re sta
re pre
re gui
re usk
sp e
sp i
or r
mb i
ci pal
ci apla
25 23
25 87
25 60
25 99
25 77
25 26
25 90
25 82
25 92
gi da
gi lio
di on
di rec
40 69
40 55
40 62
40 50
40 81
40 07
40 56
ri ana
ri si
ri tte
pe li
27 23
27 63
27 19
27 55
27 57
27 76
27 01
mo on
th ur
for t
log on
al d
an u
10 89
10 64
10 59
10 50
10 37
10 99
10 34
10 41
10 53
10 94
10 91
29 09
29 75
29 73
29 11
29 37
29 77
29 46
29 81
29 94
17 68
17 70
17 79
17 55
17 11
17 03
17 98
23 19
23 55
23 31
23 02
23 06
el ma
63 80
63 17
13 63
13 69
13 45
13 59
13 99
13 38
13 95
13 78
13 76
13 97
85 17
85 13
85 69
85 34
85 72
85 52
15 87
15 89
15 33
15 66
15 26
15 97
15 92
15 98
15 91
69 80
69 43
69 60
69 49
69 22
69 12
69 21
69 36
65 63
65 13
65 09
65 14
65 21
65 06
43 49
43 28
43 14
43 00
43 24
43 91
67 40
67 19
67 66
67 37
67 05
67 78
67 36
67 51
ss i
19 33
19 30
19 99
19 76
19 01
47 11
47 37
47 90
47 72
47 76
47 56
47 54
87 17
87 78
87 08
20 33
20 74
20 30
20 21
45 89
45 09
45 18
45 28
45 14
45 50
45 16
45 34
45 53
45 870
60 23
60 85
60 39
60 14
60 00
60 37
60 72
60 86
60 32
89 27
89 73
89 66
89 21
89 96
89 51
83 25
83 60
83 18
83 70
83 94
83 91
49 30
49 99
49 91
ni s
ni ca
ni cad
22 29
22 28
ED DB
ED AA
ED BA
ED CF
carrito bob
39 80
39 27
39 83
39 58
FA EC
FA AB
FA DD
FA DF
EC FF
EC BC
EC CE
EC DF
FC ED
FC FB
FC AD
FC AB
FC CC
FC BC
FC CF
FC DF
12 42
FD DB
FD FF
FD BE
FD CA
FD EA
FB FB
FB FF
FB AE
FB BC
FB DF
48 62
48 24
48 46
48 86
EB FA
EB AD
EB DF
09 39
09 62
09 77
09 57
09 07
18 89
18 64
18 41
AC AD
68 18
68 81
75 05
75 46
75 08
28 15
AD ED
AD FF
AB FB
AB BB
AB DB
61 23
61 44
70 70
70 35
70 21
70 81
70 53
70 58
64 25
64 69
64 49
73 39
73 28
73 73
73 00
73 44
73 16
79 63
79 87
79 55
79 50
55 25
55 77
55 46
55 71
FE FF
FE AE
BB CB
BB BA
DC FD
DC AC
DC CE
DC DA
DC CF
14 47
62 17
62 63
62 12
62 46
62 41
59 22
CC EA
EE AA
00 20
00 59
00 35
11 43
11 67
11 87
11 630
AA FA
AA EB
AA AF
me u
me di
24 10
24 63
24 15
24 43
24 26
FF FA
FF FC
74 29
74 63
74 41
74 42
50 23
50 83
50 09
50 36
30 59
DD EE
DD AE
66 68
AE AE
CB FC
CB FB
37 85
37 78
37 621
44 83
44 49
35 88
35 72
ac u
DE AD
wd sl
77 27
77 85
38 18
26 27
26 69
26 65
tos cbb
CD FD
CD AB
05 49
05 37
BD AF
BE AA
90 85
90 32
cor p
57 22
57 75
57 82
CA FA
CA FE
CF FD
EA ED
78 29
DF FA
46 13
46 28
41 65
72 17
81 29
st re
42 67
42 20
42 18
42 62
53 11
82 40
82 15
71 67
93 69
93 60
93 79
86 10
03 63
03 60
58 43
58 60
07 83
31 80
56 27
56 10
56 22
36 29
36 63
08 17
08 22
08 68
01 65
92 14
ta ber
ta ya
ta tanto
04 63
04 45
04 83
04 49
um mer
De u
De mun
fo l
na ti
na tra
na tural
250 75
Que ral
va ro
va los
vi t
vi ta
Al g
Al t
Al u
Al man
Al mu
Al deh
Sa da
titu losofi
fotos ero
Vi dal
man agement
ad c
bo lo
bo arders
ce la
del vo
del pintor
un nego
Ar j
San cho
mi z
mi ro
mi web
ber le
ve h
ve y
ste ro
Va li
Car bal
be atriz
tor t
Ma x
Ma ss
Ma teu
any a
Ro c
783 7
Le bri
ora to
Ba t
lu pe
Villa res
183 0
183 3
183 8
140 3
lin ks
Sala s
660 6
192 68
Tor n
ho tel
si tienes
ter ra
113 3
167 5
bi lla
he m
he y
des invent
mu y
mu na
las maj
In fa
Del gados
463 1
463 8
dor ra
tr ueca
Guada lupe
447 7
AFB C
AFB E
683 8
Zar zosa
DFC B
DFC C
DFC D
DFC E
169 2
483 1
AFA C
AFA D
EAB C
665 4
Bo ix
DBB A
EFA A
EFA D
FFA E
tt y
BEB F
AFC A
FFC A
DAB F
gar da
CDB E
CAD A
CFB B
CFB D
BCC C
FFD A
it y
it an
BCB F
mon nal
Ga spar
ju an
BDB A
Ja vier
CAC A
162 6
CAA E
FFB C
BFA E
CDE A
Me mbri
379 6
Cas ar
So tor
Par ra
Li h
Li hue
web tienes
Camp illo
gra fos
villa s
Fer r
Fer ran
ami ra
yu an
cos o
cos ur
dia bolo
her m
san salvador
770 1
343 09
Ve reda
mad ura
dy s
Ant oni
Mu nt
312 27
910 59
ic ultor
Esp ar
archivo deimagenes
net wor
Por tillo
bro ad
fran k
pan y
Ros se
Ros ario
Casti lle
ten cia
amon tatanto
Bor b
Oli va
vil le
gre en
Pra t
Pra do
cla y
ku o
mag ritte
Pala u
cr iminal
gor io
rer uela
tia herminia
Bra u
gran desinvent
ks pain
Bon et
Sil va
tele fono
tele grafos
cli nicad
hos teria
espa noly
Tr ini
zon es
eno za
Ig nolinda
Plan ells
Plan elles
vol t
Cata log
Aran da
Adel mo
Ven an
sant acruz
long boarders
fel ler
Corre os
Nog ue
una webtienes
hipe reusk
Ferre ol
Ceci liano
Nor te
Res id
Sel va
sur cosur
Cana les
mont amontatanto
ringring rent
espacio delpintor
ffe y
tanto montamontatanto
nego cios
Sebas tian
Infan te
feli ciano
Frances chini
sele ccion
Monti el
chicas diabolo
busca dor
Ata laya
Herman os
Lagu na
eve lin
ental sansalvador
isner os
Pela yo
Ai res
Ofi cial
Teo do
cum ming
clubde viaje
Horn illos
lamo la
chev rolet
deux management
ablan ca
barebac kspain
chil d
portal design
Patri cio
joya seleccion
Segun do
Bata lla
cubier toscbb
Bauti sta
itren ds
ladigi anni
rocke feller
ciapla st
risi beria
Demun er
natural child
Aldeh uela
titulosofi ciales
fotosero ticas
delvo to
unnego cio
sitienes unawebtienes
lasmaj adillas
trueca tucasa
networ k
grandesinvent os
clinicad entalsansalvador
hosteria lasmajadillas
espanoly negocios
santacruz delvoto
hipereusk adi
sitienesunawebtienes unnegocio
+ *
- &
0 253
0 690
0 800
0 450
0 430
0 479
1 124
1 455
2 234
2 105
2 870
2 457
2 405
2 272
2 677
2 642
3 453
3 879
3 679
3 497
3 295
3 404
3 657
3 853
3 550
3 881
4 290
4 235
4 279
4 296
5 104
5 103
5 690
5 470
5 109
5 699
5 873
5 603
5 477
5 878
5 492
5 436
6 179
6 273
6 499
6 457
7 124
7 495
7 191
7 405
7 475
7 095
7 184
7 896
7 631
7 491
7 851
8 190
8 150
8 239
8 133
8 157
8 670
8 635
8 653
8 859
8 633
8 434
8 837
9 139
9 639
9 154
9 654
9 759
9 621
A re
A za
A vi
A ber
A ECE
A FEA
A dra
B O
B lo
B ara
B ras
B ECC
B AAF
C H
C le
C EDB
C lar
C EDD
C EEF
C DDA
D ie
D ue
D ur
D ACC
D ECE
D ECD
D ami
E m
E ACB
E EDD
E instein
F X
F r
F s
F EDF
F idalgo
G im
G el
I M
I an
I ra
I na
I gu
J au
L ec
L og
L ima
M ie
O res
O berto
P ini
P ello
R ida
R ami
S t
S ec
S ie
S us
S ig
T ur
T ru
T ara
T ab
T ubilla
V E
W er
Z an
Z urita
a vilano
c OR
c ruz
c imi
d im
d ub
d ino
d ul
e on
f t
f ad
f ru
f rie
f ren
f acio
g O
g ros
h of
h ana
i jo
j p
j ares
k ra
k ir
k ho
l r
m ona
n on
n in
n de
n el
n ier
n aga
o de
o le
p ia
p ens
p riva
r to
s io
s ana
s ign
t I
t za
t amarina
u v
u spar
v la
w ley
y alon
Ġ 87
Ġ 49
Ġ 50
Ġ 91
Ġ 110
Ġ 127
Ġ 107
Ġ 297
Ġ 294
Ġ 284
ca yo
ca monte
te iro
ti eb
os an
la h
la w
la ch
la ng
la bo
la res
la wn
80 23
80 65
80 49
80 35
80 97
80 02
en ca
en co
li x
in ad
ag han
ch ua
ch ball
che l
co b
co la
co ver
co lis
ro g
ro de
ro ig
ro bb
de y
de mas
de videos
ap icultor
application s
ec io
se va
html samp
ar in
ar ron
da lena
le don
le Samples
ma na
ma est
pa t
pa do
pa seo
Ca ni
Ca lera
La ba
Co bo
Co ria
Co mer
Co llan
con era
con maest
Ag ueda
ble y
re do
re ga
sp er
nt E
or man
ub ia
ci ti
ci ana
25 18
25 14
25 253
25 03
25 58
di ck
do ug
40 49
40 61
40 46
40 82
40 007
pe a
pe d
27 69
27 48
27 68
27 77
27 34
27 72
27 243
th a
th y
er y
er as
al fa
an ca
10 27
10 75
10 14
10 54
10 36
10 92
10 133
29 25
29 47
29 89
29 28
29 61
29 74
29 44
29 88
29 01
29 02
29 51
29 494
rec er
17 80
17 18
17 59
17 81
17 143
23 43
23 49
23 68
23 90
23 72
23 53
23 82
23 03
23 98
63 65
63 79
63 00
63 88
63 46
13 20
13 81
13 58
13 32
13 1917
io la
85 09
85 28
85 79
85 14
85 00
85 24
85 93
85 96
85 06
15 19
15 49
15 53
15 82
15 71
15 58
69 39
69 28
69 59
69 88
69 95
69 97
69 92
69 02
65 69
65 47
65 62
65 00
65 50
65 57
65 81
65 82
65 185
43 10
43 29
43 09
43 79
43 16
43 81
43 54
43 96
43 98
67 69
67 70
67 77
67 58
ss andra
19 19
19 68
19 61
19 46
19 71
19 36
47 83
47 22
47 38
47 07
47 98
47 51
47 04
47 182
87 27
87 48
87 75
20 63
20 47
20 49
20 81
45 27
45 10
45 17
45 60
45 49
45 75
45 59
45 74
45 30
45 01
45 96
60 13
60 68
60 70
60 84
60 31
60 02
as terio
89 63
89 90
89 56
89 483
83 40
83 43
83 24
83 21
83 05
83 78
il us
49 10
49 39
49 11
49 81
ni c
22 63
22 14
22 16
22 46
ED CB
Re ca
Re bes
ion ari
ion ador
tar t
39 43
39 81
39 97
39 92
39 660
FA AD
FA BB
FA DC
FA BA
FA DA
FA EF
EC EC
EC BB
EC DB
EC BA
EC EA
FC e
FC FE
FC BE
12 80
12 40
12 13
12 61
12 41
12 82
FD EB
FD AB
FD DF
FD BF
FB AC
FB AB
FB DE
FB BD
FB BF
33 89
33 83
33 70
33 00
33 44
33 53
33 32
48 47
48 68
EB AC
EB BC
EB BE
EB BA
EB DA
09 49
09 53
09 03
09 143
09 227
18 40
18 63
ra b
ra e
ra z
AC ED
AC FD
AC BB
AC CC
AC EE
AC AA
AC BF
68 19
75 65
75 60
28 27
28 83
28 26
AD EE
AD AA
AD AE
AD BF
AB EE
AB AE
AB CD
AB BE
61 66
61 41
70 33
70 75
70 55
70 24
70 16
70 46
70 07
70 32
64 87
64 28
64 46
73 27
73 63
73 01
73 52
73 51
79 45
79 79
79 35
79 51
55 29
55 70
55 73
55 37
55 57
55 86
55 92
FE AF
BB FC
BB FD
BB CC
BB CA
BB CF
BB EF
DC AE
DC BD
DC BE
14 85
14 89
14 21
62 27
62 83
59 10
59 65
59 60
59 73
59 59
59 57
59 07
59 54
CC EE
CC AA
CC DD
CC CB
CC BF
EE FC
EE AB
EE FF
00 73
00 37
DB EB
DB FE
DB DC
DB EF
11 49
AA ED
AA EF
me tro
24 22
24 68
24 21
74 25
74 27
74 18
74 68
cas ablanca
50 10
50 60
50 50
50 38
30 19
DD ED
DD EF
66 67
AE ED
AE EC
AE FF
CB CB
CB DA
CB EA
37 79
37 14
44 65
44 44
35 20
35 34
35 41
88 10
88 17
88 46
99 10
99 19
99 68
99 14
99 99
21 65
21 62
BC FC
BC AD
BC AB
BC DC
38 22
sti llo
26 85
26 48
CD EB
CD AD
CD BB
CD AA
CD AF
05 69
05 67
05 83
05 26
am pa
am il
16 80
16 25
CE FA
CE FE
CE FF
BE EC
84 40
84 67
90 79
90 35
90 38
90 46
90 36
BA FA
CA AB
95 49
DA FC
DA EB
DA AD
DA AB
DA FF
incorrec tasp
EA EC
78 62
46 838
ir an
ir ubi
41 19
41 49
81 25
81 279
st ria
st ras
42 49
42 64
53 25
53 00
53 44
71 62
93 47
93 62
86 23
86 87
86 62
03 17
03 65
03 43
03 45
03 68
76 17
76 23
76 13
76 22
76 61
mar a
mar ia
mar tin
58 67
58 87
inde l
go is
07 63
07 69
07 89
07 88
31 83
56 69
97 85
97 89
97 70
54 19
08 673
94 68
32 67
52 20
02 45
so t
06 80
06 28
98 89
98 49
51 18
51 64
ta k
ta nga
91 40
91 68
04 69
Confirmar any
ul lo
um el
tu web
tu perro
Ġ2 27
Al for
credi to
ad rones
bo tille
del tamarina
ga ma
ga nt
ga do
ne las
Ar cos
San s
123 6
mi en
mi li
mi ento
mi tj
Pa checo
090 43
613 2
ve z
ve lo
sc ula
Va le
Car rillo
be au
is ch
Ma tar
Ma yo
ver sla
ig ht
Sant ander
lu ca
lu tz
ya ma
var r
Pe dra
ex po
fi la
fi tz
Mon ta
Mon tan
Mon cayo
Mon asterio
Bur ch
lin s
279 79
160 1
Tor ralba
127 4
ho ya
129 5
129 8
150 76
189 0
189 6
263 0
165 6
113 6
167 2
147 9
163 3
120 1
445 61
443 2
443 6
he in
173 85
uer ga
uer uelas
243 6
685 5
620 3
org es
mu scula
249 6
las mil
las ses
las encia
473 27
In du
vas i
ck i
sta bernero
AFB A
qu ia
qu ina
qu illo
191 19
FEB A
FEB D
FEB F
gu il
169 8
283 0
Po mp
cha do
cha ye
Ber til
Ber nau
DBB C
DBB E
AAD E
EEB A
EEB F
DEB E
DEB F
EFB C
CEC E
DDC A
EFC A
EFC C
EFC D
Cor vera
FFC D
cu p
AAB A
BAD D
EFD F
gar ri
CFA A
CFA F
644 16
CFD F
doc eros
294 10
BCC E
BFC B
BFC D
BFC E
BDC A
BDC C
BDC F
Lu na
DFB E
161 1
CEB E
CAC F
684 17
164 1
287 1
CDE F
ves ter
Me del
don nell
gue jos
Caste llar
So bre
Pi quer
Li ana
Li berta
ine a
van tes
ven de
Be an
035 79
347 46
009 9
dro gas
art alle
Gar ros
Gar reta
yu ng
yu na
Ta la
Sal mer
san ti
Vila l
Ve lasco
dy danie
em pe
960 68417
az kara
Go yen
Da mas
Esp lu
ero tic
net t
net ti
Gui jo
528 64416
par is
Por to
Por ta
bro wn
212 40
Fon ti
Ab enoza
Il def
Pon t
tti ng
ed dydanie
rea k
cher ri
Bor ja
Bas tida
riz zar
soy bueno
Bal do
kin s
Ho z
dis con
Gal li
Mont serrat
And reu
aje drez
sha mba
Hu go
ges tion
hy er
Rey es
Ver ge
gran colis
Blan ca
enla playa
audi tar
Alb ana
pal ma
Sim on
Sim ple
uni versla
deh adrones
Ig n
Mag dalena
sin dns
professional host
rub irubi
iiss tart
Cub a
dE S
mat chball
uran te
indo te
indo mo
Vie ra
Vie ja
wel come
china vende
Bru n
Huer va
andre stabernero
ey es
long don
Cabe za
fle x
fle ur
Arroyo molinos
Mata ma
Gre gorio
1364 14
Eche varr
Rub io
Alco lea
Rie ra
dav ray
Alto zano
blue eyes
Ador aci
Zor ita
pper t
jue gois
dear den
video erotic
Sanch is
hang artalle
Buena vista
alqui ler
velazquezlar ra
7697 3319
torio gratu
Olivar es
nex uspar
Corta del
cursos enlaplaya
ladim ir
Baix ada
Shar im
carlos hoya
Alfa mbra
Dia z
smi th
casti gadas
stain less
tecno indomo
barnices uv
Bet an
Big orra
Sing leSamples
aper ros
sung lasses
Calz adilla
enigmati co
Ech aniz
direc toriogratu
Membri ves
Sotor ribas
91059 337
Resid encial
buscador devideos
Pini lla
Wer ner
eon on
priva te
tieb reak
labo ca
paseo tuperro
Collan tes
conmaest ros
ilus ionari
ionador dehadrones
casablanca beach
incorrectasp aros
botille ria
muscula res
lasmil yuna
chaye vsky
Bertil da
Bernau s
Goyen aga
eddydanie le
ajedrez conmaestros
shamba lla
grancolis ionadordehadrones
hangartalle res
nexuspar k
directoriogratu ito
ilusionari um
/ ?
0 197
0 155
0 473
0 497
0 698
0 659
0 644
0 759
0 206
0 790
0 393
1 256
1 190
1 493
1 486
2 103
2 690
2 453
2 297
2 686
2 116
3 199
3 197
3 195
3 695
3 172
3 697
3 433
3 498
3 603
3 276
3 894
3 692
3 244
3 871
3 481
3 808
4 130
4 170
4 230
4 159
4 109
4 228
4 698
4 678
4 898
5 175
5 159
5 450
5 254
5 695
5 433
5 277
5 205
5 684
5 482
5 378
5 754
6 270
6 221
6 271
6 170
6 237
6 493
6 109
6 490
6 498
6 686
7 234
7 805
7 273
7 688
7 142
7 850
7 855
7 224
7 693
7 479
7 684
7 208
7 406
7 641
7 656
8 170
8 153
8 275
8 875
8 299
8 172
8 141
8 835
8 893
8 478
8 839
8 146
8 288
8 682
8 808
9 153
9 135
9 133
9 107
9 178
9 850
9 877
9 655
9 095
9 474
9 894
9 550
9 094
9 898
9 595
9 797
9 336
A p
A de
A len
A FAB
A EDF
A ure
A tico
A mine
B s
B Le
B ACB
B AEA
B oni
B ello
B etti
B ages
C ro
C id
C FEE
C EEE
C EEA
D ag
D al
D ul
D EDF
D ACE
D ECC
D ECF
D ani
D ic
E i
E le
E EDB
E ACC
E ECD
E ECB
F Ag
F ba
F FEE
F FEA
G io
G ara
I do
I ri
K m
L on
M E
M eng
M us
M ex
M ut
N os
N ad
N oria
N tE
N urn
N elma
O st
O pen
P ur
P all
R ion
S A
S to
S as
T al
T ir
U d
U ni
W il
Y u
Y ami
Y uli
Z e
a L
a M
a car
a cor
a quin
b I
b ina
b ier
b uena
c et
d I
d aga
d Es
d art
e che
e den
e vol
f E
f l
f au
f ani
g ad
g ru
g ley
g ger
i u
i code
i sta
i llas
j ac
k al
k un
k is
m de
n d
n n
n ag
o c
o te
o to
o va
o des
p n
p ino
p us
p ier
p ura
p art
r ti
r ina
s ing
s inc
s chi
t ag
t char
u to
u tivo
v A
v y
v ra
v ill
v ento
w ie
w art
x e
y tv
z en
z ing
z er
z am
z man
z heim
Ġ 48
Ġ 88
Ġ 21
Ġ 93
Ġ 130
Ġ 129
Ġ 105
Ġ 117
Ġ 308
on ell
on line
on orato
ca rell
te peines
ti r
ti ana
ti pos
ti ntas
ti vos
os santcu
la ur
la bios
80 33
80 09
80 30
80 57
en h
en q
en an
en der
en cu
li c
li ti
li dad
li ni
li ta
li tz
in er
ag n
ag os
ch on
ch en
ch id
che tti
zi a
zi m
co N
co re
co van
co esp
ro e
ro z
de m
de lla
de ri
de ros
de man
de tti
de enlaces
de drogas
ap tea
lo la
ec t
se pul
ng o
late lia
ar n
ar di
Con stan
Con dado
Con stitu
da ca
da mbo
ie ld
tro do
le b
ma ck
ma tal
ma xi
ma quilla
pa d
pa blo
ue vo
Ca so
Ca min
Ca bra
ser ver
En rico
En rique
En cini
com od
Co ev
ke t
ke mp
ke mujeres
que ria
Mo re
Mo ran
Mo ya
Mo ral
Mo linos
Mo eche
con oce
Ch ar
tp is
pla cere
Host a
tienda sy
re h
re des
sp o
sp or
or ana
ub o
ci c
ci osa
ci ty
25 25
25 13
25 83
25 48
25 94
25 91
do za
do ck
do mia
40 20
40 79
40 34
40 93
40 51
40 91
40 174
ri le
ri us
pe da
27 65
27 75
27 79
27 66
27 44
27 84
27 08
27 51
mo t
mo yna
car d
len gua
th o
es car
es bien
al s
al y
al sele
ros e
an de
10 49
10 12
10 55
10 35
10 93
10 32
10 189
dad or
29 78
29 93
29 86
29 52
29 96
29 189
rec illa
17 17
17 87
17 12
17 24
17 50
17 35
17 26
17 31
17 08
17 32
17 52
17 04
23 20
23 12
23 75
23 28
23 30
23 26
23 86
23 08
23 96
el corte
63 23
63 69
63 20
63 12
63 48
63 74
63 37
63 41
63 86
13 10
13 19
13 47
13 28
13 62
13 24
13 93
13 03
13 54
13 52
13 98
85 40
85 65
85 20
85 62
85 59
85 16
85 95
85 78
85 56
15 37
15 03
15 31
15 94
to an
69 63
69 64
69 24
69 35
69 72
69 03
69 76
69 91
65 65
65 79
65 99
65 41
65 04
43 80
43 85
43 69
43 55
43 94
43 92
67 27
67 18
67 34
67 31
67 92
ss ig
19 25
19 10
19 13
19 67
19 09
19 14
19 62
19 24
19 35
19 92
19 51
47 23
47 49
47 12
47 48
47 61
47 41
47 53
47 82
47 08
47 494
87 10
87 13
87 18
87 59
87 00
87 44
87 16
87 90
87 86
87 97
87 54
87 52
87 91
20 25
20 40
20 85
20 83
20 58
20 51
45 65
45 67
45 19
45 83
45 55
45 26
45 72
45 42
45 36
45 52
60 55
60 30
60 44
60 71
60 56
60 52
60 51
89 83
89 18
89 28
89 88
89 78
89 81
89 82
89 86
89 08
83 45
83 22
83 48
83 44
il le
49 77
49 41
49 31
49 56
49 54
49 98
49 1003
ni k
ni fi
ni kemujeres
22 89
22 24
22 66
ED FC
ED neo
Re i
Re mi
adi x
id os
39 89
39 33
39 48
39 30
39 08
39 01
FA FC
FA AA
FA AF
FA CA
FA BF
EC FE
EC AE
FC EC
FC DE
FC CD
FC BA
FC CA
FC DA
FC EF
12 27
12 64
12 88
FB FC
FB DB
FB DD
FB BA
FB EA
33 67
33 45
33 84
33 81
33 03
33 06
33 04
48 13
48 85
48 20
48 14
48 41
48 144
EB FB
EB EB
EB CC
EB DB
EB AA
09 40
09 29
09 65
09 83
09 28
09 14
09 99
09 21
09 97
09 01
09 96
09 610
18 69
18 87
18 18
18 28
18 44
ra j
ra dor
AC FE
AC DD
AC AE
AC BC
AC CD
68 23
68 89
68 61
68 14
68 88
68 86
gif tos
75 40
75 27
75 69
75 19
75 24
75 38
75 42
75 32
75 52
28 29
28 45
28 64
28 690
28 685
AD EC
AD EB
AD AC
AD AB
AD EF
AB ED
AB DC
AB AA
AB DD
AB BC
AB BD
61 12
61 68
70 10
70 43
70 87
70 20
70 59
70 77
70 05
70 57
70 72
70 04
64 17
64 41
64 107
73 67
73 83
73 14
73 72
73 54
73 04
79 48
79 86
79 31
79 01
79 92
79 06
55 40
55 87
55 49
55 64
55 14
55 88
55 94
FE EC
BB AD
BB FE
BB BB
BB FF
BB BC
BB CD
BB CE
DC AD
DC DC
14 27
14 87
14 60
62 10
62 19
59 29
59 23
59 19
59 70
59 35
59 78
59 53
59 01
59 98
CC BE
CC BA
CC CF
EE FB
EE AE
EE EA
00 15
00 43
00 49
00 64
00 38
00 57
DB FC
DB DB
DB AF
DB CE
DB CA
11 18
11 61
11 11
11 16
me e
me des
24 40
FF FB
FF FE
74 47
50 85
50 15
50 35
50 88
50 16
50 57
50 78
50 82
30 84
30 41
DD FA
DD EB
DD AC
DD AA
DD FF
DD EA
66 43
66 61
AE AA
CB ED
CB AD
CB CC
CB EE
CB DB
CB AA
CB FF
CB DE
CB CF
37 63
37 67
37 49
37 74
37 84
37 256
37 891
44 85
44 69
44 22
44 24
35 80
35 47
35 89
35 39
35 09
35 79
35 74
35 30
35 82
35 36
88 27
88 64
88 42
88 86
ac tivos
99 65
99 20
99 62
ja vila
21 17
21 43
21 6448
DE FF
77 10
77 17
77 69
77 49
77 28
253 6
BC EB
BC FF
BC AF
AF FC
38 17
38 62
38 24
38 21
26 23
26 20
26 89
26 49
26 22
26 6149
CD FC
CD FB
05 17
05 13
05 19
05 34
05 279
05 644
am os
am er
am el
16 63
16 18
BD ED
BD FA
BD DC
BD EE
BE FF
BE AE
84 27
84 28
84 66
84 16
90 27
90 70
90 14
90 11
90 71
cor t
57 17
57 85
57 45
57 33
57 81
BA EC
BA AD
BA AB
BA FE
34 22
34 26
34 297
CA FF
95 61
95 70
95 14
95 21
95 36
DA FD
CF EC
CF FB
incorrectas sessionid
EA FA
EA AD
EA EE
78 83
DF ED
DF FB
BF FA
EF FB
46 25
46 23
41 43
41 68
41 61
41 66
72 25
72 60
72 11
st ok
42 85
42 60
53 13
53 45
53 75
53 50
71 80
71 65
93 73
03 85
03 75
76 15
76 87
58 40
58 20
go d
go o
256 23
sa b
sa nta
lle go
07 12
31 25
31 67
31 293
31 495
56 47
56 28
97 25
97 74
97 6754
54 83
36 22
08 12
08 470
01 43
01 48
94 63
94 20
94 60
32 23
32 65
52 85
52 15
92 12
92 62
96 40
96 28
so cimi
06 47
06 20
06 60
06 22
98 45
98 62
51 27
51 67
04 14
ul z
ul tos
ul fo
De an
De go
Ġ2 83
za do
na no
na to
vi zu
Al ma
Al mar
Al cala
Al queria
ono mos
Sa lom
Sa dur
Sa eli
ba do
ba ker
ba coesp
Vi go
Vi so
Vi ana
Vi gilio
man te
ad m
ada m
bo da
ce y
ce jo
ran aga
wi tz
ga el
ga les
ga tpis
res to
Ar gan
Ar lat
Ar vizu
San l
San do
123 2
mi c
mi ch
jo an
Bar ran
640 1
640 8
Mar ch
Mar quesa
ber kel
ste ven
Car r
Car bon
be h
be k
be do
sh u
us ser
Ma z
Ma ti
Ma teo
Ma quie
uen trodo
ab l
ab ar
Ro do
Ro bles
Gu sta
Gu miel
783 2
Se m
Na v
Ba z
Sant os
lu d
lu g
lu jo
lu tsch
ria les
fi cha
fi tn
Val del
Val dea
mp art
183 39
mer ry
mer lina
mer cado
lin as
230 12
Sala res
660 7
160 9
Tor recilla
127 8
si ca
si co
rid ge
263 12
165 3
165 703
805 18660
113 8
113 9
445 2
445 4
445 89
179 2098
hi po
443 58
ka ng
ka ya
he e
je para
685 6
620 5
To m
To mas
249 4
689 0
vas ili
463 3
tr ima
285 9
158 63
485 1
485 7
639 76
683 4
683 7
647 4313
647 09043
FEB E
126 45
Ju ani
247 6
283 76
209 1774
AFA E
AFA F
EAB B
cha o
680 1
680 9
Ber na
665 2
665 9
Bo b
Bo ca
Bo ada
Bo vera
AEB E
AAD A
EEB D
DEB A
fa no
EFB B
EFB F
877 216448
BEB E
118 4
AFC B
AFC F
DDC C
DDC E
137 70
ura y
830 64
CDC C
CDC E
Ri bes
Cor te
Cor co
145 59
FFC F
cu mbar
AAB B
BAD B
DAB D
EFD E
DAC D
yo ut
693 559
BAB B
BAB D
CBB B
BCC F
lar t
DAD C
DAD F
FFD E
bu ses
093 48
AEE A
BCB E
BFC C
BDC B
ju ni
DDB A
Or te
807 199
161 18
BDB F
CEB A
CEB D
739 5
CAC D
DFA D
BFB D
FFB E
759 25253
EAD C
AR g
Gran ados
ard os
379 2
2567 69
634 23
So le
Pi zar
Pi lar
Par c
Par agua
mc ca
mc ke
mc fly
055 71
ose lal
885 2
su p
web gun
web hut
ven domia
fer rer
Camp rubi
ton s
Te ix
tan tes
Her rera
gen er
tz e
530 2
719 136414
No vell
by e
bre a
423 11
bel toan
bra dor
bra camonte
em oselal
ban king
int g
970 6
hu ng
Esp ino
Esp inosa
Jo ves
dri go
fre cha
rez uela
ubi kuo
ger ri
par emoselal
ling s
Ale gre
fran c
Ast or
Di p
Pon ce
Ser rezuela
dar cy
Ros al
esp inosa
Casti llero
sad ultos
Cer vantes
vel li
oli ve
soy castella
soy rojo
Pedro l
one lla
Llo bet
Pal ma
Puig ferrer
mag adan
wal d
Za bala
vent ura
And r
imo teo
ges aut
llan d
auto buses
bet te
cen it
wo o
bru jas
tis mo
aul travioleta
eci alsele
ita liano
tele com
nu trima
dev all
red ford
guer as
sr l
Gor osti
kim ball
maj imenez
Quin ciano
Du que
Pro long
Pro fes
bay bay
gil da
dj broad
mue be
Fig ueruelas
msad cs
Barri os
Barri ada
Fre des
Ming o
hote ls
Ame lie
Cabe zas
vis ion
softw are
1939 3302
Valder r
Valder ro
Espa da
tica day
sala paris
Palo ma
Mos coso
vida sa
travel zone
sanchez gordo
Quint anilla
tari fas
vella no
Montes ion
hojainformati va
Gab riel
pis ossantcu
Via brea
bara ta
Aren as
Mel gar
Rie lls
ae ag
1648 176
ebac k
hosting professional
Pine da
sie tepeines
sex l
neo telecom
Ha ro
Jes us
jue gos
Bern uy
Fla sh
Mit javila
Nue vo
fie ld
palo majimenez
3359 7543
Nazar eth
Vid riales
fon t
cata log
Bena vente
Esg ueva
Mir al
eti ni
sil ver
este ticaday
estu di
santcu gatpis
mini os
Cristo bal
Der dys
Cabal lero
cil los
Garri ga
coaching evol
Fructu oso
FI latelia
Yas mila
tres brujas
tex bcn
revi stero
Reg ino
7953 1407
Arquitec to
Barra meda
monti jo
super cover
Pesca dor
esmer al
Ull de
Zap ard
lamar srl
Mola cillos
Pascu al
Berro cal
intercambio deenlaces
Hino josa
Vol ta
Wen ces
enc uentrodo
9078 165703
Carden al
chih chie
lette re
Crisp ino
Lap etini
Sub ir
Sac ri
imun do
repre texbcn
stre aptea
Venan cio
Aber cio
Die z
indel hogar
mili tantes
velo cidad
Pomp onio
Liberta d
Ildef onso
gestion software
Matama las
private banking
Dic lo
Nurn berg
Yuli sa
icode a
mde deu
odes oftware
pura vidasa
sinc la
zheim er
online gratis
onorato informatica
tipos dedrogas
tintas ultravioleta
Constitu cion
dambo ise
matal uenga
maquilla jepara
pablo bracamonte
Encini llas
comod indelhogar
conoce agelespa
placere sadultos
tiendasy ofertas
redes militantes
elcorte italiano
491003 88
64107 80518660
266149 1792098
31293 475
976754 47
Saeli ces
bacoesp ecialsele
Maquie ira
lutsch t
ficha jes
fitn ess
Valdea vellano
vasili ad
2091774 249
877216448 6474313
cumbar eback
693559 2091774249
Paragua y
webgun e
vendomia tico
719136414 1648176
paremoselal zheimer
soycastella no
gesaut onomos
nutrima ma
Gorosti za
Prolong acion
Profes or
djbroad cast
tarifas devuelos
pisossantcu gat
33597543 19393302
esteticaday da
santcugatpis os
coachingevol utivo
encuentrodo minios
9078165703 256769
streaptea se
maquillajepara labios
6410780518660 227
2661491792098 457
bacoespecialsele cci
0 270
0 190
0 173
0 639
0 850
0 194
0 607
0 686
0 404
0 633
0 474
0 750
0 330
0 671
0 207
0 446
0 799
1 252
1 221
1 193
1 179
1 157
1 255
1 195
1 499
1 259
1 666
2 257
2 239
2 800
2 875
2 403
2 177
2 144
2 134
2 146
2 602
2 196
2 408
3 250
3 459
3 499
3 635
3 850
3 607
3 121
3 288
3 638
3 474
3 503
3 094
3 206
3 831
4 179
4 690
4 495
4 144
4 138
4 209
4 695
4 899
4 607
4 102
4 655
4 694
4 492
4 874
4 657
4 222
5 253
5 876
5 193
5 650
5 800
5 453
5 670
5 400
5 457
5 675
5 298
5 497
5 899
5 475
5 258
5 698
5 102
5 295
5 434
5 642
5 377
5 884
5 402
5 708
5 703
5 752
5 831
6 253
6 252
6 230
6 175
6 197
6 195
6 875
6 238
6 639
6 873
6 254
6 697
6 484
6 458
6 624
6 226
6 286
6 632
7 876
7 271
7 279
7 193
7 105
7 453
7 670
7 298
7 895
7 176
7 893
7 390
7 605
7 807
7 205
7 658
8 159
8 179
8 650
8 870
8 457
8 699
8 191
8 405
8 675
8 673
8 297
8 435
8 637
8 232
8 896
8 834
8 204
8 406
9 100
9 192
9 179
9 199
9 105
9 255
9 195
9 400
9 188
9 495
9 430
9 254
9 635
9 809
9 859
9 404
9 196
9 408
9 184
9 700
9 156
9 505
9 682
9 335
9 753
9 801
= +
A S
A ci
A ni
A les
A sti
A mp
A FEE
A EDD
A sen
A zu
A tila
A mbr
A bout
B ol
B ACE
B EDC
B ECE
B ECF
B FEA
B ACF
B DDF
B ACA
B orges
C l
C r
C ost
C ui
C EDF
C ACE
C DDF
C DDD
D I
D EDE
D FEF
D EDA
D EEF
D ula
D alt
E mp
E EDE
E FFF
E FEA
E uro
E manuel
F ia
F erra
F ara
F lu
F lores
G l
H uen
H ila
I t
I ru
I var
I ngel
J er
J imenez
K e
L A
L lar
M O
M En
N A
N E
N v
N im
N to
N ai
N ada
N ig
N ueva
O ci
O bi
O jos
O jeda
P ap
P ier
P uy
R ueda
S ch
S ta
S it
S amar
S ession
S imo
T on
T ro
T es
U l
U ca
U mber
U Ra
V ladimir
W i
X i
Y er
Y om
Z ul
Z af
a lla
a mo
a er
a ba
a ad
b U
b ros
b bo
b tr
b ieta
c im
c to
c edi
c ru
c uer
c Or
d eng
d mar
d man
d ras
d ine
d dy
e X
e re
e za
e fer
e jos
e chea
f en
f fo
f un
f ara
f is
f uz
f loral
f light
g I
g la
h im
h ai
h ora
h ya
h ell
h mann
i te
i Ca
i ce
i ara
i be
i fi
i bi
i uri
j ana
j ose
j oll
k ul
k night
m ora
n A
n I
n sito
o lle
o mi
o dea
p I
p ap
p ec
p age
p ri
p ho
p her
p int
p ug
p sico
q U
r p
r ro
r im
r adi
r ho
r zano
s eng
s ig
s wen
s servi
t lla
t AD
t acion
u co
u ss
u dia
v ran
v OL
w ard
w sk
w hey
x o
x en
y la
z go
z ora
z anilla
Ġ 7
Ġ 126
Ġ 144
Ġ 115
Ġ 141
Ġ 102
Ġ 116
Ġ 226
Ġ 291
Ġ 112
Ġ 302
ca ri
ca jo
ca mente
ca seros
te ci
ti S
ti v
ti nt
ti ll
ti ano
la y
la me
la ba
la ure
la gon
80 47
80 28
80 79
80 44
80 72
80 86
80 51
80 614
en or
en as
en so
li l
li z
li es
li as
li ve
li bra
in k
in z
in dor
in cis
ch ap
ch is
ch art
ch pol
che ll
xml file
co t
co ra
ro ja
ro ber
ro ll
ro ck
ro ld
ro ls
ro by
ro mani
de R
de li
de lo
de def
de pa
de pe
de il
de por
de mia
de coaching
ap e
ap u
ap ro
ap ren
ap ala
lo f
lo ra
lo ran
no c
no l
no caseros
se ro
ng os
ar da
ar len
ar ema
ar ez
da h
da te
da ll
ie m
im p
im ent
im al
le es
le ros
le as
le jo
ma u
ma in
ma de
ma ng
ma ss
ma uro
ma lik
pa h
ent ron
ue h
ue ll
Ca ng
Ca mb
Ca bo
Ca ne
lla no
lla res
La u
La van
La ure
com pra
com pli
Co l
Co te
Co lo
Co var
Co muni
ok a
que agel
ing enel
ing enieria
Mo ri
Mo tj
ko r
con ac
Ch ur
Ch er
re sp
re jo
re tor
sp retor
mb e
mb ro
mb ur
mb as
ci apolicial
25 89
25 88
25 46
25 93
25 86
25 54
25 453
25 400
gi b
gi pu
di t
di ble
di do
di ccion
40 25
40 180
ur A
ur ono
ri di
27 47
27 14
27 24
27 93
27 31
mo cha
mo bley
car t
car y
car ga
es cusa
er d
er lich
al be
al yn
10 18
10 62
10 74
10 72
10 52
10 130
cia sen
29 62
29 00
29 24
29 99
29 42
29 71
29 76
29 98
17 33
17 75
17 62
17 44
17 42
17 91
17 650
17 161
enes tar
23 80
23 40
23 23
23 61
23 74
23 07
23 97
23 391
el carrito
el deseo
63 67
63 45
63 83
63 68
63 61
63 30
63 72
63 32
63 52
63 02
63 51
63 04
63 685
13 40
13 33
13 73
13 30
13 35
13 88
13 05
13 90
13 46
13 42
13 53
13 56
13 36
13 06
13 100
85 80
85 29
85 67
85 89
85 33
85 42
85 07
85 36
85 453
15 47
15 18
15 28
15 00
15 41
15 93
15 86
15 76
15 52
15 51
15 04
15 707
15 391
to u
to w
to mo
to bar
69 13
69 16
69 90
69 93
69 31
65 40
65 15
65 60
65 66
65 78
65 42
65 71
65 86
65 96
65 91
65 875
43 87
43 89
43 74
43 99
43 41
43 36
43 01
43 51
43 896
67 25
67 43
67 61
67 62
67 90
67 07
67 499
ss en
19 23
19 85
19 15
19 65
19 60
19 12
19 82
19 31
19 110
19 185
19 278
47 15
47 67
47 33
47 68
47 42
47 71
47 36
47 94
47 430
47 4140
87 40
87 29
87 12
87 93
87 58
87 32
87 695
20 80
20 20
20 22
20 88
20 57
20 72
20 86
20 52
20 02
20 04
pro vi
pro motor
45 87
45 07
45 92
45 98
45 91
45 183
45 180
45 952
60 80
60 27
60 18
60 64
60 59
60 11
60 81
60 93
60 36
60 06
89 80
89 29
89 39
89 62
89 11
89 42
89 76
89 94
89 02
89 04
83 10
83 20
83 14
83 74
83 50
83 81
83 82
83 71
49 40
49 43
49 33
49 18
49 82
49 93
49 58
49 08
49 94
49 51
49 250
49 140
49 129
49 430
ni deil
22 85
22 47
22 18
22 68
22 11
22 42
22 82
22 446
22 25716
ED car
ED DD
ED DE
ED CE
ED BD
ED EA
ED DF
ED so
ED var
ED das
Re za
Re ga
ccion es
39 12
39 73
39 59
39 00
39 24
39 74
39 16
39 03
39 76
39 790
39 6287
FA FA
FA FD
FA DB
FA BE
EC AF
EC EF
FC AF
FC BD
FC BF
12 18
12 62
12 11
12 253
12 46
12 230
12 83064
FD FA
FD FD
FD FB
FD EE
FD AA
FD DD
FD EF
aci d
FB ED
FB EC
FB FD
FB AF
33 63
33 13
33 60
33 14
33 51
33 685
33 610
48 43
48 19
48 84
48 167
48 445
48 195
EB EC
EB FD
EB DC
EB DD
EB CB
EB BD
EB EA
EB BF
EB EF
09 80
09 47
09 75
09 74
09 84
09 42
09 52
09 02
09 51
18 10
18 14
18 16
18 84
18 179
ra th
AC FA
AC FB
AC BA
AC CA
AC DA
AC EF
68 80
68 12
68 26
68 46
68 892
75 25
75 13
75 67
75 45
75 39
75 33
75 75
75 55
75 59
75 74
75 90
75 41
75 53
28 40
28 2943
AD O
AD CA
AD CF
AD EA
AB AF
AB CE
AB CF
61 40
61 87
61 61
61 14
61 42
61 8034
70 85
70 09
70 61
70 11
64 15
64 83
64 11
64 21
64 26
73 80
73 40
73 15
73 65
73 47
73 45
73 18
73 24
73 74
73 88
73 46
73 76
73 1646
79 29
79 67
79 20
79 60
79 89
79 83
79 14
79 44
79 02
79 04
55 10
55 15
55 18
55 62
55 11
55 41
55 76
55 01
55 02
FE EB
FE AC
FE AB
BB FA
BB DE
BB DF
BB BF
DC DB
DC AA
DC DD
14 23
14 64
14 44
62 42
59 25
59 67
59 87
59 33
59 18
59 71
59 08
CC FC
CC DC
CC DB
CC CE
EE FE
EE AF
EE EF
00 67
00 45
00 39
00 28
00 00
00 11
00 74
00 44
00 07
DB FA
DB EC
DB DE
DB DA
DB EA
11 17
11 65
11 60
AA EC
AA FD
AA AD
AA AB
me lla
me das
24 25
24 19
24 60
24 61
24 11
FF EB
74 19
74 87
74 45
74 61
50 27
50 22
50 64
50 55
50 74
50 34
50 76
50 805
50 873
50 491
30 10
30 39
30 68
30 55
30 30
30 35
30 57
30 72
30 42
30 53
66 65
66 66
AE FB
AE EB
AE AC
CB DD
CB EF
37 29
37 17
37 47
37 09
37 18
37 88
37 16
37 72
37 183
37 470
44 25
44 254
35 28
35 46
35 86
35 31
35 32
35 265
35 637
88 65
88 43
88 67
88 66
88 16
88 600
ac ker
99 50
99 88
99 16
99 56
99 500
21 85
21 67
DE ED
DE AA
77 29
77 23
77 11
77 24
77 16
77 84
77 6143
BC AC
BC AA
BC EA
38 80
38 11
sti ana
26 68
CD DC
05 80
05 27
05 15
05 65
05 74
05 32
05 120
16 15
16 67
16 89
16 470
16 258
CE EC
CE AB
BD BB
BD DB
BD AE
BE ED
BE FD
BE AC
84 10
84 63
84 60
90 20
90 22
90 09
90 66
90 44
cor tell
57 25
57 67
57 20
57 89
57 62
57 24
den y
den as
34 63
34 85
34 47
34 83
34 48
CA ED
95 40
95 87
95 39
95 48
EA FE
78 40
78 17
78 49
DF FE
BF ED
BF FB
BF EB
EF FA
EF EC
EF FD
46 10
46 20
46 89
ir re
ir media
41 27
41 48
72 43
81 80
81 27
81 85
81 87
81 20
81 22
81 18
42 126
53 85
53 55
53 88
82 19
71 13
71 45
93 25
93 40
93 27
93 67
93 59
93 870
93 683
86 63
86 45
86 89
86 48
03 25
03 83
03 66
03 44
76 69
76 18
76 186
58 27
58 63
go per
07 85
07 43
07 2335
31 14
56 40
56 65
56 64
97 40
97 19
97 87
54 28
54 64
54 14
36 25
36 27
36 19
36 87
08 27
08 48
08 61
08 11
08 16
01 23
94 18
94 24
94 16
32 27
32 13
32 49
52 69
52 14
52 66
92 20
92 45
92 83
92 18
92 68
96 43
96 83
02 63
02 69
02 60
06 68
98 80
98 27
98 29
98 85
98 83
98 21
51 13
51 65
ta i
ta jo
ta ka
91 23
91 14
por t
por nocaseros
por queagel
ia h
ia do
100 19
100 42
ul li
ul los
um i
252 11
tu nia
De li
du o
Man el
Man zano
et s
et z
fo ur
fo to
na e
na da
na th
na ta
na cherri
Que ry
va la
va da
va jal
vi tal
Al ca
Al da
Al me
Al mon
Al box
Sa iz
ba t
ba z
ona y
ona da
Vi toria
ru n
ru s
ru ca
ru pa
ru sas
bo a
ce to
ce ga
per s
per fu
del s
ga nta
un ko
un cio
res apala
ne g
Ar ce
Ar ge
Ar zal
123 8
123 9
mi lla
110 52
Bar ros
Bar ba
Bar bero
640 0
640 5
dela compra
Mar do
Mar netti
ber ry
613 5
Va hid
Car ames
Car idad
Car taya
Car vajal
be ar
be th
ab ib
Ro a
Ro vi
Ro jo
Ro ck
Ro cha
Ro bert
Ro mera
Ro dilla
Ro yce
Gu a
Gu zman
ina hil
Se p
Le da
Le bana
Le gaz
Ba tet
Sant amar
lu ci
lan te
Pe tit
fi lo
fi cio
gos tera
Villa tty
der Parser
bar ra
170 19
140 6
lin do
lin ario
660 9
160 8
160 47
160 93683
185 0
185 2
185 7
185 18
185 16
127 5
127 214
175 39
ho e
ter s
263 21
165 5
113 4
147 7
120 4
120 5
hi ra
443 9
ka a
je e
je ro
je rez
173 8813
243 0
243 8
187 1
187 8
187 028
685 4
685 7
620 1
643 0
643 7
643 71
To losa
To laba
650 481
409 26
273 10
ell y
mu cha
249 1
249 5
293 83
293 6564
255 85453
Del b
689 7
237 63
463 7
tr in
493 25
265 2
188 18
285 4
285 7
614 224
AFB B
qu ader
180 849
180 34746
480 815
485 0
485 5
485 6
430 16
683 6
683 9
pi la
Ra chid
289 5
289 6
108 67
gu apa
247 1
283 7
283 16047
Po lica
665 1
665 5
Bo u
cio enla
EFA C
FFA C
Ter si
Ter cero
AAD B
EEB B
433 4867
EFB A
106 67
BEB A
BEB B
118 1
DDC F
EFC F
osa lagon
220 5
CDC B
CDC D
CDC F
Ri bas
AFD B
835 27310
Navar redon
BAD E
857 28685
DAB E
gar t
tra ca
tra dedef
Mad ri
CFB F
779 5
779 6
CFD B
CFD E
BAB A
BAB E
it z
it to
und ar
223 1
093 43
BCB A
Ga y
Ga llar
Ga dea
245 1
ras io
ras ummer
215 1
ju li
DDB E
Or R
Or do
Or tiz
Or derParser
ls on
BFD C
BFD E
BFD F
Ja led
sca vran
CEB B
CEB C
ari an
CAB D
AAC D
qui ta
CFC B
CFC D
DFA F
BFB F
FFB A
FFB F
164 2
BFA C
280 6
EAD F
son al
287 94
ard s
210 34297
Me z
Me die
Me lilla
sch ia
Fe bo
666 8765
375 4
Cas al
Caste lan
So tillo
579 5
Li zan
web logi
style perfu
087 31
ven s
ven der
Be gon
Be dmar
Ur ra
898 2547
758 2936564
035 20
347 1
347 2
gra fi
399 3761
Gar ganta
Ce peda
Fer ro
yu ki
tal corp
Ne gros
Sal v
Sal da
Sal guero
Lo pe
bre g
723 807199
935 15707
Ve lilla
387 70
bel jos
038 4
ban do
538 4
950 6
bur g
ff el
hu medas
421 80
718 23012
lis le
lis mo
Jo hana
Jo aquin
ye tano
dri c
dri an
eni lla
510 1738813
714 180849
Por tal
dan os
tri c
my tanga
my styleperfu
Ale gr
fran cis
ula cion
Cal ders
Mas carell
Ab d
Ab inahil
pre tacion
Is ra
Is art
can dida
Bu j
Bu sot
esp resto
Casti llon
He li
511 14
Bor ras
ren o
Gen era
Oli mp
soy muy
kin pah
Lla no
Lla gostera
are ina
ph d
ph il
dea estudi
Esc riba
Agu do
wal t
ze w
hiper gipu
blo od
nie va
Ad A
fan e
Pala dell
cr acio
hol ton
Men orca
Villar real
Ol mo
Feli x
Ru pi
tec lin
llan os
ther s
cen o
Cue vas
ay l
mun shin
Hor te
Hor tencia
Hor cajo
Pan cracio
mul ti
Lar rago
tele lujo
tura olle
yan c
inter net
inter nacionales
inter pretacion
dev lin
cli ff
Lor enz
ale x
sr c
tran spor
Gor maz
Mai lena
Mai orana
cars lisle
Fuen santa
Ir la
mac doug
Cub ells
cv s
Pere iro
Villal billa
Fig ue
Flor en
Serra dell
sim ulacion
chin as
uber t
hir sch
arro yo
sant os
Maes tre
ao u
white hat
softw arema
Para mo
fel d
Fede rica
tru fal
wer y
8029 93
sell s
sala compli
Sen nacherri
sanchez quesa
Alex ia
tari al
viajes nacionales
viajes internacionales
ajuntamentde bcn
Ceci lio
Dor A
Hon teci
rigo iti
6887 5056
aula host
Vilar daga
Pelli zza
brid ge
esto espresto
8543 802993
Pastor a
Ana tal
Pet r
Pet ronio
Vent ura
enel tajo
logi teclin
novi aste
2169 3885
hoteles jerez
bog etti
ffe e
4326 4334867
Carras co
Carras cal
ofertas rusas
hag en
plo of
4578 40174
stri al
navar til
gratis internet
showcars madrid
Nie ves
Rog er
osca libra
manue lle
8576 4017
2467 57
Alber ti
chicas humedas
busca moto
Ing la
Prin cep
Cali xto
digi talcorp
hang ar
Galin dez
Luci liano
Herman as
Pres ent
Xo ve
Caban e
Comp res
progra m
8987 618034
Victor ia
videos pornocaseros
velazquezlar ranaga
Estra da
Fol k
Tran qui
Merce des
campo degolf
Fructu osa
Trist ana
sand rasummer
order Parser
4937 2725
night flight
ynes ia
Ati enza
Ou teiro
ici t
Carri zales
house man
Gior gis
Eno ch
Lagar es
Pen agos
ever rett
get gold
pav iment
Cato lino
comer cioenla
tode cor
1932 190
4663 85728685
stu lo
cement oscalibra
Ripol l
turn bull
mueve miweb
Andalu cia
7642 131917
Fad ul
Han sel
Sera rols
fut urono
owen s
zko a
zona modelos
noti ciasen
cien ciapolicial
anno yanc
mene gilda
Rox ana
pota jera
schn apps
Escal ona
Aya la
Pis uerga
Ste fani
telo gis
chami zo
peli cu
natra vea
Alu mbre
Arj ona
Carbal leda
Bonet on
2677 6668765
Em manuelle
Ores tes
Sec und
fren chpol
pens iones
vla ender
rog ge
citi way
27243 677
doceros as
Sobre munt
Fonti veros
Galli fa
Ign acio
Alen ka
encu entron
Caso la
nifi cado
raj ch
steven sen
Bob adilla
Corco y
juegos gratisinternet
Euro pa
Ivar s
Ingel mos
Nada l
Oci fuente
Obi spo
Wi tron
Yom ona
aad sl
iuri spretor
omi ya
pec kinpah
pho todecor
psico encuentron
sig nificado
sservi cio
tint aultravioleta
indor ec
incis orio
depe car
apren deaestudi
Comuni dad
ingenel ec
ingenieria dela
diccion ario
elcarrito delacompra
eldeseo depecar
tobar isch
19110 618
474140 8418
promotor areina
nideil garda
2225716 686
396287 34
282943 8543802993
50805 644
50873 406
16258 80614
goper sonal
072335 1625880614
vital home
Almon acid
resapala cios
Arzal uz
Vahid Reza
Carames o
Legaz pi
127214 2225716686
187028 4741408418
25585453 83527310
614224 8987618034
quader nideilgarda
18034746 85764017
480815 3993761
Navarredon da
tradedef icit
Medie ro
Lizan cos
weblogi c
Begon ia
7582936564 650481
723807199 1283064
5101738813 776143
714180849 1932190
mystyleperfu me
candida turaolle
soymuy guapa
hipergipu zkoa
Larrago iti
macdoug all
softwarema sservicio
trufal dina
salacompli ces
Sennacherri bbo
sanchezquesa da
Honteci llas
noviaste resapalacios
21693885 39628734
43264334867 45952
457840174 8982547
paviment osalagon
comercioenla calle
466385728685 8703
7642131917 731646
futurono tarial
noticiasen vivo
26776668765 28376
frenchpol ynesia
vlaender en
psicoencuentron line
aprendeaestudi ar
4808153993761 167
+ +
0 150
0 650
0 133
0 107
0 200
0 499
0 879
0 403
0 109
0 233
0 144
0 172
0 455
0 142
0 106
0 630
0 477
0 292
0 274
0 494
0 700
0 608
0 454
0 676
0 884
0 735
0 442
0 772
0 308
1 253
1 175
1 800
1 158
1 254
1 228
2 256
2 250
2 235
2 130
2 271
2 650
2 174
2 195
2 237
2 450
2 158
2 609
2 142
2 194
2 877
2 407
2 674
2 616
2 482
3 130
3 221
3 876
3 103
3 135
3 690
3 174
3 139
3 670
3 493
3 299
3 439
3 490
3 405
3 138
3 873
3 609
3 297
3 877
3 488
3 899
3 141
3 477
3 893
3 857
3 136
3 224
3 146
3 655
3 408
3 807
3 874
3 616
3 296
3 621
3 626
3 204
3 601
3 606
3 251
3 872
3 442
3 888
4 105
4 124
4 174
4 670
4 299
4 259
4 490
4 177
4 697
4 142
4 236
4 603
4 136
4 278
4 224
4 897
4 407
4 184
4 608
4 654
4 894
4 282
4 244
4 872
4 656
4 241
5 130
5 230
5 150
5 173
5 174
5 473
5 139
5 237
5 299
5 259
5 490
5 191
5 850
5 877
5 488
5 137
5 809
5 630
5 855
5 895
5 839
5 146
5 807
5 874
5 672
5 837
5 232
5 281
5 335
5 244
5 741
5 398
5 886
5 336
5 004
5 734
5 008
5 832
5 331
5 341
6 100
6 173
6 690
6 459
6 105
6 124
6 800
6 255
6 473
6 670
6 879
6 675
6 635
6 455
6 194
6 224
6 121
6 152
6 456
7 290
7 230
7 8789
7 173
7 459
7 493
7 400
7 639
7 600
7 877
7 803
7 638
7 637
7 700
7 111
7 681
7 705
7 335
7 151
7 806
7 882
7 338
7 651
7 888
7 846
8 253
8 252
8 173
8 409
8 155
8 188
8 495
8 679
8 209
8 697
8 455
8 433
8 132
8 137
8 830
8 228
8 659
8 655
8 624
8 874
8 657
8 654
8 804
8 284
8 151
8 444
8 451
8 872
9 252
9 235
9 273
9 275
9 800
9 174
9 870
9 158
9 233
9 433
9 106
9 137
9 228
9 895
9 437
9 686
9 390
9 093
9 434
9 678
9 492
9 684
9 833
9 281
9 626
9 705
9 357
9 377
9 000
9 777
9 735
9 708
9 703
9 058
9 305
9 333
9 006
A h
A che
A do
A ve
A ida
A ECD
A ECB
A FFF
A yu
A tal
A bel
A par
B I
B ui
B is
B any
B ab
B FEF
B FEE
B agu
C c
C ul
C EDE
C FFF
C EDA
C ua
C ece
C isneros
D ar
D ion
D EDD
D ECB
D FEA
D AAE
D ardo
D uran
E J
E EDF
E berto
E xtre
F t
F as
F au
F ac
F is
F Val
F ECA
F Torre
F raga
G is
G ras
H I
H ello
H ierro
I V
I si
I tur
I mel
I Ll
I mpe
J im
J ac
J adra
K er
K adi
L uena
M uela
M aga
M apo
M ace
N d
N anda
N cillo
O j
O ni
O sa
O mer
O sar
P ag
P el
P ul
P erra
P ura
P rie
P riva
P aula
P lasen
P lasencia
R r
R y
R au
R ad
R ubi
S U
S is
S ine
S ubi
S ty
T ub
T res
T ier
T ena
U sa
U llo
U tri
V are
W illi
X u
X im
X ii
X ech
Y el
Y un
Y adia
Z ara
Z ua
Z umel
_ %
a j
a co
a mbros
a zar
a jo
a dula
b d
b ost
b is
b org
b orn
b aul
b lier
c m
c len
c les
c Ar
c AR
d g
d um
d ge
d ren
d rell
e R
e j
e to
e me
e ja
e ger
f ec
g En
g ur
g mo
g am
g ara
g he
g ney
g umi
h ur
h ia
h ad
h us
h amp
i f
i lo
i th
i ros
i ria
i teria
j ol
j aga
j illo
j andro
k ro
k lar
l li
l ling
m O
m ell
m ki
m ess
n era
n ill
n chez
o o
o cal
o les
o vi
o ber
o und
o iz
o thers
p pe
p lu
p hi
p uig
r r
r ap
r se
s ma
s ub
s mo
s oria
s berg
t aci
t win
u c
u ca
u il
u der
u ier
v O
v re
v rs
w est
x ie
x xi
x led
y on
y ra
y ena
y uri
z amp
z oni
z enel
Ġ 123
Ġ 104
Ġ 143
Ġ 133
Ġ 299
Ġ 128
Ġ 298
Ġ 288
Ġ 119
Ġ 111
Ġ 327
Ġ 306
ca li
ca da
ca rio
ca gney
te la
te lu
te anu
ti g
ti m
ti me
ti fo
ti cu
ti fica
la u
la zar
la lec
la trin
80 45
80 70
80 53
80 03
80 94
cc hi
en do
en car
en form
en ia
li m
li st
li llo
li sen
in y
in ta
in ers
in vers
in crement
ag uero
ch or
ch eng
ch ine
ch ima
co lo
co ck
co wor
co hel
co loso
ro ce
ro bles
de e
de se
de lle
de va
de vo
de gen
de velocidad
ap io
ap ia
ap aga
lo u
lo ri
lo isa
no t
no op
ec ia
ec iras
se tt
se osa
cal es
cal ley
ar idos
Con cep
da ne
im on
im as
im pu
le u
le ma
le laboca
ma ch
ma di
ma th
ma tu
ma ce
ma is
pa u
pa van
pa nta
ent udia
ue sto
Ca ro
Ca no
Ca sp
Ca bana
Ca yetano
ser i
ser v
En cin
ror a
La nt
La uren
La zca
La DO
La torre
La cruz
com b
que o
que cole
Mo ros
Mo ta
Mo lin
Mo rera
Mo lez
Mo jeda
ko l
ko ter
con a
con ting
con cejo
rag olive
Ag raso
Ch i
Ch il
ble mente
ID or
nec es
Lin ares
re gi
re form
re au
re be
nt zi
nt za
or in
or apia
ub a
ub et
ub uy
mb or
ci t
ci do
ci so
25 12
25 24
25 66
25 08
25 96
25 04
25 2183
gi co
gi ani
di d
di cha
di agn
do g
do la
do le
40 87
40 12
40 28
40 64
40 41
40 194
40 291
40 444
40 6920
ur r
ur y
ur inga
ri g
ri ci
ri an
27 80
27 29
27 05
27 82
27 03
27 56
27 32
27 96
mo or
mo tt
mo ura
mo vie
car ron
car dina
car imar
len cas
len zuela
th i
th ru
th at
th ero
es h
er p
al me
al ba
al vo
al varez
an F
an c
an h
an ar
an ka
10 67
10 22
10 48
10 21
10 46
10 42
10 82
10 660
29 20
29 64
29 90
29 82
29 91
29 04
29 153
29 551
17 23
17 09
17 41
17 53
17 93
17 56
17 133
17 265
17 752
23 13
23 33
23 14
23 11
23 50
23 21
23 54
23 01
23 679
23 7119
el ec
el xxi
63 29
63 28
63 55
63 38
63 90
63 82
63 03
63 92
63 06
63 154
13 70
13 00
13 57
13 31
13 333
13 7583
85 64
85 74
85 37
85 44
85 35
85 21
85 38
85 84
85 92
85 91
85 257
15 20
15 61
15 62
15 46
15 42
15 54
15 36
15 06
15 613
15 275
15 338
15 531
to ro
to re
to ese
to coloso
to uringa
69 29
69 87
69 61
69 66
69 26
69 41
69 71
69 700
65 17
65 48
65 53
65 94
65 02
43 48
43 18
43 38
43 05
43 58
43 143
67 67
67 22
67 75
67 59
67 88
67 38
67 72
67 82
ss ier
19 66
19 77
19 95
19 81
19 07
19 54
19 08
19 058
19 901
47 16
47 52
47 92
47 91
47 175
47 147
87 39
87 33
87 14
87 34
87 443
87 157
87 000
87 599
87 954
87 2387
87 2417
20 27
20 48
20 64
20 24
20 93
20 56
20 97
20 01
20 94
20 495
20 994
20 791
45 25
45 24
45 37
45 44
45 200
60 61
60 79
as co
as entudia
89 85
89 67
89 33
89 64
89 74
89 30
89 41
89 71
89 93
89 07
89 6049
83 80
83 63
83 15
83 68
83 11
83 88
83 99
83 26
83 46
83 41
83 72
83 54
83 01
83 92
83 96
83 04
83 627
83 296
49 17
49 22
49 64
49 14
49 62
49 00
49 66
49 78
49 42
49 52
49 92
49 639
49 154
49 2735
ni da
ni cs
ni ques
22 12
22 255
22 254
22 220
ED os
ED no
ED EC
ED BE
ED DA
ED BF
ED nez
Re gueras
ion eo
carri llo
vin n
Registrar any
39 25
39 10
39 29
39 13
39 67
39 60
39 39
39 09
39 79
39 253
39 26
39 52
39 243
EC FA
EC AC
EC DE
EC BD
FC AC
FC AE
FC EA
FC ella
12 47
12 20
12 68
12 86
FD EC
FD AC
FD AD
FD DE
FD BC
FB FE
FB CB
FB EF
33 87
33 61
33 64
33 24
33 46
33 58
33 31
33 52
33 875
33 775
48 80
48 27
48 15
48 60
48 66
48 21
48 26
EB CA
09 87
09 12
09 59
09 11
09 50
09 82
09 08
09 94
09 91
09 199
09 108
09 219
09 692
09 611
18 23
18 165
18 836
AC FC
AC AB
AC AF
68 16
75 48
75 79
75 76
75 91
75 04
75 265
75 775
75 246757
28 25
28 10
28 13
28 61
28 41
28 42
28 82
28 191
AD FD
AD CC
AD BD
AD BA
AD DA
AB AC
AB AB
AB FF
61 63
61 19
61 64
61 6409
70 80
70 23
70 69
70 67
70 28
70 62
70 84
70 86
70 76
70 52
70 379
au m
64 29
64 45
64 61
64 66
64 691
73 10
73 23
73 09
73 68
73 61
73 79
73 50
73 21
73 05
73 42
73 71
73 02
73 4325
79 25
79 23
79 15
79 19
79 75
79 28
79 90
79 58
79 56
79 08
79 32
79 52
79 419
55 63
55 43
55 22
55 59
55 66
55 99
55 93
55 56
55 54
55 32
55 91
55 04
55 100
55 739
55 4929
FE FA
FE FC
FE FD
FE FB
BB BD
DC FA
DC EC
DC CB
DC BC
DC AF
DC CD
DC DF
14 18
14 61
14 24
14 26
62 47
62 11
62 16
62 140
62 159
59 63
59 20
59 45
59 75
59 30
59 21
59 95
59 72
59 76
59 91
CC FB
CC AD
CC BB
CC BC
CC AF
CC BD
CC DF
CC EF
EE EC
00 25
00 10
00 23
00 63
00 69
00 65
00 60
00 61
00 24
00 50
00 34
00 41
00 53
00 58
DB FD
DB CC
11 22
11 68
AA AE
me x
me era
24 27
24 28
24 62
24 100
bal to
bal lobar
FF FF
74 85
74 15
74 14
74 66
74 4557
50 63
50 87
50 33
50 18
50 24
50 71
50 31
50 178
50 268
30 15
30 49
30 70
30 62
30 74
30 50
30 38
30 16
30 82
30 56
30 191
DD DD
66 20
66 60
AE FC
CB FA
CB EB
CB AB
CB AE
CB AF
CB DF
37 65
37 43
37 20
37 45
37 12
37 28
37 73
37 488
44 80
44 27
44 23
44 67
44 114
35 25
35 19
88 63
88 47
88 22
ac k
ac uel
ac ela
ac roce
99 47
99 22
99 70
99 00
99 11
99 90
99 95
99 46
99 08
99 98
99 91
99 743
ja la
21 47
21 60
21 22
21 18
21 870
wd on
77 39
77 68
77 66
77 21
77 26
253 1
253 8
BC FA
BC DA
AF FD
AF FB
AF EB
Entrar any
38 40
38 69
38 19
38 45
38 49
38 26
26 80
26 47
26 61
26 62
26 251
insertar any
CD ED
CD DB
CD AE
05 25
05 43
05 60
05 09
05 75
05 00
05 16
05 76
05 140
05 132
05 420
16 19
16 22
16 235
16 236
16 807
CE ED
CE AA
BD EC
BD AC
BD AB
BE AB
84 29
84 23
84 85
84 49
84 24
84 473
90 29
90 15
90 48
90 86
90 164
cor b
cor rea
cor adio
sg o
57 40
57 43
57 61
57 64
57 79
57 26
57 86
BA ED
34 25
34 40
34 29
34 17
34 89
34 18
34 62
34 192
34 126
34 475
34 477
34 634
tas ar
CA EB
CA AC
95 63
95 15
95 45
95 60
95 18
95 24
95 46
95 86
95 31
95 32
95 3542
DA ED
DA FB
78 43
78 89
78 22
78 68
78 14
78 24
78 44
78 102
DF EC
DF EB
BF EC
BF FC
46 65
46 47
46 175
41 25
41 63
41 47
41 89
72 27
72 65
72 18
81 60
81 64
81 66
st ue
st ac
42 27
42 107
42 141
53 27
53 23
53 49
53 68
53 28
53 61
53 24
53 21
53 26
82 20
82 49
82 14
71 22
71 68
71 61
93 80
93 10
93 20
93 22
93 48
03 80
03 12
03 09
03 70
03 73
03 26
men j
men ea
76 47
76 68
76 62
mar y
mar ie
mar io
mar coni
mar event
58 29
58 22
58 28
58 16
go la
go od
sa w
sa ng
sa da
sa le
lle ras
07 10
07 19
07 47
07 24
07 191
31 27
31 17
31 19
31 47
31 45
56 83
56 49
56 62
56 8765
56 4059
97 80
97 17
97 63
97 47
97 60
97 83
97 09
97 18
97 73
97 79
97 26
97 699
54 10
54 45
54 60
54 6828
36 69
36 43
36 47
36 89
36 62
08 13
08 20
08 44
08 21
08 186
08 696
of loral
01 6932
94 27
94 65
94 11
32 18
32 68
32 61
32 857
32 17385
52 17
52 13
52 19
52 87
52 45
52 60
92 40
92 13
92 60
92 48
92 61
96 25
96 23
96 13
96 60
96 89
96 22
02 19
02 89
02 83
02 48
02 14
so o
so lo
so lu
06 17
06 69
06 43
06 45
06 18
06 200
06 434
98 40
98 10
98 64
98 259
51 15
ta d
ta o
ta y
91 15
91 20
91 45
91 83
91 49
Pas o
04 80
04 40
04 22
ia les
ino xled
tu ro
tu des
tu meu
De spe
du tt
Rioja any
et nics
za la
na ch
250 46
va len
va quer
va Bean
vi u
vi co
vi tt
Al tas
Al ga
Al cu
Al bala
Al gerri
Sa les
Sa hag
Sa linas
nue stras
ba da
ba ssa
ba ssig
Vi val
Vi cen
Vi viana
man cia
ad ros
ai ro
bo e
bo h
bo w
bo is
bo Dego
ran a
ran d
ran un
per ma
del bi
ga han
un dio
ol teanu
Ar ra
Ar me
Ar meng
Ar turo
San agua
San rom
San xen
123 7
mi co
mi st
mi ta
mi cha
mi rez
jo b
jo y
jo ven
jo hn
ara ble
110 2
110 6
110 8
110 51114
Pa traca
Pa lenzuela
Bar co
Bar cel
Bar tumeu
640 2
Mar e
Mar ag
Mar qu
Mar gin
ber n
ber ri
ber vil
ve en
ve da
ve ga
ve gas
ste tt
Car riz
Car mina
be la
be an
be ate
be regi
sh on
tor mo
tor sten
290 59
is land
Ma uri
Ma tons
ab da
ab du
Ro di
Ro bla
Ro zas
Gu ate
ana ma
783 5
ver d
ver sal
Le a
Le des
Le gui
Le andra
Le muna
Ba il
Ba ja
Ba jada
lan es
lan dia
Pe tunia
cel li
fi co
Val d
Val herm
Mon serrat
Mon aghan
gos can
257 21
Villa se
Villa escusa
Villa vaquer
der enzo
190 65
190 09
183 2
183 9
bar ca
bar tz
bar cafe
mer son
140 1
140 9
lin ni
eb ra
660 2
660 203
192 43
160 2
185 4
129 4
129 7
129 9
159 1829
ter r
153 406920
189 5
ge ri
805 670
113 5
167 8
147 20
163 2
163 4
163 8
163 9
120 0
120 6
445 0
445 92
bi anco
143 8
hi te
443 1
443 4
443 5
443 7
443 49
ka z
he a
he ad
243 3
243 4
243 5
187 9
685 0
685 3
643 5
643 8
643 660
To b
To rell
459 44254
via no
105 20
vo ragolive
409 73
273 29
155 89
800 61
174 64
473 59
In crement
Del fo
Del va
139 74
689 4
ha med
265 3
265 26
447 8
178 26
299 63
po p
po lo
po llet
285 1
158 19
AFB D
AFB F
qu an
qu ecla
238 45
180 6
480 2
480 4
480 7
480 9
480 618
485 29
485 08
233 00
639 19065
683 5
pi c
pi z
647 8
Ra S
Ra ng
Ra yen
289 9
108 80
gu y
483 7
675 82
283 2
283 9
tes vegas
138 17
Po ya
zo zo
zo om
zo tta
zo orapia
cha ng
154 1713
680 3
Ber d
Ber gas
Ber gan
Ber gon
Ber rue
Bo v
627 6
EFA E
697 48167
455 73
El cano
FFA D
vila inst
AAD D
AAD F
653 2862
115 1
CEC F
607 65
118 2
AFC C
AFC D
EFC E
809 69
Gir onella
258 61
220 1
220 41
Ri ca
Ri pollet
Cor rea
AFD C
AFD E
145 1
145 2
145 4
FFC E
437 18
437 61
686 230
420 1
420 3
AAB C
AAB F
102 40
BAD C
857 12
EFD D
gar don
gar gen
390 85
tra iners
803 28
803 2161
Mad re
458 11
CFA C
CFA D
CFA E
CFB E
779 8
DAC A
693 63
602 10
BCC A
BCC D
Tar si
DAD E
Lle dos
610 93
BFC F
BDC D
DFD A
DFD C
DFD D
DFD E
Lu cas
Lu jan
122 2
DFB B
DFB C
DFB F
DDB C
Or den
Or teu
xy blue
Ġ5 67
161 22
BFD A
BFD D
Ja zm
Ja lencas
Ja vaBean
182 8745
An T
An te
An Te
CAB F
225 5812
162 1
494 10
qui var
qui enq
CFC A
CFC E
CFC F
BFB E
DAE A
654 21
759 76186
EAD A
EAD B
EAD D
EAD E
503 43
BDE F
853 1591829
EBD FE
hor ra
505 13
Gran yena
ner s
ner os
ves t
Me lit
379 7
don kr
705 41
Cas se
Caste llanos
So cor
359 1
Pi joan
579 2
579 8
EAE A
Par ticu
Par acuel
339 7
339 363
885 1
377 27
asp iran
ven cio
ron ceda
585 4
432 48
EAC D
Mi la
Mi llan
dro w
808 674
java bean
Es to
Gar ro
ess am
305 6945
909 2
tan eri
Cam pro
Cam pan
Can franc
213 40
168 12
Ce linda
Ce lada
Ce ledon
216 616409
gen io
353 50
Ne vada
Sal u
No u
No v
No re
Torre manzan
bre gat
bre tana
ete ra
san che
san pedro
344 1
344 85
sen d
343 1
Ve gas
415 40
415 00
517 546828
994 26251
349 15
dy mon
em pa
em il
038 6
jar r
jar do
tre po
Mu ni
Mu lleras
az OrR
mas quecla
bas ta
312 29
324 69748167
950 1
Da vid
Tra ba
ff y
hu nt
lon i
lon es
Esp ronceda
365 20
577 6
llas led
469 10
dri vinn
713 3217385
pr int
Por tugal
dan c
dio la
622 237119
847 40
ling er
tri ca
fran co
fran ce
464 43
Ab del
Ab undio
jan s
pre dicha
466 69
Bu stillo
rea der
dar bee
gui apolicial
op tica
amon te
He lena
He usser
kar l
lie u
461 67
Mer cado
Bas cu
ren s
Gen er
Oli ver
wor de
Cu adros
Gra ell
ham mad
Bal les
Vir tudes
Ho mdedeu
Lla don
sto ck
Llo bregat
ku mar
Pal mira
ze at
oni ca
hiper barcelona
hiper navar
Bi z
Est acion
Gal le
nar incon
Ama dis
Cla ve
Cap ella
Pala fo
hen shaw
eck ner
Vall b
imo to
Villar rubia
Mal mus
Ol mos
Ol medilla
agu as
Feli u
Ru IDor
nova servi
auto escuela
bet ter
hy land
whi t
ny berg
eu ro
gran te
gran bretana
ins ki
she k
Bon itto
dr vrs
enla palma
Alb orno
For men
Ger tru
pez zotta
Casa de
esca pada
Eli z
Eli berto
Je an
Ron n
Sag rado
Sag reras
Sar ga
hal loran
guer rero
nico lo
Nu cle
Nu mancia
Pad ul
Pad ura
Su au
Mai gmo
maj or
Salva tierra
Salva tore
Quin to
Gr aci
Gr ino
Ig lesias
Bell puig
Beni tez
Du ch
Du menj
mcc or
mac ne
Mor ena
esa campa
Cub o
pos asentudia
Ay amonte
Nar ros
Nar va
Qui yen
ant acruz
ili dad
lei ka
Adel fo
Br zozo
aw at
zas ound
Urb ina
Ven us
Ven drell
Barri uso
Nava lilla
Nava concejo
Fre ix
Zu leika
lit ja
vina vilano
sant acroce
Maes tra
Cru ces
rol ston
4073 5914
lyn n
white pearl
Cur iel
tet develocidad
servi ces
mari posasentudia
Fede lia
Ces ar
Nog uero
Nog ueras
lian os
6460 600
gin island
lod gema
Alex andre
Gre dos
pres toese
tech ino
tech niques
servlet s
9365 9443
Alde ta
Ferre te
Ceci lia
Eche ver
Medi an
Rec ie
Rub iales
Res trepo
Rosa lia
fla sh
sur reau
2018 86
6147 6771
5715 0463
Cin ca
Hig in
Tre facio
bara tas
Com te
4823 016932
5520 0418
Valen te
bios oftware
heal y
logi co
1845 8283
Naval uenga
Mun do
Zor rilla
iri sh
vir k
vir ginisland
sex plo
2987 84
8379 744557
7900 1087
2615 613
7263 96
7263 2645
Ped ros
Eu genio
osti coradio
roo pe
1001 25453
4974 2539
met rio
Cresp o
Arte aga
Bro t
Esca lante
Gru po
Nue stra
Ren dor
6078 216616409
8900 726396
2245 6953
0883 153406920
Albe rico
Barber ans
Guar dia
video casa
Prin cipal
gel dart
wat w
ages tion
6508 80969
1978 2082
5939 89
media car
zaragoza floral
fore igno
Sanch on
Bala guer
pico pico
Galin do
tural sanpedro
Fun es
Llor en
lun ch
dec sl
dani ss
imar bella
2006 49154
progra ma
under dog
Tamar go
Tamar indo
home page
5805 8531591829
Hen ares
Ivan co
Pai va
Pol loni
bag nato
rt ce
Cabal leros
rias tella
2817 99426251
isio encasa
Gian luca
Jan eiro
Llu cena
ffi ce
mid t
pru eckner
stad t
9729 0360
Boli via
Boli art
willi ams
6233 6583
But gardon
Pes aguero
cul turalsanpedro
kat zenel
leg ami
creacion esacampa
Arti gas
Gior gi
0809 2387
2670 72632645
Emi lio
Oc ta
sme gumi
yk solu
spro tocoloso
2505 4750
Alci ra
Peregr ina
4154 281799426251
6190 7460
Ange les
Cros as
Fin landia
Iso ba
Pos ada
blog smegumi
mck in
spain bb
inte ranun
Entra da
elf isioencasa
Torr ente
Apo linario
Bene detti
Gorg one
Gines ta
IS mo
pon t
psy koter
indi an
calla lelaboca
Cab anilla
resta urante
5782 200649154
taber narincon
Alg eciras
Vali ente
Nogue ola
lamola hotel
8859 7573
Tab laz
demas iado
seva ch
89483 19901
Reca nto
81279 872417
expo zaragozafloral
Montan uy
Indu strial
Salmer on
rizzar d
alquiler panta
Betan zos
0473 79419
8682 8032161
Betti ni
Dag mar
Meng ual
Sas tre
enan dorra
zim mer
core serv
city cvs
Remi gio
Sadur n
Argan do
mic gael
mich aud
Marquesa do
Valdel tormo
mercado zoom
Orte ga
Sole dad
cenit soria
Haro id
Flash JavaBean
esmeral das
Wences lao
Dula ntzi
Ferra da
Nai ara
Umber to
fuz zy
ibi zasound
knight s
depor techino
mang ini
mauro man
Chur ruca
Cher cos
albe iteria
22446 2815
5502 6532862
37470 55026532862
88600 786
99500 842
10019 031
Mardo queo
luci lle
Gay tan
francis lucille
Heli os
multi reform
transpor tesvegas
logiteclin es
Present at
pensiones baratas
gopersonal trainers
Bagu danc
Isi doro
Imel da
Jac into
Jadra que
Kadi ga
Mapo ula
Mace don
Oni la
Osar te
Perra mon
Priva do
Plasen zuela
Rau rell
Sty lianos
Ullo a
Vare la
Yel tes
Zua zo
adula ria
hamp den
jaga th
mki log
twin jet
lalec tura
enform etera
invers ioneo
cowor kers
apaga do
aridos sanchez
impu nida
mais on
Encin as
Lazca no
Molez uelas
neces ito
ubuy better
252183 2781
diagn osticoradio
carimar tin
that cher
thero xyblue
alme riastella
137583 11
19058 64691
87954 18458283
872387 82
896049 8379744557
83627 503
83296 238
492735 8900726396
18165 81279872417
734325 1905864691
554929 32
99743 55200418
953542 2521832781
menea mex
marevent sprotocoloso
564059 19
ofloral zaragoza
Sahag un
nuestras antacruz
bassig na
boDego Ncillo
delbi enestar
Armeng ol
Sanxen xo
Margin et
Robla dillo
Guate mala
Ledes ma
Lemuna o
Valherm oso
barcafe daniss
660203 43
480618 40
1541713 650880969
Bergan ti
Bergon do
vilainst al
1828745 224462815
2255812 100125453
Paracuel los
339363 8948319901
aspiran tes
Torremanzan as
517546828 2615613
masquecla ses
32469748167 93870
7133217385 805670
622237119 3056945
optica web
hipernavar ra
novaservi cios
Alborno z
Gertru dis
escapada joven
guerrero delbienestar
Nucle o
Brzozo wski
whitepearl resort
lodgema drid
prestoese sto
93659443 48061840
61476771 45944254
4823016932 298784
virginisland s
sexplo rador
6078216616409 598
0883153406920 438
foreigno ffice
58058531591829 57
culturalsanpedro cf
creacionesacampa da
267072632645 7119
yksolu ap
interanun cios
restaurante picopico
5782200649154 235
alquilerpanta llasled
047379419 6460600
86828032161 85712
ibizasound s
transportesvegas l
inversioneo lica
diagnosticoradio logico
8795418458283 406
9974355200418 178
mareventsprotocoloso cial
0 100
0 252
0 104
0 130
0 159
0 470
0 273
0 670
0 439
0 177
0 675
0 688
0 138
0 254
0 695
0 154
0 198
0 673
0 297
0 877
0 488
0 475
0 272
0 228
0 895
0 835
0 134
0 390
0 839
0 897
0 203
0 674
0 095
0 438
0 205
0 838
0 654
0 896
0 291
0 131
0 692
0 401
0 094
0 357
0 753
0 491
0 777
0 707
0 691
0 399
0 251
0 737
0 333
0 398
0 797
0 801
0 757
0 341
1 130
1 876
1 271
1 257
1 153
1 699
1 172
1 484
1 224
1 146
1 481
2 100
2 876
2 170
2 279
2 192
2 159
2 153
2 470
2 197
2 155
2 473
2 400
2 699
2 614
2 679
2 191
2 108
2 673
2 132
2 258
2 698
2 484
2 296
2 291
2 682
2 676
2 691
3 090
3 104
3 290
3 730
3 190
3 170
3 279
3 192
3 153
3 157
3 275
3 800
3 237
3 403
3 699
3 126
3 128
3 254
3 298
3 236
3 475
3 859
3 437
3 835
3 478
3 458
3 897
3 605
3 878
3 2520
3 694
3 186
3 205
3 232
3 896
3 505
3 226
3 181
3 281
3 682
3 646
3 891
3 207
3 707
3 432
3 836
3 882
3 216
3 508
3 732
3 241
3 006
4 234
4 805
4 193
4 173
4 650
4 409
4 273
4 157
4 107
4 155
4 139
4 178
4 879
4 233
4 675
4 673
4 297
4 653
4 194
4 277
4 141
4 484
4 605
4 672
4 494
4 486
4 131
4 491
4 402
5 192
5 199
5 459
5 155
5 233
5 639
5 177
5 688
5 198
5 297
5 653
5 194
5 498
5 176
5 437
5 677
5 278
5 659
5 644
5 602
5 678
5 494
5 156
5 116
5 750
5 759
5 231
5 833
5 682
5 634
5 330
5 151
5 357
5 744
5 707
5 758
5 444
5 446
5 005
5 338
5 472
5 755
5 778
5 003
5 841
6 250
6 104
6 290
6 234
6 159
6 193
6 199
6 470
6 293
6 174
6 453
6 158
6 614
6 191
6 297
6 877
6 488
6 236
6 630
6 258
6 677
6 292
6 182
6 454
6 634
6 692
6 641
7 270
7 235
7 170
7 135
7 470
7 197
7 275
7 490
7 126
7 675
7 277
7 137
7 809
7 698
7 890
7 141
7 857
7 478
7 677
7 435
7 295
7 644
7 274
7 203
7 407
7 288
7 492
7 474
7 616
7 486
7 291
7 281
7 286
7 894
7 891
7 094
7 696
7 206
7 496
7 703
7 334
7 246
7 734
7 731
8 290
8 876
8 103
8 453
8 109
8 238
8 233
8 490
8 144
8 142
8 497
8 488
8 607
8 498
8 258
8 484
8 693
8 602
8 674
8 494
8 291
8 281
8 671
8 696
8 636
8 601
8 216
8 831
9 271
9 190
9 170
9 175
9 173
9 124
9 453
9 670
9 499
9 879
9 403
9 299
9 238
9 259
9 490
9 679
9 177
9 126
9 108
9 873
9 609
9 172
9 697
9 194
9 132
9 630
9 855
9 890
9 603
9 141
9 102
9 677
9 292
9 136
9 278
9 435
9 146
9 897
9 276
9 633
9 288
9 807
9 637
9 205
9 837
9 208
9 750
9 232
9 858
9 834
9 401
9 330
9 101
9 671
9 641
9 882
9 251
9 872
9 741
9 007
9 246
9 353
9 734
9 590
9 008
9 746
A x
A ja
A man
A lan
A bu
A ECF
A ragona
A mel
A yen
A rist
A spar
A mode
A reg
A dolfo
B og
B ida
B ier
B EDA
B DDE
B EEA
B AAE
B audi
B illi
B laya
B rei
B RU
C T
C b
C li
C EDC
C FEA
C DDE
C uy
C ill
C roya
D io
D am
D AAF
D EEE
D EEA
D AAA
E o
E p
E ri
E FAB
E EDC
E ECC
E ECF
E uri
E lor
E Ne
E bre
E ud
E zca
E xi
E raso
F le
F ue
F id
F EDC
F EDD
F ECD
F ECB
F EDA
F rida
G ri
G ord
G ig
G uer
G and
G old
H al
H um
H ada
H ui
H it
H ua
I A
I R
J aul
K en
L ion
L ora
L est
L lers
M im
M ara
M uelle
N ol
O re
O di
O ss
O so
O ya
O cho
O ssa
O tero
O teo
O runa
O jel
O brador
P A
P E
P re
P ub
P am
P Er
P resa
R at
R inc
R ena
R elle
S car
S ami
S Men
S yl
T ron
T ira
T raso
T into
T onato
T uret
U ri
U ru
U gar
U chu
U iS
U ceda
V ar
W ie
W ara
W ale
X x
Y en
Y ara
Y ab
Y em
Y eral
Z en
Z ure
Z apa
a h
a se
a tu
a via
a ses
a ther
a dol
b ora
b ron
b illi
b Ili
c ino
c ran
c ker
c ris
c osta
c nou
c urita
c inea
d f
d l
d n
d da
d res
d Er
d uber
d watw
e ko
e les
e va
e ga
e ria
e vas
e gro
e mbo
e berle
e baz
e DorA
e merson
f O
f v
f y
f ig
f ton
f igh
g ie
g ier
g han
g ins
g rizzard
h h
h off
h ui
h ex
h ier
h ess
h esa
i di
i len
i tos
i ba
i ga
i ente
i oso
i Ni
j O
j ia
j agan
k la
k us
k ab
k hor
k ry
k rist
k ash
k raso
k now
l m
l und
l uelle
m ost
m pa
m oria
m arsessionid
n en
n il
n ac
n za
n osa
n all
o w
o ch
o ro
o ta
o pel
o telefono
p A
p U
p ie
p ros
p ina
p aga
p apa
p neu
r A
r c
r do
r ni
r ier
r int
r bol
s A
s w
s pa
s gi
s ino
s ona
s ara
s by
s sext
s Up
s cales
t x
t ok
t agar
t uer
t andy
t RaS
u le
u za
u jo
u tat
u chet
v adi
v ac
v ara
w u
w ing
w ir
w To
w ash
x p
y m
y ent
y ue
y ers
z min
z zy
z ultravioleta
Ġ 30
Ġ 84
Ġ 90
Ġ 100
Ġ 295
Ġ 125
Ġ 286
Ġ 101
Ġ 307
Ġ 323
Ġ 319
Ġ 313
Ġ 303
Ġ 328
Ġ 304
Ġ 321
on y
on de
on der
on aga
on ysh
on uevo
on leu
ca sp
ca bal
ca ba
ca man
ca lia
ca cio
ca dero
ca sson
ca mila
ca pita
ca vender
te en
te cas
te st
te ta
te ig
te llo
te ed
te jani
ti el
ti CA
ti Va
ti sta
ti po
ti llas
ti dos
ti QU
ml er
os A
os io
os pas
la sp
la ff
la bert
la sexta
80 10
80 60
80 18
80 66
80 99
80 38
80 90
80 147
80 643
80 673
80 890
en ti
en er
en ce
en To
en son
en china
li ag
li ss
li tar
li gan
li tur
li shi
li aria
in na
in vento
ag i
ag on
ag ran
ag lia
ag acion
tion g
ch im
ch ac
ch ino
ch ara
ch ig
ch ner
ch ard
ch uk
che ro
zi o
zi ra
co o
co p
co che
co lle
co pi
co par
co bio
co chea
co dwatw
co onleu
ro ma
ro lla
ro que
ro vi
ro ve
ro yo
de g
de los
de au
de go
de mp
de lia
de villa
de mos
de cer
de vista
de iros
ap ar
ap is
ap art
ap iet
lo c
lo ui
lo ck
lo af
lo wski
app le
app er
app el
no len
no el
se g
se j
se da
ng er
ng an
host professional
ar co
ar ros
ar an
ar ne
ar ms
ar mand
ar nold
ar apart
Con rado
da i
da de
da da
da es
da via
da vie
da wn
da cg
ie la
ie sta
tro tta
im el
le za
le wi
le it
le jos
le gs
le ppert
ma tion
ma so
ma bu
ma uri
ma ly
ma let
ma toria
ma nou
pa c
pa y
pa nt
pa bia
pa isa
ent os
ent hal
ue y
ue sa
ue tt
ue villas
Ca lla
Ca bar
Ca sta
Ca rol
Ca mari
Ca ssandra
ser n
ser t
ser re
ser ra
ser ig
En para
lla ga
La m
La vin
La ura
La bas
La uro
com o
Co R
Co o
Co ca
Co mel
Co rado
Co bos
Co unt
ok ee
ke y
ke ams
ke hoe
que ras
que invento
ing e
ing o
Mo las
Mo rell
Mo lino
Mo dre
Mo reno
ko u
ko et
ko rs
ko vic
con nec
con ga
con ven
con tac
Ag a
Ag ra
Ag reda
Ch e
Ch iri
pla t
Lin o
pati ent
re e
re in
re fran
re tte
re iman
re madura
sp in
sp ring
nt h
nt ar
nt he
or y
or do
or Te
ub ed
mb ie
mb ru
mb ard
mb ps
mb ueta
ci ente
ci cch
25 80
25 55
25 21
25 16
25 01
25 98
25 51
25 670
gi c
di p
di ss
di ta
di sco
gis mundo
do y
do er
do vel
do gal
do lores
40 43
40 60
40 00
40 66
40 37
40 26
40 84
40 97
40 36
40 52
40 96
40 100
40 183
40 129
40 644
40 331
ur ana
ri t
ri sa
pe pe
27 20
27 33
27 30
27 78
27 41
27 86
27 36
mo e
car ena
car mine
len c
len i
len o
th w
th ie
th an
th ia
th iel
th orn
th ink
for th
eng as
eng lishi
ype rs
es ser
es ter
es tel
er in
er an
er ris
er jee
er bd
er rebe
al m
al len
al to
al du
al var
al ter
al ston
al cant
ros mode
ros enthal
an z
an er
an as
an na
an ada
an ime
an ella
10 23
10 68
10 61
10 11
10 66
10 88
10 95
10 56
10 640
10 613
10 120
10 181
cia cion
regis ter
regis tros
29 17
29 18
29 68
29 66
29 16
29 57
29 03
29 58
29 92
29 06
29 640
29 650
29 647
29 680
29 703
29 332
17 67
17 73
17 66
17 21
17 46
17 256
17 06
17 741
17 554
17 9055
23 27
23 15
23 89
23 44
23 88
23 16
23 42
23 58
23 56
23 04
23 746
el sa
el lio
el baul
63 24
63 66
63 16
63 34
63 78
63 81
63 42
63 76
63 96
63 98
63 91
63 371
63 7329
63 4994
13 80
13 25
13 29
13 22
13 14
13 66
13 92
13 641
13 001
13 6050
85 15
85 73
85 66
85 77
85 57
85 71
85 58
85 01
15 80
15 40
15 85
15 12
15 50
15 21
15 34
15 02
15 756
to m
to o
to li
to ol
to don
to mujeres
69 17
69 33
69 70
69 62
69 74
69 38
69 57
69 07
69 04
69 445
69 162
65 23
65 85
65 19
65 68
65 24
65 16
65 84
65 34
65 46
65 07
65 54
65 01
65 92
65 98
65 739
43 15
43 65
43 19
43 12
43 68
43 70
43 44
43 77
43 84
43 42
43 82
43 71
43 86
43 56
43 08
43 220
43 393
67 17
67 15
67 60
67 68
67 73
67 11
67 24
67 57
67 81
67 98
ss y
ss ie
ss man
ss ot
19 63
19 38
19 26
19 52
19 06
19 163
19 490
19 488
19 294
19 196
19 833
19 436
19 307
47 10
47 85
47 87
47 73
47 14
47 58
47 01
47 32
47 06
47 130
47 800
47 093
87 80
87 60
87 68
87 24
87 21
87 95
87 76
87 92
87 51
87 430
87 607
20 13
20 67
20 68
20 73
20 26
20 07
20 08
20 127
20 159
20 6810
pro of
45 63
45 64
45 62
45 81
45 93
45 02
45 51
45 04
45 660
45 893
45 111
45 291
45 181
45 892
45 571
60 69
60 48
60 62
60 41
60 04
60 477
as a
as u
as to
as hi
as tra
as ley
89 25
89 69
89 70
89 50
89 16
89 57
89 01
83 65
83 83
83 73
83 62
83 77
83 03
83 52
83 02
83 51
83 263
83 484
83 203
83 798
83 8541
il dad
49 69
49 20
49 70
49 26
49 34
49 679
49 655
22 40
22 17
22 60
22 61
22 44
22 88
22 84
22 41
22 640
22 450
22 480
ED CD
ED EF
ED jar
Re gu
Re my
Re ach
Re ese
Re bull
carrito Set
tar d
tar co
vin s
vin da
id on
id ent
id ora
cp rint
cp arms
39 63
39 15
39 19
39 47
39 45
39 61
39 62
39 66
39 37
39 35
39 88
39 95
39 42
39 82
39 71
39 93
39 91
39 04
39 755
39 148
39 2219
39 8505
FA a
FA EB
FA BD
FA EA
FA Vo
EC CB
EC BF
EC eDorA
FC FD
FC DB
FC AA
FC FF
12 23
12 123
12 147
12 400
12 169
12 477
12 292
FD ED
FD FE
FD AE
FD DA
FB AA
FB CA
FB DA
33 43
33 48
33 28
33 11
33 35
33 77
33 26
33 82
33 08
33 289
33 739
33 687
33 6735
48 18
48 61
48 88
48 140
48 689
48 220
48 454
48 222
EB ED
EB AF
EB CF
09 25
09 63
09 60
09 68
09 30
09 44
09 16
09 95
09 46
09 76
09 54
09 36
09 92
09 185
09 129
09 258
09 274
09 681
09 891
09 244
09 471
18 85
18 253
18 187
18 699
18 614
18 698
18 119
ra ms
ra fia
ra him
AC AC
68 13
68 69
68 45
68 49
68 48
68 82
68 127
68 675
75 80
75 29
75 18
75 88
75 21
75 77
75 26
75 34
75 82
75 36
75 98
75 445
75 620
75 272
75 478
75 731
28 23
28 63
28 43
28 67
28 18
28 66
28 86
28 190
28 189
28 493
28 277
28 646
AD FC
AD CB
AD BE
AD DF
AB FA
AB CA
AB EF
61 29
61 11
70 40
70 27
70 13
70 15
70 47
70 45
70 48
70 88
70 41
70 42
70 03
70 56
70 36
70 627
70 803
70 260
70 687
au ng
64 80
64 23
64 85
64 20
64 22
64 12
64 14
64 62
64 890
73 60
73 64
73 77
73 03
73 614
73 884
79 10
79 43
79 47
79 64
79 73
79 21
79 05
79 76
79 273
79 674
55 17
55 69
55 89
55 48
55 61
55 79
55 00
55 34
55 03
55 96
55 1313
BB EE
BB DB
BB AA
BB DD
BB DA
DC FE
DC FF
14 13
14 15
14 43
14 14
14 66
14 46
62 40
62 69
62 45
62 14
62 896
59 17
59 85
59 15
59 62
59 24
59 44
59 16
59 34
59 86
59 36
59 04
CC FA
CC AB
CC AE
CC CD
EE AD
00 17
00 85
00 79
00 30
00 77
00 05
00 16
00 84
00 78
00 72
00 02
00 439
00 245
00 360
DB AD
DB AB
DB DD
DB AE
DB CB
11 40
11 15
11 139
11 188
11 659
AA FC
me h
me o
me ar
me re
me ier
me linda
24 48
24 470
24 288
bal tasar
FF EC
74 11
74 118
cas h
50 65
50 67
50 45
50 49
50 28
50 66
50 46
50 41
50 81
50 42
50 127
50 470
50 879
50 614
50 294
50 446
50 709
50 417
50 619
30 80
30 40
30 23
30 67
30 47
30 18
30 11
30 77
30 31
30 730
30 635
30 802
30 7467
66 27
66 19
66 400
66 204
AE FD
AE AF
CB FD
CB FE
CB CD
37 80
37 10
37 19
37 87
37 60
37 89
37 33
37 62
37 24
37 81
37 779
37 799
37 797
37 6989
44 20
44 45
44 48
44 28
44 21
44 16
44 41
44 124
44 670
44 652
44 168
44 12645
35 40
35 10
35 29
35 85
35 60
35 83
35 68
35 61
35 11
35 84
35 71
35 478
35 1080
88 29
88 61
88 88
88 118
99 40
99 67
99 49
99 48
99 73
99 30
99 35
99 57
99 97
99 06
99 309
99 422
99 003
les iones
ja m
ja y
ja en
ja min
ja ssot
21 14
21 890
21 206
DE AB
DE FE
wd en
mber t
77 63
77 15
77 47
77 20
77 18
77 79
77 62
77 77
77 82
77 71
77 86
77 76
BC ED
BC EF
AF FE
38 27
38 10
38 15
38 89
38 12
38 48
38 61
38 14
38 16
38 682
sti no
sti ne
sti ano
26 67
26 28
26 4709
26 4901
CD FA
CD EC
CD FF
CD scar
05 47
05 20
05 18
05 62
05 11
05 44
05 35
05 78
05 82
05 146
05 210
05 358
05 2079
am en
16 27
16 12
16 64
16 193
16 639
16 2819
CE AC
CE AF
BD FC
BD FD
BD FF
BE AD
84 43
84 19
84 89
84 64
84 26
84 297
84 6550
90 17
90 63
90 13
90 69
90 83
90 68
90 75
90 61
90 62
cor dia
cor less
cor conera
57 80
57 47
57 87
57 68
57 28
57 14
57 66
57 2931
34 80
34 27
34 13
34 49
34 800
34 870
34 259
CA r
95 80
95 25
95 29
95 75
95 28
95 11
95 74
95 84
95 81
95 650
95 1163
EA FB
EA FF
78 63
78 69
78 45
78 66
78 234
78 283
78 278
78 1311
DF FC
BF FE
EF ED
46 85
46 19
46 87
46 45
46 48
46 62
46 890
46 691
ir ent
ir al
ir ena
41 13
41 272
72 29
72 13
72 47
72 20
72 83
72 653
72 1307
81 10
81 43
81 67
81 47
81 14
st amos
42 25
42 17
42 45
42 12
42 192
42 173
42 473
53 80
53 10
53 63
53 67
53 19
53 22
53 39
53 12
53 79
53 74
82 27
82 29
82 13
82 67
82 47
82 60
82 6669
71 40
71 17
71 69
71 83
93 29
93 63
93 45
93 68
93 70
93 14
93 00
93 11
93 1368
86 13
86 43
86 19
86 22
03 40
03 10
03 48
03 14
03 11
03 004
03 6583
men a
men d
76 60
mar t
mar ch
mar sh
mar ks
mar bella
58 10
58 85
58 47
58 45
58 83
58 66
58 26
58 642
58 27329
inde r
go tt
go mez
256 40
256 89
sa e
sa t
lle tt
07 15
07 65
07 20
07 49
07 33
07 48
07 18
07 61
07 707
31 29
31 63
56 29
56 13
56 67
56 12
56 18
56 60765
97 27
97 10
97 67
97 68
97 64
54 65
54 67
54 87
54 49
54 48
54 18
54 16
36 40
36 23
36 49
36 61
08 15
08 67
08 19
08 60
08 672
08 25075
of cparms
01 25
01 64
01 62
01 470
01 105
01 899
01 478
94 13
94 87
94 49
270 4
270 47
270 665
270 4110
32 80
32 40
32 10
32 29
32 15
32 69
32 19
32 47
32 87
32 89
32 4595
32 6309
32 201886
52 65
52 67
52 64
52 11
52 870
52 656
92 25
96 85
96 67
96 47
96 87
96 12
96 61
96 192
96 135
96 4989
02 43
02 61
02 11
02 290
so a
so li
so bre
06 197
06 658
98 23
98 19
98 873
98 695
51 89
51 48
51 68
51 61
ta da
ta lia
91 60
91 66
91 659
91 897
91 672
Pas cacio
04 25
04 23
04 15
04 87
04 68
04 61
04 275
04 276
por tet
Confir marsessionid
caja any
ino v
ul s
ul lena
De m
De ver
De ben
De lei
De ifi
De hesa
du ino
du lier
zar es
zar et
Ġ2 25
Ġ2 85
Ġ2 87
Ġ2 89
fo o
og an
za ti
za lo
za litur
na cia
na tar
250 64
250 6746
vi li
Al tar
Al les
Al maz
Al fred
Al varo
Al zira
Sa turn
Ġ33 4
cre wes
ba in
ba ile
Vi da
Vi ci
Vi va
Vi veros
man zanilla
man jarr
ad dl
ad onde
ru f
ru dos
ru tia
bo d
bo ok
ce j
per t
per muta
per rosmode
ler c
ga te
ga lo
ga ye
un ar
un da
un cia
un anueva
ne a
ne ke
ne do
ne gro
Ar re
Ar mu
Ar tes
Ar gen
Ar dan
Ar tell
Ar nold
Ar cedi
San lu
San cha
San abria
123 0
123 1
123 3
123 5
mi che
mi da
mi plat
ara t
Pa zar
Bar gall
640 4
640 6
640 7
Mar c
Mar in
Mar co
Mar es
Mar ug
ber so
ber ge
ber tat
613 4
613 17
ve la
ve in
ve ria
104 254
ste l
Va lero
ll y
ll tec
Car ran
Car dal
Car iti
Car melo
Car acena
Car cedo
be li
be lo
be le
sh ing
sh na
sh un
sh ira
wai te
is y
is to
is fv
us i
Ma cia
Ma cias
Ma tiz
Ma chia
Ma carena
any i
ab el
ab og
ab aga
ab bye
235 30
Ro que
Ro yo
Ro mil
Gu ad
ver si
ig uez
Se gu
Se gui
Se gre
Se jas
Se lene
Se gismundo
Na yla
Le ig
Le gan
Le pant
Le serre
Ba ro
Ba beli
lu c
lu la
lu ke
lan do
lan der
var d
Pe rar
Pe leas
130 63976
130 18179
221 1323
ria no
fi ta
Val do
Val lori
mp i
Mon z
Mon zon
Mon royo
Mon erris
Bur an
Bur go
Bur jassot
Villa man
Villa gon
Villa rejo
der on
190 33
183 6
183 7
183 70
bar t
bar te
bar es
170 30
140 0
lin vest
eb uy
230 0949
279 35
660 48
192 45
192 104254
160 0
160 525
EDa des
185 6
185 9
185 13
at on
Tor dera
Tor roja
127 3
127 2948
ho u
ho on
ho bin
ho ud
si de
si ban
rid ges
ter n
153 8749
189 3
263 3
263 4
263 6
263 7
263 835
263 770
263 973
165 1
165 4
165 8
ge sevilla
239 837
113 2
113 30
167 0
167 1
167 60
167 72653
147 0
147 4
147 5
163 0
120 2
120 8
445 1
445 7
445 2881
bi za
bi ene
bi uchet
199 49
199 88
199 278
143 3
443 8
ka w
ka y
ka le
ka th
he era
je w
je vic
173 15
103 74
243 7
243 59
187 4
187 20
187 715
des com
685 8
685 831
620 31
643 1
459 35
org an
133 26
273 66
273 4810
mu ir
124 15
275 48
275 18
275 477
249 68892
293 59
255 6815
In da
In vier
In iesta
139 29
875 87
875 14
875 24
453 897
453 7988
689 3
689 6
689 9
689 8289
ha o
ha cia
237 80
463 5
463 539
dor say
tr y
200 37
sta je
265 9
265 40
265 84
447 00
400 659
178 69
403 14
403 16
po ol
po int
188 14
699 40
285 0
285 2
qu il
qu iel
180 3
180 7
180 8
480 8
485 2
485 4
683 1
683 709
llo r
llo ri
pi lar
pi cardo
647 4
647 6
Ra hal
Ra imundo
177 80
177 884
405 33
289 7
144 60
DFC A
Ju ana
Ju sta
gu ay
gu apo
gu adiana
169 1
169 34
247 4
247 8
247 78234
483 0
483 3
283 6
209 34634
609 3905
128 6911
Av il
Po tel
cha queta
695 19
695 86
635 40
635 82
680 8
680 96192
Ber to
Ber ber
Ber tol
Ber nardo
172 29359
Bo te
Bo ro
Bo tifo
AEB A
AEB D
El baile
Ter rin
fa ir
fa fila
433 2464
194 22
877 64
115 6
115 37
CEC C
236 25046
BEB C
475 3305
118 6
AFC E
DDC B
DDC D
809 888
630 19
830 39
Gir aso
859 24
220 3
Ri ose
Ri cardo
Ri ffo
Ri cardina
Cor do
Cor ne
Cor ts
Cor bina
Cor cega
603 00
141 4889
895 4955
cu la
cu lo
437 74
835 75
420 7
AAB D
AAB E
102 61
DAB A
EFD A
EFD B
478 87
478 14
390 28
tra dora
292 25
839 675
CAD B
CAD C
458 69
224 15
779 83575
CFD D
BAB C
BAB F
CBB C
CBB E
294 488
878 60
DAD A
DAD B
FFD C
223 14
bu sey
bu zzy
093 45
093 404
093 2460
bob bie
mon d
BFC A
DFD F
Ga z
Ga cias
095 00
Lu z
Lu pi
Lu ciano
ras a
434 1629
215 2
408 1414889
122 15
DFB D
492 11
Or enda
Or pez
Or ISmo
Or nosa
807 2420
BDB C
Ci ra
Ci juela
Ci utat
fe ro
fe gan
ari ssa
637 25623
An na
An cha
An dra
An dun
An uar
CAB A
CAB B
672 19436
494 12169
184 18
AAC A
119 393
qui z
qui ria
qui siban
438 66
837 29647
DFA C
116 452
BFB A
474 19
FFB B
FFB D
BFA D
ente no
231 25640
ki z
ki ria
833 1009
hor ng
hor ta
lor ray
505 84
287 2
834 484
CAE A
Me za
ly ne
sch war
sch kors
Fe ria
894 231
335 09108
375 1
Cas ia
Cas agran
Caste llet
550 80
So lan
So rolla
359 7
359 9
Pi ula
Pi riz
227 87443
085 01
085 1365
579 7
EAE F
Par ada
cat on
055 2
055 8
Li Dora
Li zama
cho w
ene ro
260 6
su telefono
su chima
ine y
087 1
087 86
van carga
337 85
114 1016
114 838541
ven imiento
Be ca
Be th
Be atriz
Be ato
Be itia
Be tiana
Be lart
Ur z
005 40
005 6020
347 60
gra fia
ry e
ry an
452 61
399 74
795 40644
799 28493
355 1
dra u
Mi co
Mi let
Mi lano
808 18
735 67
Te jo
Te inad
703 29189
327 80
327 88
BAC D
Es dras
villa gesevilla
467 15
Gar ci
305 00
tan te
Cam pe
Can y
333 00
213 20
037 1
037 2
037 6
509 7
Ce uta
059 4
Fer n
Fer rer
Her reruela
Her menegilda
Her melinda
Ta h
Ta malla
cos mo
tal bo
360 7118
530 4
Ne ri
Ne yen
Ne liana
dia hann
930 64
004 492
070 48
Lo wery
wa ve
No bel
Torre mocha
043 93
549 8019
bre ga
san de
Vila deca
Vila mitj
Vila dric
935 2
935 4
367 35
367 90
820 1185
350 78283
343 05
827 2734810
915 609
Ve o
Ve la
mad hu
mad rile
415 85257
517 5565
989 8547
gr n
gr uber
010 84
569 67582
979 2
979 4
979 6
bel cher
038 1
765 43761
Fran co
jar on
ban e
ban ner
ban erjee
380 2015
Go mbr
bas conga
int apis
268 12
312 20
957 1
Da ya
bur y
hu ma
hu ai
421 19
ns ia
563 21
Castell fol
rie d
064 13
570 2
570 4
023 10
023 60
500 2
500 20791
Jo ver
469 60
fre y
eni biza
510 11537
519 67219436
Jose fa
ger t
ms ley
pr imera
par ada
par calia
383 00245
917 33289
Por taneri
dan forth
ling enieria
668 23125640
my ong
098 69
369 40
369 572931
963 03004
Fon de
Gi se
Gi fre
Gi use
Gi labert
fran q
val les
Cal v
Cal deron
629 55100
464 69
Di ecio
uy en
048 88
jan da
pre stan
pre stamos
pan as
078 1
Is ma
can os
can dado
can arias
can inos
901 25861
Pin ares
Pin art
af r
af iel
Ser apio
bla caman
dar pa
Ros endo
Casti elf
798 45869
042 80
042 12
014 27
Si li
Si xto
Si urana
ano r
ano t
Cer de
Cer da
Cer vell
win d
win ona
He via
He cho
He loisa
kar apiet
nto devista
dos os
ming alvo
mati cs
418 20
Don iz
Fuente lisen
sal u
berg stro
061 85
Bor rell
Oli vos
gal t
wor mee
Cu gat
Gra cia
Gra matics
071 27
Bal leste
Bal duino
pu ntodevista
char ko
char ney
534 85
Fi ta
Fi jo
Ho wTo
bon temp
cion es
dis n
wen ham
wen vivo
ray mund
ment E
ment a
sto dd
086 19
Llo bera
Llo mpart
Llo cnou
Per fec
ben sky
cla ra
cla matoria
Agu as
Agu amarina
Agu llana
Pal me
wal don
hiper zaragoza
Puerto mingalvo
999 177884
Est ap
Gal don
Za ima
nar in
Ad ria
Ad Or
Ama necer
Cla vel
Cla udio
Cap many
Cap itan
fan site
Mont ull
Mont duber
hen n
hen dren
hol lings
Santi ni
Campo amor
Men diz
Pu jos
bri tts
cer os
om pta
wil ly
Villar ta
Mal co
Mal lo
Ol me
vie ra
vie ja
gol fo
sho wenvivo
Feli ces
Feli ciano
auto mation
bet ty
hy ong
Ala medilla
Ala bart
Cue va
Cue llar
Ver enice
Pan ciano
xi an
Far zati
sel les
quer uela
vide ot
she ar
Blan c
ita lian
col OrISmo
Alb iol
For mi
Ger man
Ger indote
mira valles
Au stria
Au rora
Ara ujo
dora ine
ea ux
yan n
Casa do
red host
red star
esca m
EN te
Isa ch
Isa ac
Je pus
sz midt
Arro tchar
ster n
Leon or
Lor ca
Su arez
Su engas
tran a
Mai sa
ple moon
maj d
Quin tan
Dan es
Gr imal
Ig nacia
Mag os
Mag acela
Plan es
ali sande
uro pe
rich ards
Aba d
Aba nto
Bell v
mcc ompta
the ws
rosa serig
Fab r
Fab reg
Mor gadas
ett son
Cub illo
cA t
mur ph
mur ray
gil ger
rado mir
Ay llon
Gon yalon
eas t
samp fra
tic links
Aran z
gun ner
mue ller
cado ret
dun kus
Valde cilla
Flor s
Flor ensa
Ven er
ias ilen
sim ple
andre u
Ming orr
hir onaga
hard in
ico ds
ping kai
6527 83798
6527 5827329
Ame rigo
Cru illas
Flo rida
Gas ca
dre ros
Cabe z
mobi liaria
lyn nette
Ram os
blan ca
Valder rey
pra eger
tg cprint
Palo mero
Mos en
Mos queruela
Sen ini
Ya x
Ya mand
cra fton
ken dell
2511 685831
Cri vill
Fru itos
Gin er
Gin el
Hi pabia
Oro z
bio point
tech data
lag han
ching tsu
6780 85
viajes solo
At aun
Blas co
Jos iana
Medi co
RE c
cI a
Agui la
Agui ar
1000 6555
1000 13929
2955 34
6399 9765
6887 475
bour dette
Riu corb
Cin tio
Hig uera
Hig ueras
Pelli ni
low ler
low ry
Cha mbueta
esto re
2381 12
8543 70379
8319 63725623
1249 48
1249 49140
ram narin
gold ner
Ban sells
Les lie
Os mar
info tek
novi sa
dav id
1505 48445
1113 0412
Mira vet
blue berry
Iz naga
Lli bertat
Sau ces
Zor aida
ang o
jor playa
scha ab
sex otelefono
Arg ente
Arg ullos
mucho chino
Sagra da
ofertas chinas
Cen dreros
Eu doro
Ili zalitur
Terra das
pen ning
rue hmann
rue basconga
wol fie
4088 8726
1573 2704110
1555 390
6755 5669
4590 12477
med boe
2464 400659
2187 09
Cresp i
navar re
Arte sa
Arte ta
Barto lom
Mala qu
Frances ca
Gru p
Mes tre
Nie va
tac ticlinks
lef t
estar encasa
1515 432
6075 270665
3865 79273
9615 63
5183 4543
Alber ca
Albe re
Albe ric
shan kley
Guar diola
Soto dosos
Rai fro
Wal kiria
coni ch
1881 1334
2847 781311
9162 4095
Almen silla
sher ri
Bala guera
barni zultravioleta
Riba frecha
Quir entes
Fontan et
Fontan ars
Merca der
Merca dal
mundo apple
mayor iasilen
modelos caninos
Bus quet
Clo vis
Esg uevillas
Fun osa
Llor ente
Lagu ia
Mir anda
Ras mira
cun il
fos ter
kam ran
lun e
dec tode
alb um
4461 4622
9933 6093905
Pela yos
Montor n
design world
mini loaf
construccion es
Hos pita
Hen kel
kri shna
pur plemoon
ind agacion
max tienda
malla lieu
2983 7743
6035 11630
3917 1878
7019 1286911
3775 854370379
9047 093404
0770 1226
Merce d
Amar gant
Alar ba
Bla si
Gan ci
Llu fri
eco ffey
caro lyne
uras ultravioleta
3975 9775
0040 4081414889
nex or
Guil len
Ray burn
Llave ria
cursos dele
Castany er
ladim iro
Alo y
Cos curita
Cus quisiban
Edel mira
Fan celli
Oti lia
Sh unko
rubi as
chad y
seas y
entre venimiento
6783 16
aso ciacion
8906 1921
6189 173
bous quet
bous fiel
Vaz quez
25716 2367
brad ford
2109 6784
8430 846550
8616 4975
Eno c
Emi grante
Jard in
Pau let
Cora chan
kess iah
Cho cano
motor villagesevilla
engo mera
6741 45811
7599 6092
7599 459012477
7778 6356
7619 192104254
tus limi
foro hh
cement osan
Roble do
Ripol les
Gali lea
Pica bea
Peregr ino
4150 2558
9293 2037
Eme rio
Ida lina
Iso lina
blog er
xtre mist
kola hi
forte lingenieria
1758 199278
6311 2556815
todo modelos
1916 4341629
Redon da
3999 80673
7031 2987
0006 6763
9994 2317
Almo d
Salo bre
Mat co
1430 102
muta bIli
guar neros
buck ley
brun ner
brun oseguridad
Adela rdo
Hol z
Iver n
Iver na
Sul ko
Tap asco
aca demia
fur gos
gene vra
iv anyi
yok ono
2582 13063976
thur sby
1976 49412169
3983 16772653
0059 2385
nati uk
Alt amira
adc javas
adc test
Mass afr
Bat llori
juan polo
Casar amon
Castille ja
Castille jo
Borb onio
Trini dad
Teodo mira
Avi to
Dami an
IM pr
Jau me
Lec r
Log ro
Rida o
cOR T
kir k
kho v
rode rick
robb ie
Laba yen
Comer cio
recer car
47182 191
0763 4332464
Alfor ins
Tala vera
Vilal ba
Esplu gues
Blanca fort
Simple Query
0197 87695
3172 2360
Gio van
Gara bana
Pur ullena
Rion egro
Uni versi
bier stue
kemp f
mot aung
escar ba
dador A
2829 961563
stok ker
goo drow
Almar gen
Maz cuer
Baz t
hipo tecas
Boca irent
14559 882
yout ubed
Teix id
Astor ga
muebe tuweb
Fredes vinda
vision enor
Miral les
Ullde mol
Zapard iel
Berrocal ejo
Sacri ficio
3474 2926
Asen sio
Cui dadorA
Fara co
Flu vi
Hila ri
Pap iol
Sit ges
Ton k
Yer mo
Zaf ra
pint urasultravioleta
radi ck
seng hor
lame jorplaya
2397 29059
67499 126
19185 67555669
provi der
EDso ain
35265 294
35637 68127
05120 273
deny se
3114 834484
10042 805
foto grafia
nath eaux
Barba los
Santamar ia
29383 133
10867 689
Polica r
Tersi f
Mez quita
walt disn
blood line
ayl mer
Horte nsia
program agestion
Tranqui lino
pelicu lasen
Alumbre o
Secund ino
rajch wal
ingenieriadela construccion
Gras as
Impe rio
Ry bensky
Subi as
Utri llas
ocal laghan
ober on
sma lltec
cada ques
devo re
Concep cion
mach ines
Caro lina
Lant adilla
conting ent
63154 198
15613 671
47147 326309
87157 1538749
20994 221
39253 11
18836 17
90164 620
568765 85
97699 18811334
nach um
Alcu dia
Sales as
Vival do
perma necer
Arme lio
Marag liano
abdu llah
Villase v
hite urope
80061 275
15819 238112
Rang le
22041 65275827329
80328 105
Tarsi lia
61093 505
808674 29837743
Celedon io
34485 8954955
send me
hunt lee
84740 124949140
Lladon osa
Jean nette
mccor mack
Narva ez
programa ciones
Macedon ia
Aspar rena
Amode o
Billi ni
Brei ther
Ep uyen
Euri co
Eud osio
Ezca barte
Exi ga
Hum ildad
Hui tron
Hit Count
Lion el
Ojel ja
Relle u
SMen TE
Traso bares
Uru guay
Ugar te
Uchu ya
Wale rico
Xx ii
Yen ina
Yara v
Yab en
Yem ina
Yeral d
Zure ra
atu aire
avia dora
df ault
evas or
figh ting
hex um
hess ling
iNi A
krist jan
kraso jevic
know les
moria ty
pneu ma
ssext remadura
sUp LiDora
tagar automation
onysh ko
casp ospas
casson dr
camila fansite
capita linvest
lasp ruebasconga
80890 1719
liag uet
colle y
cochea coche
delos refran
demp sey
devilla fafila
arapart ners
daes ik
lewi s
mabu chi
malet ti
paisa je
Calla risa
Cabar cos
Enpara ntza
Lavin ia
okee fe
Modre go
connec t
contac tomujeres
spring son
orTe Ra
cicch ino
diss ident
englishi seasy
ypers onales
errebe be
alto guadiana
alvar do
alcant arapartners
anime xtremist
registros essionid
179055 303
elbaul delosrefran
637329 24
634994 1758199278
13641 255
136050 20
15756 299
tool bar
todon cia
87430 264901
206810 66048
proof reader
astra c
83203 700
22640 068
Reach Us
75272 191
70627 754
70803 791
70260 5085
551313 263835
00360 1125
11659 20681066048
baltasar santos
50446 63999765
30802 142
376989 64
44670 2506746
4412645 0056020
351080 15
88118 66823125640
99309 1141016
lesiones musculares
38682 401
264709 9047093404
052079 16
162819 5660765
951163 3114834484
721307 23
826669 2511685831
931368 660
036583 98873
0825075 702605085
964989 187715
91897 4704
91672 15819238112
Dever dun
Delei tosa
Deifi lia
zaret sky
manzanilla devillafafila
adonde ir
permuta tucasa
perrosmode lo
unanueva visionenor
Artell s
Arcedi ano
Sanlu car
Cardal liaguet
Cariti an
Segui ri
Legan es
2211323 97
Villagon zalo
160525 04
1272948 221132397
houd ini
263973 42
4452881 808901719
biene k
heera lal
453897 2829961563
6898289 931368660
463539 10006555
guapo te
Botifo ll
Terrin ches
4753305 12
Giraso les
Riose co
0932460 116452
8072420 100013929
Andun ce
119393 64
lorray ne
schwar z
schkors ki
33509108 13018179
0851365 114838541
70329189 92932037
Tamalla ngos
3607118 257162367
5498019 386579273
Viladeca ns
8201185 179055303
35078283 00066763
8272734810 678085
5175565 918974704
9898547 003601125
3802015 475330512
intapis ur
Castellfol lit
51967219436 48454
primera casa
91733289 00592385
369572931 2300949
Giuse ppe
Diecio cho
prestan cIa
prestamos ypersonales
canarias atuaire
Castielf abib
Fuentelisen do
Balleste ros
puntodevista fotografia
HowTo ReachUs
bontemp o
stodd ard
999177884 6189173
videot ubo
italian motorvillagesevilla
redstar z
Arrotchar en
Grimal di
mccompta bles
rosaserig rafia
sampfra m
652783798 1883617
viajessolo mujeres
831963725623 7029
150548445 1430102
blueberry miniloaf
muchochino enchina
Ilizalitur ri
15732704110 29963
2464400659 124948
6075270665 324595
Raifro id
2847781311 275477
mayoriasilen ciosa
dectode p
99336093905 42119
Hospita let
purplemoon grn
603511630 3925311
70191286911 64371
3775854370379 113
Llufri u
00404081414889 94
8430846550 683709
674145811 1555390
7599459012477 111
7619192104254 644
tuslimi tes
cementosan franq
63112556815 12253
19164341629 40533
399980673 8331009
mutabIli dad
academia versal
258213063976 4727
197649412169 9035
398316772653 4410
07634332464 47327
019787695 6887475
bierstue tze
Mazcuer ras
hipotecas com
239729059 4537988
1918567555669 782
3563768127 894231
programagestion erp
47147326309 74118
871571538749 6940
9769918811334 498
80867429837743 65
344858954955 1103
84740124949140 92
laspruebasconga seosa
elbauldelosrefran es
87430264901 83484
551313263835 1756
5044663999765 334
446702506746 8073
44126450056020 81
993091141016 1523
1628195660765 454
03658398873 27935
964989187715 0082
unanuevavisionenor todoncia
46353910006555 29
0932460116452 279
0 090
0 290
0 235
0 730
0 192
0 805
0 193
0 199
0 459
0 105
0 255
0 174
0 875
0 237
0 870
0 400
0 457
0 188
0 158
0 495
0 600
0 697
0 236
0 132
0 830
0 141
0 893
0 857
0 121
0 196
0 276
0 624
0 408
0 638
0 678
0 637
0 672
0 156
0 232
0 505
0 804
0 281
0 626
0 658
0 646
0 222
0 642
0 436
0 744
0 636
0 171
0 652
0 795
0 808
0 606
0 656
0 755
0 334
0 651
0 888
0 732
0 336
0 731
0 786
0 842
0 841
0 441
0 751
1 100
1 290
1 150
1 690
1 174
1 453
1 191
1 126
1 142
1 497
1 488
1 644
1 684
2 252
2 175
2 150
2 805
2 179
2 135
2 107
2 600
2 128
2 236
2 176
2 292
2 278
2 295
2 121
2 404
2 274
2 878
2 276
2 624
2 807
2 186
2 182
2 672
2 184
2 684
2 111
2 611
2 481
3 253
3 257
3 175
3 159
3 805
3 239
3 193
3 173
3 273
3 124
3 107
3 293
3 155
3 255
3 450
3 178
3 614
3 238
3 191
3 177
3 673
3 653
3 106
3 272
3 137
3 228
3 890
3 677
3 839
3 278
3 644
3 294
3 407
3 674
3 434
3 184
3 438
3 684
3 152
3 608
3 750
3 286
3 705
3 482
3 151
3 456
3 476
3 631
3 696
3 676
3 641
3 806
3 402
3 708
3 737
3 886
3 852
3 802
3 003
3 008
4 250
4 104
4 221
4 192
4 153
4 293
4 255
4 473
4 200
4 493
4 158
4 614
4 600
4 108
4 254
4 172
4 488
4 498
4 258
4 893
4 134
4 659
4 295
4 693
4 602
4 116
4 616
4 681
4 621
4 181
4 284
4 682
4 666
4 658
4 151
4 891
4 691
4 871
4 251
4 246
5 270
5 100
5 252
5 239
5 133
5 273
5 158
5 439
5 405
5 144
5 138
5 209
5 128
5 697
5 455
5 607
5 890
5 141
5 835
5 857
5 390
5 803
5 484
5 404
5 196
5 203
5 674
5 694
5 479
5 186
5 637
5 438
5 616
5 654
5 853
5 896
5 454
5 626
5 286
5 705
5 692
5 666
5 406
5 101
5 671
5 753
5 206
5 676
5 632
5 641
5 806
5 432
5 737
5 651
5 756
5 353
5 241
5 242
5 881
5 846
5 736
5 751
5 376
6 256
6 235
6 805
6 239
6 650
6 275
6 107
6 155
6 299
6 679
6 126
6 695
6 295
6 693
6 196
6 186
6 672
6 232
6 681
6 291
6 181
6 482
6 671
6 251
7 250
7 090
7 221
7 192
7 175
7 153
7 239
7 157
7 293
7 155
7 255
7 195
7 237
7 450
7 870
7 200
7 499
7 178
7 879
7 403
7 457
7 299
7 188
7 699
7 614
7 238
7 154
7 172
7 297
7 488
7 258
7 136
7 897
7 655
7 093
7 674
7 694
7 624
7 678
7 654
7 853
7 296
7 626
7 131
7 682
7 634
7 456
7 436
7 856
7 871
7 606
7 886
7 852
7 202
7 336
7 801
7 746
7 842
7 841
8 270
8 100
8 234
8 805
8 470
8 293
8 800
8 195
8 237
8 493
8 400
8 178
8 439
8 600
8 126
8 873
8 609
8 298
8 850
8 194
8 877
8 236
8 809
8 630
8 698
8 890
8 895
8 176
8 803
8 292
8 278
8 121
8 605
8 878
8 203
8 408
8 604
8 672
8 205
8 684
8 838
8 208
8 833
8 621
8 626
8 401
8 666
8 891
8 631
8 491
8 898
8 676
8 496
8 446
8 691
8 871
8 641
8 452
8 432
8 606
8 431
9 256
9 104
9 290
9 730
9 221
9 257
9 650
9 409
9 157
9 450
9 699
9 614
9 209
9 695
9 198
9 673
9 142
9 298
9 497
9 498
9 803
9 839
9 659
9 295
9 644
9 693
9 605
9 407
9 694
9 186
9 874
9 111
9 657
9 503
9 226
9 804
9 181
9 286
9 222
9 631
9 696
9 436
9 744
9 395
9 599
9 856
9 005
9 399
9 481
9 799
9 790
9 598
9 793
9 398
9 307
9 442
9 732
9 831
9 003
9 842
9 742
9 346
A G
A T
A in
A ch
A ub
A pe
A mo
A vin
A lle
A res
A ig
A ACB
A EDB
A EDC
A EDE
A cu
A EDA
A lor
A dro
A ug
A dal
A bert
A dol
A ller
A miel
A oiz
B M
B d
B ue
B ord
B ir
B ago
B vo
B EDB
B ECD
B ECB
B EEE
B LE
B riz
B nta
B reda
B reta
B ret
B uix
C t
C il
C ia
C un
C eb
C FEF
C ris
C Ho
C losa
C lida
C imoteo
D id
D ada
D res
D FEE
D FFF
D eni
D alma
D imas
E v
E la
E ro
E ng
E va
E ck
E qu
E pi
E FEE
E ACA
E lio
E lis
E zama
F R
F U
F c
F m
F en
F ro
F ub
F ri
F io
F na
F ono
F Or
F ECF
F ares
F rie
F Oli
F ines
F rey
F jon
F urn
G O
G U
G lo
G ue
G ur
G enes
G ai
G ari
G amon
G ong
G esto
G ames
G yana
H ar
H era
H ira
H elda
H emil
I L
I a
I Mo
I mar
I vo
I tal
I cA
I talo
I sern
I BM
J U
J i
J on
J of
J Script
J Ed
J hes
J ubert
K o
K an
K amil
L O
L y
L Lo
L losa
L mear
L unar
M U
M ul
M ina
M amp
M ena
M AR
M ose
M ene
M ine
M ill
M Pes
M amer
N T
N er
N an
N as
N Ci
N ari
N are
N uda
N audi
N ardo
N cO
N ubia
N uncio
N Games
O N
O t
O te
O sp
O ros
O me
O ll
O ria
O loca
O seas
O lof
O lindo
O breg
P le
P ros
P ac
P ris
P ug
P RI
P ardos
R im
R ma
R ue
R En
R el
R ia
R ig
R ene
R incon
R adillo
R enilla
R alston
S I
S ca
S in
S enda
S ci
S ir
S ida
S tra
S ard
S Ur
S ecre
S tri
S hir
S ort
S Ador
S pell
S isneros
S noop
T rag
T el
T as
T ia
T ol
T hi
T An
T ren
T RE
T uru
T aula
T ons
T osca
T roya
T imoteo
U m
U lla
U pe
U DO
U BLe
U tiel
V A
V io
V as
V iel
V adillo
V AnT
X a
X ix
Y es
Y an
Y ela
Y ebra
Z ub
Z ano
Z ita
Z ubia
Z enteno
a P
a ti
a cce
a id
a du
a va
a ve
a ver
a cher
a vent
a DO
a bout
b im
b ion
b ino
b lis
b ger
c ier
c ka
c ras
c An
c yn
c rick
c bger
d le
d ko
d iel
d berg
d nar
d hagen
e M
e las
e lia
e van
e ure
e uy
e Si
e amon
e vel
e jel
e quiel
f li
f ag
f ok
f ab
f era
f aga
f ami
f ong
f est
f uret
f amil
g A
g host
g ord
g au
g us
g lu
g ria
g ani
g Ir
g giani
h eng
h sa
h ul
h um
h uen
h uel
h ida
h si
h and
h all
h rm
h ima
h ett
i ch
i zi
i sti
i am
i tu
i va
i ka
i vo
i ck
i po
i ento
j y
j uer
j ura
j yo
j eros
j ager
j ect
k l
k on
k ap
k no
k ub
k ne
k ua
k enta
k ube
l O
l f
l ub
l tern
m A
m im
m mie
m agar
m st
m inde
m uen
m osa
m tl
n da
n ne
n dez
n hol
n imo
n dula
o N
o on
o da
o mo
o man
o ve
o ver
o der
o vo
o Ra
o tes
o ms
o rel
o yama
o tismo
o itz
p E
p c
p ost
p app
p pa
p eng
p il
p og
p un
p ig
p ye
p har
p ong
p lec
p uran
p iano
q i
q uena
q cole
r ost
r ra
r ino
r um
r ono
r via
r qu
r ls
r ente
r yle
r ine
r rie
r ric
r dol
r medes
s C
s ke
s ko
s ri
s am
s ir
s um
s ba
s ner
s don
s wa
s win
s lino
s acio
s wel
s aun
s ampa
s witz
s live
t ue
t ona
t ler
t tin
t OR
t adio
t rago
t arsessionid
u L
u ge
u pi
u jan
u ill
u jos
v esti
v ago
v ene
v old
v ecia
v rdol
w x
w y
w id
w ha
w eck
w ong
x on
x ley
x by
x ea
x amel
x slive
y ec
y es
y aros
y ig
y reda
y time
z ap
z el
z auz
z zo
z aga
z ug
z apa
z schu
Ġ 19
Ġ 32
Ġ 290
Ġ 103
Ġ 135
Ġ 293
Ġ 109
Ġ 121
Ġ 131
Ġ 222
Ġ 309
Ġ 300
Ġ 316
Ġ 314
on te
on ne
on cio
on ero
on gui
ca o
ca te
ca ci
ca nte
ca rel
ca pes
ca ire
ca mien
te os
te li
te ar
te ena
te ku
te MPes
ti u
ti ble
ti mo
ti er
ti ni
ti mir
ti due
os O
os al
la c
la k
la ti
la ros
la go
la mp
la gas
la rich
la more
80 27
80 17
80 15
80 14
80 62
80 74
80 16
80 46
80 81
80 82
80 698
80 994
cc olo
en cal
en na
en ck
en nes
en mallo
li on
li la
li do
li bro
li pp
li amar
li ster
li ping
li vella
li gua
pt on
pt ner
cce ch
in f
in sp
in as
in sa
in stitu
in diana
in nard
in nis
in noc
in mobiliaria
ag h
ag re
ag or
ag uis
tion pro
ch A
ch y
ch os
ch ub
ch as
ch ir
ch un
ch oso
ch ris
ch orn
ch alon
ch ueca
che ck
zi c
zi ano
xt on
co c
co ur
co ta
co lor
co use
co tten
co unt
co ffee
ro a
ro di
ro ur
ro er
ro va
ro ba
ro web
ro ff
ro khov
de k
de o
de x
de ap
de cal
de us
de tt
de asp
de em
de ix
de jas
de sol
de sella
de chado
ap s
lo e
lo y
lo be
lo tti
lo vell
lo boh
lo bianco
no v
no vo
no dal
no vic
no vsky
no mao
ec ie
ec rm
se a
se e
se i
se u
se co
se que
se id
se qui
se ly
se guer
ng allo
cal b
cal m
cal zar
cal lam
def e
ar y
ar vi
ar jun
ar mst
Con g
Con so
Con dor
Con tr
da D
da me
da uer
da hl
da vitt
ie les
ie ga
ie llo
im pla
im es
im ia
im per
im arro
im enta
im port
le k
le te
le gi
le pe
le ja
le go
le je
le tt
le ld
le ton
le Ta
le llan
le ila
ma lo
ma to
ma il
ma ine
ma rov
pa z
pa ro
pa ng
pa lla
pa ni
pa tch
pa checo
pa Lmear
ue ba
ue sta
Ca me
Ca za
Ca va
Ca sc
Ca tal
Ca dier
Ca leb
En ca
En ra
En tr
En ric
En TE
En cina
En sanche
La uran
La vina
La conich
com ode
Co M
Co de
Co go
Co zar
Co va
Co man
Co lu
Co gol
Co lom
Co balto
Co tillas
ok i
ke a
ke res
ke ene
que dade
Mo h
Mo l
Mo li
Mo lar
Mo reruela
Mo hamed
ko be
ko ff
ko pf
ko pell
con f
con es
con cur
con mus
con sul
con ejos
rag osa
rag uar
Ag ea
Ch u
Ch illi
ble r
pla ns
pla yers
re pa
re th
re ros
re to
re tar
re sti
re man
re ves
re ton
re ben
re ssa
re cad
re stitu
re deli
re calzar
sp ie
sp ero
nt on
nt ua
nt ano
nt zu
nt amiento
or gi
or rec
or ta
or nelas
ub uru
pub lica
mb al
mb el
mb ago
ci ar
ci pe
ci to
ci lia
ci lio
25 06
25 185
25 193
25 800
25 480
25 334
25 832
25 559
25 2446
gi ra
gi les
gi lle
gi lia
gi rls
di ca
di ce
di ol
di ger
di vie
di cci
di stri
gis a
gis lado
rar ere
do b
do w
do x
do ble
do an
do res
do yle
do wer
do litz
40 48
40 68
40 75
40 38
40 86
40 58
40 98
40 04
40 660
40 403
40 873
40 330
40 476
40 8769
40 4145
ur q
ur ch
ur ec
ur ada
ur des
ur rio
ri r
ri de
ri al
ri to
ri ja
ri za
ri ose
ri cci
ri diana
pe i
pe sa
pe ria
pe rez
pe reda
pe lado
pe tru
27 17
27 85
27 12
27 61
27 64
27 11
27 88
27 42
27 71
27 857
27 797
27 307
27 886
27 993
mo ro
mo mbo
mo bil
mo Fl
mo cadero
car li
car me
car men
car ring
car tasde
car melo
len de
th or
th al
th ac
th ate
th isner
th waite
eng ar
code r
code br
ST ioso
es o
es u
es tre
es ham
er g
er va
er chig
al f
al u
al ber
al ut
al mente
al yos
al ARg
ros amon
ros alyn
an os
an ima
mie wx
10 47
10 70
10 71
10 100
10 250
10 263
10 162
10 896
registro AND
29 80
29 40
29 29
29 23
29 19
29 59
29 50
29 35
29 38
29 34
29 53
29 32
29 445
29 197
29 453
29 450
29 490
29 283
29 753
29 1139
17 40
17 10
17 22
17 48
17 28
17 90
17 76
17 07
17 51
17 850
17 136
17 224
17 121
17 474
17 333
17 732
17 1701
23 25
23 45
23 83
23 64
23 66
23 37
23 76
23 36
23 100
23 119
23 750
23 2015
23 3305
el s
el y
el paisaje
63 33
63 18
63 73
63 44
63 26
63 57
63 31
63 08
63 257
63 103
63 155
63 857
63 832
63 1713
13 17
13 15
13 60
13 89
13 41
13 72
13 96
13 51
13 730
13 160
13 189
13 193
13 120
13 600
13 117
13 707
85 23
85 85
85 22
85 61
85 50
85 26
85 86
85 03
85 04
85 239
85 439
85 172
85 407
85 223
85 1788
85 1013
15 69
15 45
15 64
15 72
15 81
15 56
15 08
15 01
15 96
15 475
15 691
15 801
15 304
to ja
to wi
to res
to lan
to este
to andaluz
to zauz
69 10
69 15
69 73
69 00
69 84
69 94
69 230
69 127
69 485
69 483
69 634
69 330
69 351
65 87
65 20
65 28
65 61
65 74
65 77
65 26
65 58
65 97
65 52
65 135
65 643
65 705
43 67
43 20
43 45
43 22
43 61
43 35
43 46
43 72
43 03
43 02
43 06
43 179
43 443
43 144
43 483
43 855
43 603
43 694
43 894
43 151
43 781
43 6099
43 6789
67 30
67 26
67 97
67 01
67 52
67 06
67 279
67 680
67 446
67 703
67 4743
ss ar
19 18
19 59
19 88
19 57
19 41
19 58
19 91
19 190
19 140
19 133
19 144
19 209
19 404
19 442
19 336
19 392
19 907
47 64
47 79
47 00
47 24
47 26
47 86
47 160
47 185
47 609
47 433
47 106
47 899
47 118
47 610
47 778
87 25
87 63
87 87
87 20
87 83
87 42
87 31
87 56
87 01
87 96
87 239
87 284
87 7665
20 69
20 39
20 77
20 38
20 84
20 90
20 41
20 76
20 96
20 91
20 470
20 447
20 289
20 213
45 69
45 20
45 33
45 61
45 31
45 140
45 600
45 610
45 621
45 777
60 03
60 97
60 94
60 800
60 106
as ce
as ana
as tur
as yra
89 45
89 59
89 24
89 44
89 99
89 26
89 34
89 95
89 54
89 36
89 120
89 614
89 675
89 602
89 605
89 280
89 0900
89 7120
89 2444
83 27
83 87
83 12
83 28
83 93
83 07
83 31
83 08
83 140
83 187
83 453
83 483
83 117
il les
49 63
49 49
49 12
49 24
49 88
49 21
49 38
49 86
49 36
49 96
49 06
49 167
49 118
49 624
49 638
49 331
49 0764
ni ch
ni ro
ni ck
ni ccolo
22 10
22 13
22 15
22 64
22 62
22 200
22 158
22 439
22 280
22 296
22 210
22 13817
ED G
ED N
ED S
ED d
ED l
ED lo
ED ED
ED FB
ED AB
ED FF
ED AE
ED guez
ED fica
ED fero
ED rvia
Re gi
Re mber
Re gen
Re jas
Re gin
Re tuer
Re quena
carri dine
carrito AND
lid ora
tar ra
tar dos
tar agu
tar inski
nti c
id t
id osa
id ual
ema n
39 23
39 85
39 49
39 14
39 21
39 57
39 46
39 53
39 56
39 54
39 02
39 51
39 200
39 696
FA r
FA tar
FA AE
FA va
FA dia
FA jar
FA iara
entrar any
EC EE
EC DD
FC EE
FC ela
12 17
12 69
12 60
12 83
12 140
12 185
12 459
12 674
FD BB
33 80
33 17
33 65
33 20
33 39
33 12
33 09
33 74
33 88
33 16
33 57
33 78
33 41
33 42
33 56
33 54
33 183
33 120
33 293
33 265
33 225
33 746
33 5812
33 004492
48 40
48 22
48 690
48 800
48 447
48 600
48 498
48 186
48 4755
EB AE
09 23
09 67
09 22
09 88
09 90
09 41
09 86
09 31
09 04
09 640
09 290
09 660
09 480
09 259
09 191
09 128
09 220
09 292
09 737
09 782
09 341
18 12
18 61
18 21
18 26
18 290
18 183
18 170
18 230
18 192
18 129
18 659
18 1713
ra f
ra w
ra ces
ra bel
ra jan
AC I
AC i
AC CE
AC CF
68 17
68 68
68 84
68 42
68 129
68 259
68 899
75 23
75 15
75 22
75 12
75 09
75 28
75 64
75 11
75 44
75 57
75 86
75 58
75 01
75 96
75 215
75 1797
28 20
28 48
28 11
28 84
28 660
28 2618
28 2074
28 1863
28 11052
28 809888
AD a
AD j
AB EC
AB BA
AB DA
AB BF
61 80
61 27
61 22
61 493
61 186
61 6927
61 8736
70 25
70 17
70 60
70 49
70 12
70 74
70 50
70 30
70 66
70 44
70 82
70 71
70 01
70 06
70 175
70 108
70 479
70 5949
au na
au tin
au gh
au cillo
64 127
64 263
64 193
64 255
64 627
64 677
64 472
64 6982
64 6408
73 25
73 17
73 13
73 85
73 69
73 20
73 12
73 70
73 11
73 26
73 41
73 08
73 187
73 107
73 611
79 80
79 27
79 69
79 65
79 61
79 70
79 66
79 99
79 38
79 46
79 2889
79 1515432
55 27
55 13
55 60
55 39
55 33
55 09
55 28
55 30
55 35
55 05
55 84
55 95
55 72
55 42
55 58
55 31
55 97
55 08
55 06
55 51
55 863
55 326
FE EA
BB ED
BB AB
DC ED
14 19
14 20
14 12
14 48
14 68
14 11
14 16
14 41
14 279
14 497
14 857
62 64
62 62
62 190
62 445
62 689
62 630
62 420
62 681
59 13
59 43
59 89
59 83
59 55
59 74
59 46
59 56
59 96
59 02
59 06
59 143
59 1886
59 4072
CC AC
CC FF
CC DE
CC DA
00 29
00 19
00 68
00 14
00 88
00 03
00 31
00 54
00 04
00 660
00 117
00 223
00 8849
DB FB
DB AC
DB FF
11 14
11 147
11 800
11 276
AA AED
me a
me i
me y
me rer
me rich
me NtE
me deiros
24 87
24 83
24 18
24 279
24 275
24 272
24 830
24 276
24 225
24 260
24 8942
74 10
74 13
74 43
74 48
74 24
74 21
74 26
74 46
74 443
74 12215
cas mi
cas camp
50 43
50 47
50 75
50 62
50 11
50 21
50 77
50 72
50 86
50 58
50 167
50 289
50 678
50 296
50 692
50 213
30 27
30 13
30 85
30 73
30 66
30 21
30 86
30 76
30 58
30 54
30 51
30 585
30 4307
30 7110
DD EC
DD FB
DD AD
DD FE
66 25
66 28
66 193
66 199
66 610
66 637
AE FA
37 69
37 11
37 71
37 76
37 104
37 147
37 405
37 258
37 874
37 156
37 291
37 767
37 260
37 338
37 8719
44 29
44 13
44 47
44 68
44 62
44 66
44 42
44 147
44 620
44 627
44 111
44 204
44 222
44 636
44 651
35 23
35 67
35 45
35 49
35 33
35 00
35 66
35 21
35 76
35 409
35 453
35 647
35 420
88 23
88 85
88 89
88 12
88 68
88 285
88 121
88 6220
ac s
ac os
ac um
ac us
ac ete
ac inta
99 25
99 13
99 83
99 75
99 55
99 59
99 44
99 21
99 05
99 84
99 72
99 42
99 86
99 03
99 54
99 36
99 939
les ti
les cu
les dom
ja hu
ja xia
ja cob
ja kab
ja maly
21 40
21 29
21 19
21 20
21 68
21 839
21 2939
DE S
DE EC
DE FD
DE AF
DE Ro
DE EDE
77 40
77 65
77 45
77 22
77 12
77 48
77 61
77 73
77 123
77 758
77 1183
253 43220
BC FD
BC DD
BC EFA
38 29
38 63
38 13
38 67
38 47
38 83
38 41
38 690
38 447
38 679
38 26812
sti c
sti ni
inser tarsessionid
26 25
26 19
26 100
26 130
26 209
26 292
26 291
26 8530
tos fut
CD Ne
05 40
05 29
05 85
05 45
05 12
05 48
05 28
05 70
05 24
05 46
05 81
05 31
05 163
05 292
05 122
05 357
05 413
05 1714
am mel
16 85
16 62
16 270
16 855
16 452
CE FD
CE AE
CE Rra
BD FB
BD AA
BE FA
BE EB
BE FE
BE FEE
84 15
84 47
84 87
84 20
84 12
84 48
84 14
84 62
84 21
84 475
84 634
90 80
90 40
90 43
90 19
90 87
90 33
90 28
90 73
90 88
90 84
90 41
90 81
90 82
90 463
90 702
cor ba
sg ay
57 29
57 23
57 13
57 19
57 83
57 70
57 73
57 21
BA EB
BA EE
den na
den oon
34 15
34 69
34 19
34 87
34 20
34 64
34 14
34 11
34 170
34 407
34 492
34 219
34 112
tas io
tas ajo
CA AD
95 43
95 19
95 20
95 83
95 22
95 12
95 09
95 73
95 79
95 62
95 44
95 35
95 88
95 16
95 285
95 490
Cre sc
Cre hue
Cre did
DA AC
CF ED
incorrectas AND
EA FD
EA EB
EA AC
EA AB
78 25
78 27
78 10
78 23
78 85
78 60
78 12
78 26
78 16
78 128
78 269
78 4333
DF FD
BF FD
46 17
46 15
46 18
46 61
46 230
46 470
46 182
46 2595
46 6536
41 69
41 83
41 12
41 64
41 14
41 688
41 4073
72 80
72 49
72 66
72 459
72 405
81 23
81 13
81 15
81 61
81 1463
81 1079
st le
st al
st oria
st cho
st one
st rel
42 23
42 13
42 47
42 61
42 66
42 150
42 193
42 138
42 2511
42 8049
53 29
53 87
53 20
53 48
53 64
53 14
53 59
82 10
82 45
82 12
82 61
82 62
82 894
82 2905
71 63
71 85
71 48
71 693
71 6280
71 6840
93 17
93 87
93 83
93 12
93 21
86 17
86 69
86 12
86 18
86 68
86 678
86 8071
86 6844
86 4008
03 87
03 22
03 28
03 64
03 62
03 16
03 199
03 603
03 610
03 6015
men ia
men del
76 45
76 48
76 28
mar ke
mar yann
mar tosfut
58 25
58 17
58 15
58 19
58 48
58 18
58 108
58 859
58 281
58 241
go t
go etz
256 43
256 45
sa co
sa lo
sa mo
sa el
sa bin
sa ye
sa lad
sa huma
07 17
07 87
07 45
07 75
07 66
07 16
07 84
07 142
07 4343
31 10
31 15
31 87
31 49
31 61
31 64
31 650
31 498
31 454
31 2709
56 80
56 17
56 23
56 87
56 89
56 48
56 891
56 295534
97 13
97 43
97 22
97 12
97 459
54 27
54 17
54 23
54 63
54 89
54 12
54 68
54 66
54 26
54 653
36 80
36 17
36 135
36 644
36 1567
36 839675
08 23
08 63
08 45
08 14
08 26
08 278
08 2515
08 6794
01 80
01 40
01 27
01 29
01 60
01 68
01 61
01 170
01 439
94 29
94 17
94 85
94 69
94 12
94 69363
270 6
32 63
32 20
32 45
32 11
32 650
32 197
32 172
32 437
32 633
32 621
32 631
52 25
52 27
52 29
52 23
52 63
52 83
52 61
52 198
52 659
52 4959
92 47
92 87
92 257
92 805
92 476
96 80
96 27
96 10
96 29
96 65
96 68
96 2574
logo ut
02 25
02 17
02 13
02 65
02 49
02 62
02 270
02 124
02 639
02 831
02 4010
so on
so te
so mos
so vago
06 40
06 10
06 15
06 19
06 49
06 12
06 61
06 62
06 106
06 458
98 25
98 63
98 60
98 61
98 14
98 44
98 438
98 2424
51 40
51 10
51 85
51 43
51 47
51 45
51 66
51 63155
ta e
ta z
ta ble
ta mo
ta va
ta dor
ta yo
ta it
ta dos
ta mbor
ta leza
91 80
91 25
91 67
91 87
91 22
91 12
91 6010
Pas trana
04 29
04 43
04 16
04 800
04 803
04 897
04 838
04 8319
04 4725
por te
por tes
fir stcho
ino mio
100 3767
um ina
um ptner
252 25
252 18
tu na
De mo
De rio
De deri
De metrio
De oda
De portes
Rio mor
du res
du ste
du lio
Man que
Man au
Man so
Man etti
Man silla
Ġ2 23
fo lla
za fran
za ide
na d
na te
na zi
na nt
na do
na ir
na dy
250 38
Que mada
va is
vi g
vi as
vi viana
vi lanes
Al z
Al con
Al enda
Al gu
Al fe
Al bert
Al caraz
Al timir
ono mis
Sa li
Sa id
Sa fo
Sa ig
Sa may
Sa yalon
Sa inz
Sa dda
Sa cota
Sa calm
nue ra
Ġ33 0
Ġ33 1
cre miewx
Ib ar
Ib eria
Ib rahim
ba ta
ba uer
ba ez
ba lina
ba della
Ġ17 3
esti cos
aros o
Vi c
Vi to
Vi ve
Vi van
Vi vers
man es
man ente
man ager
ad A
ad s
ad y
ad ressa
ru d
ru ss
ru mbe
bo o
bo y
bo te
bo ul
bo lin
bo tin
bo das
bo eh
bo orman
bo innard
ce R
ce lo
ce dures
ran te
wi ge
per ier
per ry
per cy
per sky
per manente
del lor
del ujos
ga la
ga ar
ga bri
ga vie
ga fas
ga llard
ga ynes
ga vens
un ke
un ell
un tes
un yola
ui lla
ol mer
ne au
ne gan
ne ddie
Ar t
Ar as
Ar bo
Ar qu
Ar chi
Ar tal
Ar mas
Ar ribas
Ar gama
Ar nedo
Ar sacio
San dr
123 979
123 5868
mi g
mi san
mi sto
jo cel
jo anni
110 1
110 5529
110 1641
2529 390
Pa vi
Pa llar
Pa oli
Pa lom
Pa tio
Pa jares
Pa ntano
2565 48
Bar tra
Bar bas
Bar onia
Bar oncio
090 47
Mar s
Mar sa
Mar ley
Mar tel
Mar cap
ber nt
ber ly
ber nie
613 7
613 8
613 6393
613 02831
ve leTa
sc laros
ste c
ste i
ste ms
Va ca
Va lera
Va yreda
Car mi
Car ina
Car mel
Car cano
Car eli
Car bot
Car Min
Car rab
Car tag
be len
be les
be van
be tis
sh os
sh ar
sh ir
sh man
tor i
tor res
290 12
290 6865
is cot
us to
us quivar
Ma ca
Ma tu
Ma der
Ma ho
Ma linda
Ma hon
Ma jor
Ma chado
Ma mbru
Ma ntua
uen co
uen tes
2522 1
ab r
ab rico
ab ier
ab si
ab ill
ab orrec
ab acus
235 43
235 26
235 655
Ro ber
Ro bin
Ro bre
Ro ws
Ro meu
Ro mana
Ro tlla
Ro mario
Gu im
Gu ER
Gu ama
Gu imera
783 4
783 9
783 83
ver y
ver ie
ver ry
ig ler
Se ca
Se ti
Na j
Na via
Na tana
Na vez
Na huel
Na deix
Le o
Le al
Le op
234 68
Ba lan
Ba qu
Ba ena
Ba Dora
Ba eza
lan n
lan os
lan de
ya ro
ya le
ya mada
var hel
var ennes
Pe reda
Pe dre
Pe ones
ex or
ex cu
ex ud
ex pert
130 10
130 39
130 41
130 39660
221 209
fi jO
271 43
271 18
271 208
Val les
Val ta
Val far
Val dun
Val davia
Val quiria
Mon tro
Mon ter
Mon tras
Mon ist
Mon llor
Mon cunil
Bur g
gos a
257 20
257 1648
Villa s
Villa vi
Villa blanca
Villa conejos
der by
183 1
183 4
183 5
183 6038
bar dy
bar ham
bar wick
170 60
170 1163
170 2414
170 705949
lin k
230 49
279 63
279 15
279 60477
Sala do
Sala verry
660 0
192 47
192 14
192 1904
160 4
160 7
160 906
185 3
185 38
at ta
Tor cu
175 26
175 82
ho do
si k
si va
si mler
si sely
rid or
129 1
159 29
159 66
159 84
159 4078
ter cio
ter fly
150 80
150 25
153 256548
189 7
189 8
189 9
189 41
189 268
189 5469
189 2972
263 8
263 9
263 29
263 15
263 72
165 7
165 9
165 808
165 45893
ge e
ge o
ge off
ge bert
239 8325
239 422511
113 1
193 25
193 16
167 3
167 4
167 7
167 10
167 05
167 305
147 6
147 09
147 55863
163 40
163 93
163 36
120 3
120 7
445 6
445 91
bi an
bi dea
bi xby
143 1
143 2
143 6
hi ta
443 30
443 784
he d
he ard
he user
he int
he leen
je a
173 282618
103 16
103 872
103 7540
243 67
243 879
135 2065
135 11276
187 2
187 30
187 7495
des or
des mocadero
685 1
685 2
685 00540
620 0992
620 24276
643 45
To masa
To tozauz
To balina
650 25
459 11
133 65185
vo c
157 26
mu k
mu la
275 21
275 851788
107 45
107 64
107 146
249 0
249 7
249 718
249 87514
293 8090
800 82
255 29
255 09
255 79
255 30
In de
In ara
In stin
In diana
In teMPes
Del ujan
139 6556
875 49
875 1036
453 39
453 50
ha w
ha lla
ha mb
ha nta
ha STioso
ha voc
lia tos
vas h
237 70
670 80698
450 25
450 42
450 207
450 2079
463 6
463 9
463 17
463 77
dor ia
dor adio
200 25
200 65
200 73
499 25
499 4508
499 8411
493 63
493 55
265 4
265 5
265 60
265 86
447 1
447 09
447 88
447 21
447 08
447 83263
447 866844
178 60
879 55
403 20
403 405
403 13039660
457 27
457 6559
457 7351
299 09
po u
po rokhov
699 7442
285 3
285 22
285 12
Pl AnTe
158 87
439 3760
qu E
238 18698
180 1
480 3
480 934
480 9909
485 8
485 90
259 37
639 624
639 22210
495 80
495 69700
430 1340
683 0
683 3
Zar za
pi to
pi st
pi sa
pi tt
pi tal
pi ace
pi lic
pi enso
647 5
679 59
600 7301
Ra f
Ra ja
Ra fi
Ra ven
Ra mat
Ra made
Ra idon
405 42
289 1
289 3
289 4
289 68
108 83
108 28
108 64
144 66
Ju ni
Ju gen
Ju arros
gu o
169 4
169 6
169 7
169 3400
247 5
247 35
483 9
675 83
283 5
688 16
bac sk
138 142
209 42
Av ell
Po ol
Po mares
Po ceros
254 21
254 6820
cha k
680 2
680 7
Ber ru
Ber ina
Ber tin
Ber nat
Ber zoni
665 6
665 62
665 18253
Bo cas
Bo tella
Bo lado
Bo edo
DBB B
673 4713
627 8
627 14
627 751797
min ter
min imi
297 11
697 797
455 10
455 15
455 14
El s
El gue
FFA CE
142 23
DEB D
fa y
fa ng
850 25185
653 68
653 1738
653 17582
106 10
106 49
115 2
CEC D
277 39
277 14
277 330
236 153256548
899 477
899 55326
ND I
chi z
chi apa
132 17
475 62
607 13
607 66
498 291139
498 43855
AFC CB
272 17
272 68
Gir al
Gir onell
258 19
859 62
228 13
Ri b
Ri co
Ri us
Ri vera
698 8553
698 29332
890 19
890 80994
Cor t
Cor al
Cor ona
Cor po
Cor doba
Cor bera
Cor nell
Cor neja
AFD A
AFD F
cu shing
420 5
420 6
102 66
893 09
893 74
Navar es
BAD F
134 274
134 1352065
DAB B
EFD C
gar es
gar et
gar anti
390 271208
677 47
839 25
839 42
484 1594078
484 40313039660
CAD E
CAD F
146 48
CFB C
295 73614
779 0
779 4
779 9
CFD C
693 62
602 2939
Pla ya
Pla dellor
605 33004492
lar sen
878 63
203 2369
FFD D
FFD F
it acion
it URa
it Rows
117 1
223 98
610 39
bu ch
bu co
bu ff
bu tarinski
633 239837
655 1003767
bob bette
mon do
288 13
288 15
288 49
288 286
BDC E
Ga R
Ga lobar
Ga DERo
Ga vilanes
095 60
095 795
095 6736
245 6
245 90
Lu po
Lu zaide
434 22
434 21
215 6
215 80
775 4
775 6
775 8
775 729
638 45
479 34
479 13001
479 17224
492 62681
Or gaz
Or gani
807 23845
186 15
Santa lo
BDB E
Ja R
Ja en
Ci p
Ci vil
Ci uran
Ci beles
fe le
739 2
739 4
739 825
An dorra
CAB C
225 1
225 86
162 68
AAC F
CAA F
qui lo
qui da
205 64
CFC C
657 89
BFB B
BFB C
164 15
BFA A
759 11188
759 27993
280 2
280 307467
ente lles
503 69
503 73
503 8931
BDE A
son e
853 69
853 68
833 1341352065
gro w
lor qu
296 17
505 80
505 62
287 37
226 25
621 45911
210 1
210 81
ves tre
ves ota
454 15076
CAE F
Me la
Me li
Me ji
Me Nte
Me NtE
sch yn
sch lem
sch oll
sch ulz
sch enck
sch roer
sch loboh
284 40
219 31
379 0
379 1
379 9
don g
don ga
ani bar
ani llas
335 20
217 60
217 1179
217 5163155
375 2
375 7
Do R
Do u
Do monte
Do mene
Caste llo
Caste jon
204 6645
So ma
So livella
359 2
359 3
359 6
Pi S
Pi ccech
149 1
149 6
227 70
227 00
227 92
085 19
085 16
085 71
579 1
579 3
579 6
Par ejo
Par ets
mc carron
mc davitt
mc nair
mc gee
cat lin
055 4
055 5
055 7
055 14
Li la
Li sta
Li zo
Li Breta
cho minde
339 5
339 54
su pa
su ardi
753 8329
377 62
web s
van ni
ven ow
000 27
000 4584
244 48
244 13217
Be le
Be len
Be as
Be go
Be lis
Ur ue
Ur di
Ur dia
Ur mente
Ur dani
Ur uburu
Ur baez
206 67
OL ar
395 47
758 4018
599 69
955 9
496 45
444 10
444 21
444 805
035 1
035 4
035 8
035 17
ron da
Camp major
005 886
gra y
gra cia
009 6
009 8
709 2
709 6
709 7
452 14
355 2
355 9
355 440
315 20
ut til
790 44
975 2
975 5
Mi raguar
Mi sael
dro p
735 00117
309 8
Te jer
Te misto
836 69
598 11
327 37
327 82
338 87
Es car
Es taragu
595 69586
villa r
villa fane
villa gomez
467 40
467 6117
370 6
370 2071
Hue te
909 93
Cam el
Cam pas
Can aria
Can dele
333 25
333 6115
793 23
817 43896
ces o
334 23
419 55080
580 1
715 99
Ce A
Ce jas
Ce laya
756 294488
059 7
059 17539
Fer ri
Her rero
gen s
508 40
508 67
508 2500
ami casmi
tz in
527 33
527 212939
540 75
540 428049
Ta lo
Ta llado
Ta tiano
cos l
tal bot
Ne il
Ne ris
Ne gre
Ne bot
Ne vn
Ne hem
727 91
930 6
930 8
930 29703
930 46182
004 23300
070 6
Cant allo
Cant abrico
787 31
787 1877495
815 50289
Lo res
Lo zo
Lo bios
Lo iu
Lo urdes
her rero
wa her
wa terfly
422 25
422 23
No vas
No vella
Torre lla
Torre jon
Torre herm
417 49
san ford
san martin
Vila maj
Vila seca
344 69
344 19
623 49
427 643660
427 73884
539 2
003 4994508
269 01
310 13
319 14466
663 65789
827 09891
Ve gan
mad dox
illo tt
517 55
989 594072
010 39
166 1352
166 639624
489 50
ER VAnT
bel lo
bel da
bel le
dy fitness
039 6
039 95650
033 45
389 23750
449 45
Ant on
Ant ares
Fran cino
br ina
jar rel
jar ett
tre acher
535 4
535 32197
669 49262681
Mu ro
Mu nuera
067 35478
538 6
Go ya
Go mes
Go ico
027 1947
320 1
320 80082
324 68259
880 03603
860 8089
970 2
970 4
950 2
905 72791
957 2
Da to
Da linda
Da not
Da ym
Da waher
Tra buco
bur ch
bur ns
bur ston
bur gh
hu mbert
lon ga
468 27
468 44
Esp iel
Esp ejel
Castell vell
Castell tort
322 45892
577 28968
557 87524
064 25800
570 24590
500 88
Jo han
374 68
411 11
618 2221
780 8544
Gui liano
dri ck
ubi llas
218 40
218 88
510 189268
811 63
Jose lina
cf g
pr ima
2500 1
361 10
388 41
388 21081
959 1
dan n
dan ca
507 275851788
348 107146
bro ugh
bro kaw
829 25
sy s
sy deman
sy stems
ling otes
544 63
tri plec
acion al
214 68
883 63371
900 2
my r
my album
262 10
300 2
300 6595
Ale AR
Ale gria
Fon te
Fon ts
Fon tella
Gi braltar
Gi sella
Gi sper
fran ci
ix a
ug el
ug gs
aju ste
049 32437
Mas cort
cl Ero
usu f
022 47
628 44627
345 44783263
773 00
Ab t
Ab ia
Ab ell
Fa ja
Fa Vo
jan ey
jan aplastica
jan enko
pre ston
pre bost
Er ror
Er TI
Er rigoiti
Er rante
tti r
can es
can dro
Pin tado
af ons
gas world
pin toja
zan da
514 4167
981 22450
Ser ver
Ser gio
ed wige
ima lesdom
512 4736
Bu jer
gan dett
081 83
dar do
dar rubias
mor rear
mil los
987 63423
987 15726
Ros io
esp oso
074 85924
042 2398
har te
od re
014 85962
011 20
211 10
716 25075
922 839
973 67
Si stiana
Si cilia
ano op
ano fele
062 60533004492
314 80
864 64472
Cer dan
ts agan
win ne
win nie
cher c
amon de
082 63
082 408769
412 40
He lidora
He belen
kar is
kar ena
tur bes
vio la
lie ri
nto va
461 14
vel le
931 19033
Monte on
Monte jo
Monte fr
Monte mayor
Monte sclaros
418 84
sal ve
Bor i
Bor bon
Bas as
Bas iano
Bas iana
Bas tus
Gen ara
Gen ove
Oli ve
gal li
gal lo
oli v
oli vie
ric ke
Cu ar
Cu ni
Cu cur
Gra vina
Gra jera
soy cata
Franci s
Bal tan
Vir gilia
pu z
char la
char les
char lot
Maria no
Maria ngel
Fi lem
Ho ms
Mur illo
Mur iscot
bon ny
bon nier
gg y
we e
we in
we ather
gre er
ph illott
pp le
wen dy
Cala mar
Ni seas
382 27979
amar ta
gon del
gon ard
sto uder
086 12
Esc u
Llo ra
Llo reda
Per la
cur ro
mos tel
cios deasp
Pra ts
Pra dera
ben ch
ben adressa
cla ver
far ber
far gue
ku ntova
Agu stina
Agu delo
Puig fred
Puig veh
Puig terra
Puig mitj
Puig verd
mag net
ze wska
ze igler
oni z
blo om
Doctor a
Bi en
Bi dego
Bi ridiana
Est ru
Gal dos
On ceno
Za larich
vent r
Antonio li
Ad onay
Ama t
Ama da
Ama lia
Cla ver
Cla vero
Cap ela
Cap afons
Web AS
Mont amarta
hen ka
hol len
hol brook
hol zschu
eck hardt
Santi drian
sha le
Men di
Men doza
Pu ja
Pu jal
Pu lido
Pu cherc
bri tt
cer amicasmi
wil cox
wil dhagen
Hu illi
Mal lorqu
tv up
nge la
sho web
sho ou
Ru th
ther ina
auto construccion
Este fan
Este rric
ala da
ala ri
cen cia
whi tting
Ala va
mun doradio
sof aer
may i
mul li
mul lini
imi liano
rey es
ull um
Ponte jos
Bra up
Bra iam
Bra thwaite
Far rera
Far races
Lar enas
Lar rumbe
eu strel
Cami lo
she in
Am ru
Am paro
Am urrio
Am usquivar
Ben igno
Ben como
Blan cas
Sil veria
dr appel
col ch
col ligan
Alb ag
Alb or
For taleza
Ger vas
Ger aldo
bus ytime
bus quedade
bus uttil
Cast orio
Au p
Au de
Au lesti
Ara mb
yan k
Casa nova
red Pro
vic ini
EN to
Eli do
Je ria
Je rem
hal sy
jon es
Mora lina
May id
Castro calb
Casas imarro
die u
guer cio
laz zaro
Arag ay
sn uggs
Ex equiel
Gor riz
kim berly
uni cidad
eno bia
rat cliff
Quin tal
Quin tero
Dan ia
Dan nae
Ig les
Mag no
Plan char
ali x
cz y
lec er
lec lerc
sas try
sas henka
sol UBLe
Ali aga
Bell ver
Fuen tidue
mcc oll
cam iones
the me
chu ng
mac mulli
bay lor
cA PRI
cro w
cro zier
cro lling
pos TI
vu osal
nor ds
mat su
Ay j
Ay estar
Ay lagas
Ay merich
Ll unell
Nar an
Nar ciso
ant on
nal mentE
Cata lina
8765 397
Martin ho
club degolf
Aran dilla
Jor di
Vie jo
eh lers
kr zy
mus ic
wel ham
rick rd
dun lap
App lication
Fig ueras
Flor encia
Flor encio
Serra cana
bn recad
fra il
cad tools
chin da
bol sala
As mad
Fre ser
Pr IMo
Zu mar
Zu mala
mir ante
ash vili
mis T
hoja decal
Az agra
Az pilic
Cru illes
Gas con
cano vash
Marti herrero
white head
Cur t
Cur rius
Ram s
cle ve
dur s
fle ugel
nes to
sla by
4059 62
Valder re
Espa sa
show cfg
Ces uras
Ces arian
hue ga
hel ma
pra ther
6905 1312
6220 123979
bala k
Palo mera
Palo mares
Mata mala
Sen darrubias
Ya el
cra cia
cra mirez
sm sgay
star kes
ys ia
Manzan era
Manzan illo
Ac RI
Forn ieles
Forn alut
Gin eb
Gin ette
Hi storia
Oro tava
bio gasworld
pres ter
lag t
ciru janaplastica
2545 4571
4743 37104
9365 8215
ados yec
fica ci
viajes daca
way towi
Eche copar
Gab as
Gab iria
Hon oria
Medi o
Rec toria
Rec uenco
Sel man
Vin ka
Vin uesa
4027 7538329
rigo la
rigo yen
6567 851
6729 3578
8781 236153256548
1865 18
aula kh
Alc ina
Vilar rubia
bour ne
exp ofloralzaragoza
Riu tort
Tre vi
ef fer
cala horra
Com pany
Cha yle
reg nier
1009 81550289
ram zi
6117 0907
7269 68500540
Aren zana
bios alud
risto pher
Ban dera
Mel qu
Os ma
RI ST
Vent urada
8013 5662
8059 20564
novi koff
2781 6095
1730 1472
1285 2429
4825 8022
Naval ongui
Ace bedo
Iz ur
Min eros
Min erva
Mun daca
Pine la
Sau leda
bran dauer
scha ch
scha ffel
ski pp
enie ro
rei ser
2770 8977
2735 451
1031 48600
8597 8887
1955 2581
6095 6471
1229 89955326
6280 4007
7263 73
som ino
Sebas tia
Ped rera
Ped rosa
Infan zones
Cen dejas
Cara ssa
Fu ster
Ha cho
Jes umina
Tu danca
Terra nova
iana to
8048 4576559
roo y
2339 556
6510 2779
8773 28
1219 58859
6440 167305
stri pes
9263 58642
Mala ver
Bern d
hann on
hann ula
Frances c
Bro y
Bri huega
Des plans
Des CERra
Mit re
Nue ve
Un da
aR r
bh as
cri gger
osca seros
lal de
palo ma
estar cido
1096 6395
6789 85239
4947 31
3319 8749
7573 0563
7573 62024276
6645 136
2629 11
1687 63922210
4640 5415
stor m
5183 7687
Paz os
Barber an
vea zie
Guar diol
Nazar et
Monti lla
Monti jo
hay man
Fo ix
Ing eniero
Jun co
Jun qu
Rai ch
Van ina
Vid rie
fin negan
king ston
cata noti
6733 2763
7083 48222
7918 6246
3610 1272
0110 127
0110 99422
Almen dro
Saba ter
Saba thiel
quie ro
Riba desella
Galin duste
Luci ana
Feix a
presti pi
Merca li
Buena ventura
Fun NGames
Ge rardo
Pera lejos
Vil ca
Xo an
cun vala
von der
desp oto
alqui tr
4739 036015
8799 78731
6017 466536
1248 447866844
6863 46
1169 6227
3029 14755863
4461 899477
2643 1261
4129 1101641
0389 138142
9223 0868
Canal s
Escritor a
8459 8781
Aca cio
Aca cias
Edi lio
Estra dera
Fol ch
Hos sana
Hos pital
Ivan na
Ivan ka
Ofi ciales
Pie dra
Tri ll
Tran s
alo ise
alo ysh
bag ashvili
bry n
fro ud
jun kie
kan Tia
sche l
vor inger
8085 6285
8095 25
leon erd
mata che
mata lah
mata roweb
pel li
1507 4727
6919 8356
4383 312709
4705 1425
6067 990
8300 45
2223 9849
6825 962574
3683 21
box leit
Esco cia
Esco bar
Garri gues
Olivar i
Peral ta
Peral onso
Abe rardo
Plu MAR
Plu mbago
Sof ia
Up date
Yas m
wag en
wag enh
tex til
8039 14
invent oscaseros
Cama cho
Cama ces
2584 6203
4067 67
2710 524959
2300 168
1937 20942
8397 43016
6410 5812
6416 830045
5977 63685
2485 6792
3009 7796
9619 0989
new cosl
Arquitec tura
pola ni
pola ck
pola kov
Ray za
Gala tas
super links
Campa ner
danie lson
Larra koet
clubde campo
Cig u
Cig uela
Edel vais
Ka ya
Ka therina
Kar em
Ola lla
Ola vide
Pesca dores
Ran dolfo
Sha rom
ange line
cul berso
lE S
rI GaDERo
8021 6747
8021 6825962574
dau gavie
Coma soli
Coll bat
6347 14
6785 4500
8755 2046645
8772 1362
2034 29012
asi ria
2880 55787524
DEs FaVo
7815 1636
4289 833
sou les
creacion webs
Arti sta
mori coni
4253 25334
9279 5576
Bul lones
Cel oni
Esta des
Hel vecia
Pru neda
avi so
clar ence
emp leo
hau ser
hau mann
chri sson
comer ciosdeasp
Cora zon
redon do
spro tte
dida cramirez
dom me
6944 1548
2868 1618
7381 877328
7996 8951
5788 4577351
9355 5373
Pascu a
Alci des
Roble dillo
Roman os
brook sba
Calaf at
mueve tuweb
Bartolome a
intercambio enlaces
5250 839743016
9690 65102779
Ange lo
Cie lo
Fad rique
Han dal
Jara ba
Pos ligua
Ses garri
Sera fin
UE Z
ata laya
dini z
hab itacion
kle venow
rca mo
spain phar
lib codebr
chai supa
chat chai
deseo un
mai jala
Entra mbas
Molina seca
1584 27521
todo betis
Rebo llar
1120 494731
2444 249718
5070 50127
6623 7162
2640 6567851
9045 6703
3118 2783
talo v
Salo u
Rox ette
Bay ona
pota ire
schn aps
manuel paloma
0286 4580
Abi zanda
Buen os
Cir cunvala
Fal conera
Gorg onio
Hol guera
Jar que
Lim itRows
Pir la
Pir ro
event s
psy chominde
cath al
indi v
Cabre ra
Colon ia
2757 283
2319 23763
8778 4817
8996 473
3980 165808
7021 2042
medi ci
2463 086794
5083 6988553
0445 2062
Queral bs
Alman zora
miz ell
Max imiliano
Lebri ja
Lebri llo
Infa ntas
Lih uen
Lih uel
Rosse llo
green lees
clay ton
Nogue ira
3550 7034
4279 8379
5109 8953
5873 2745
7124 6547
7405 6042
8239 87860
8837 4981
Blo tta
Bras il
Cle mente
Gel somino
Ira ntzu
Igu alada
Jau regui
Rida ura
Rami ro
St umptner
Sus anibar
Sig rid
Tru jillo
Tara zona
cOR nI
dim it
hof stett
rto la
Cani zales
65185 439
4329 593989
0953 1645
5570 2502
5050 1754
8467 405962
0317 96135
maria ele
tak agi
Alfor ja
gama leld
gant t
Vale ria
Monasterio aren
vasi lescu
guejos gratis
empe rio
brown lee
Simple Servlet
dES PluMAR
Brun ilda
flex insp
5175 6068
7684 4031
9133 4515
Aure lio
Dal miro
Dul cinea
Dani lo
Ei tel
Ele cciones
FAg oitz
Mus ico
Mut xamel
Open Server
Sto redPro
Tir apu
Wil fredo
Yami la
acar rear
bI Co
gad sdon
rti llero
schi kov
zam ora
coN Mut
dem janenko
sepul tura
Constan te
maxi tienda
maxi wagen
Moran te
Moran de
Char bonnier
2594 28277
tho mas
1925 27960477
4519 2735451
amel lera
nano gener
Barran co
March al
Rodo piano
Gusta vo
lud lam
15863 1771
Corte gada
juni or
ARg OLar
Pizar ro
Pizar ra
hung kang
Valderro bres
Valderro drigo
Melgar ejo
sincla ir
5899 0935
8179 1661
Ani ceto
Asti llero
MEn tE
Nv E
Nim si
Pier nas
Sch ulz
Xi vert
Zul ma
bU Qu
cim ino
hora k
ice coffee
pug he
rp dko
rho des
tiS crolling
chis morrear
depa nico
Cane la
mbur g
tou liatos
1960 2300168
4507 218709
Rega lado
33685 330
5074 100981550289
8689 5038931
Deli cias
Alca ide
Arge lagt
milla ire
Sep timo
2430 103872
mucha cha
juli enne
grafi cascamp
Figue res
Floren tin
Petr ona
0200 7726
6100 7775
6879 168763922210
78789 686
8173 2444249718
9377 20127
Ah mid
Aida no
Ayu so
Apar tados
Bui trago
Dion isio
Fau stino
FVal carlos
Pul p
Prie to
Sis cart
Tub uL
ambros io
cAr nalmentE
eto h
gEn itURa
gam ble
kro gh
colo ads
imon do
Casp io
Lauren tino
Molin er
23679 741
15275 1946
39243 664
75265 367
75775 962
55739 537
62159 61
5349 288055787524
7647 47917224
0820 4841594078
32857 731
Alga defe
john son
Carriz al
abda llah
Rodi po
Legui zam
48529 103148600
Poya les
Berrue zo
686230 33687
70541 156
Casse lin
Particu lares
Nore lia
Balles t
Galle gos
Palafo lls
autoescuela villa
Formen tera
macne e
Vendrell s
Noguero l
Echever r
Median ero
Higin ia
indian abill
tabernarincon ete
necesito curro
3458 63103
5688 192527960477
7197 4383312709
Amel ler
Ayen sa
Areg all
Bida soa
Gig lio
Hua sequi
Lest any
Mim endi
Nol saco
Ore jas
Pub ill
Syl vina
Tira do
Wie deman
cran e
fO bia
khor ami
most on
sino ple
tRaS PlAnTe
vadi s
vac ey
chim ento
seg undar
Coo monte
inge berg
conven tion
Agra munt
ordo ma
dolores musculares
leno ir
aldu fa
47093 87607
49679 6022939
39148 879
336735 10667
18187 53
18119 1037540
68675 744
75731 17060
78278 6511
41272 1708
42473 286
25689 4307
01105 274
52870 78269
98695 672
book marks
Ardan uy
61317 153
vela consul
Carran za
abog adosyec
Romil do
hou ston
263770 6220123979
18720 571
Invier no
pilar se
Boro bia
Corne tero
60300 66949262681
Orenda y
Cira co
39974 610
Campe llo
Cany elles
Tah iel
04393 26406567851
915609 4393760
madhu kar
Fonde vil
Calv aroso
salu dyfitness
hollings worth
Olme do
stern berg
Aranz adi
REc Er
678316 221
Holz mann
Ugarte chea
Ape les
Acu cio
Aug usto
Adal gisa
Adol fina
Bue so
Briz uela
Clida nor
Dada h
Dres de
Eng ARgOLar
Eva nge
Eck hardt
Elis andro
Frey dig
Furn ari
Gong ora
Hira m
Hemil ce
Ital lia
IBM WebAS
Jof re
Jhes ua
Ly nge
Mul tiScrolling
Mamp odre
Mine ria
Mamer ta
NCi AR
Nari ana
NcO Ja
Ome ga
Pris ciano
Rincon ada
Sci fo
Sir uela
Sida ny
SUr Ca
Secre tario
Stri ck
Shir ley
Spell mann
Snoop Servlet
Trag acete
TRE Ll
Taula ts
Tons mann
Troya no
Viel mas
Zano bia
ava te
bion te
crick ard
cbger indote
euy soo
eamon n
fami liamar
famil y
ghost ley
heng evel
hsa io
hand ling
hrm sl
izi que
juer gens
jyo ti
magar ill
nhol m
oder mar
pong nati
rrie z
slino wsk
sampa io
switz er
vrdol tak
yaros h
yig al
teku rarere
encal lecer
enmallo rca
libro deap
institu toandaluz
inmobiliaria hangar
aguis car
tionpro ject
chueca family
color print
rour ke
arvi gar
armst ron
Came lia
Cadier no
Enra NCiAR
comode pilarse
Cova donga
Coman dante
Cogol los
conmus ica
Chilli da
reman oso
reves ada
restitu torio
redeli very
distri toeste
gislado ttir
dolitz kaya
40660 740
404145 46
riose llano
27857 756
mombo urq
mobil ecrm
carme lin
carmen sanmartin
carring t
cartasde ajuste
thal bach
alyos ha
alARg UEZ
rosamon d
anima tionproject
171701 87
232015 1892972
233305 2430103872
631713 54
85439 41291101641
851013 3826812
15304 8751036
69330 33673510667
436099 31
436789 346
67279 57884577351
674743 61
19404 697797
87239 708348222
877665 2546820
45777 14
asana chinda
astur ies
89602 80484576559
2213817 5082500
Rember ta
Regen c
idual mente
33293 484
335812 23
48800 601
484755 70
181713 4739036015
75215 56295534
281863 97
2811052 158631771
61186 493
70175 86895038931
70108 873
646982 855
73611 157
792889 23
591886 27
008849 2463086794
24260 7412215
248942 48
304307 4301340
307110 6416830045
66637 11
37156 228
378719 26
44204 69351
44636 251
35409 45192735451
35453 403
35647 19602300168
886220 8467405962
jaxia abogadosyec
jakab ffy
77123 79186246
77758 87552046645
38679 0956736
268530 11
051714 4420469351
ammel rooy
84475 356
84634 236
90702 877
95490 239422511
Cresc encio
Crehue t
784333 82
414073 41
72459 390271208
72405 23818698
811463 005886
811079 1105529
82894 121958859
822905 4610
716280 74
716840 8229054610
868071 65
864008 6440167305
martosfut bolsala
salad na
sahuma dor
36644 4998411
361567 146
082515 0389138142
9469363 805920564
52198 259428277
92805 22239849
92476 4976
024010 08
somos agelespa
sovago vic
982424 1120494731
04800 40277538329
048319 32
044725 01
firstcho icecoffee
Dederi ka
Deoda to
Riomor os
zafran et
onomis tas
Saig uen
Sayalon ga
Sadda m
Vivan co
bodas conmusica
perry man
permanente me
gabri la
gafas desol
Archi baldo
Artal do
Argama silla
Sandr ini
1235868 646982855
misan imalesdom
jocel yn
Palom ino
Barbas tro
Marcap ura
6136393 7584018
Carcano ux
CarMin AR
Carrab ba
Cartag ena
2906865 498291139
Maho ma
Mahon ri
aborrec imiento
235655 395
Robre gordo
Rotlla nt
Guama ngallo
Navez uelas
Leop ol
Balan drau
varhel yi
excu SAdor
exud ar
expert magnet
Valfar ta
Valdun quillo
Monist ca
2571648 203429012
derby shi
1701163 791515432
1702414 193720942
170705949 6067990
tercio pelado
1895469 011099422
16545893 75265367
heint je
173282618 2398325
243879 50
13511276 49843855
6200992 678316221
13365185 49569700
Instin ci
InteMPes TI
hanta k
67080698 43609931
450207 73
4502079 50
porokhov schikov
480934 6017466536
4809909 158427521
piace redelivery
Ramade ria
1693400 782786511
bacsk al
Bertin elli
6734713 412721708
627751797 6007301
minimi zar
Elgue zabal
6531738 879978731
277330 46
89080994 24894248
134274 894
48440313039660 42
Pladellor ens
633239837 2339556
6551003767 368321
288286 68
Galobar d
095795 7573117060
775729 20
Organi sta
Ciuran s
739825 96
280307467 1836038
8331341352065 092
Meji as
schyn del
schlem me
scholl wer
2171179 152751946
2175163155 221209
suardi stec
Urdani z
355440 7381877328
Miraguar da
Tejer iego
Temisto cles
4676117 3336115
3702071 436789346
Candele ria
756294488 8996473
527212939 2938090
540428049 1396556
Nevn ka
Cantallo ps
7871877495 462595
waterfly esp
Torreherm osa
427643660 0422398
0034994508 490764
Vegan zones
989594072 1818753
1661352 474337104
166639624 6645136
38923750 17170187
06735478 24413217
Gomes ende
Goico echea
0271947 450207950
32468259 84475356
8608089 924764976
6182221 235655395
510189268 6215961
prima te
507275851788 1652
348107146 2529390
triplec textil
3006595 361567146
Gisper t
clEro fObia
62844627 39974610
34544783263 70479
prebost al
5144167 134274894
98122450 40414546
5124736 256894307
06260533004492 17
tsagan eas
082408769 8765397
Cucur ull
soycata lan
Bidego ian
holzschu h
Huilli Manque
shoou yu
mundoradio control
mullini x
busquedade empleo
mccoll um
cAPRI FOli
posTI fijO
vuosal mi
krzy zewska
PrIMo gEnitURa
hojadecal culo
Azpilic ueta
AcRI BaDora
Fornalut x
Historia dor
viajesdaca palla
waytowi c
726968500540 6130
biosalud systems
Navalongui lla
122989955326 8508
926358642 6997442
DesCERra JaR
678985239 2757283
757362024276 1583
51837687 75927993
catanoti cias
despoto vich
1248447866844 219
302914755863 8309
4461899477 803914
aloysh ina
kanTia Na
boxleit ner
wagenh iem
2710524959 634714
597763685 7808544
Larrakoet xea
80216825962574 23
DEsFaVo REcEr
425325334 1921904
comerciosdeasp e
79968951 10966395
5250839743016 206
969065102779 8587
Sesgarri gues
habitacion depanico
spainphar ma
libcodebr ws
Entrambas aguas
507050127 6663711
66237162 27816095
Circunvala cion
psychominde rs
231923763 4289833
3980165808 897120
50836988553 21760
823987860 0110127
Irantzu ko
cORnI veleTa
4329593989 444805
031796135 0004584
flexinsp ect
StoredPro cedures
nanogener ador
rpdko rea
4507218709 160906
81732444249718 18
937720127 2032369
764747917224 6248
08204841594078 17
48529103148600 20
68623033687 97459
indianabill jaen
345863103 4577714
71974383312709 25
4709387607 686346
496796022939 1818
181191037540 8789
5287078269 282074
velaconsul tores
9156094393760 997
familiamar ino
librodeap untes
institutoandaluz delmar
2320151892972 616
8510133826812 144
153048751036 2018
19404697797 87284
87239708348222 68
8776652546820 108
22138175082500 82
7521556295534 229
242607412215 0919
3043074301340 407
jaxiaabogadosyec onomistas
7712379186246 495
386790956736 8782
95490239422511 89
72459390271208 85
7240523818698 482
811463005886 4967
8110791105529 474
82894121958859 89
366444998411 2984
52198259428277 29
9280522239849 881
misanimalesdom esticos
61363937584018 12
46761173336115 45
. &
. .
0 250
0 2565
0 234
0 876
0 257
0 170
0 230
0 153
0 179
0 124
0 275
0 493
0 178
0 299
0 699
0 614
0 238
0 679
0 108
0 128
0 298
0 899
0 859
0 603
0 176
0 437
0 478
0 278
0 224
0 146
0 295
0 605
0 655
0 694
0 434
0 874
0 684
0 111
0 116
0 208
0 231
0 503
0 834
0 621
0 894
0 705
0 335
0 204
0 550
0 476
0 337
0 601
0 758
0 496
0 444
0 451
0 806
0 432
0 708
0 882
0 338
0 595
0 305
0 472
0 756
0 778
0 246
0 508
0 202
0 831
0 242
0 201
0 303
0 742
1 270
1 250
1 170
1 192
1 173
1 459
1 197
1 178
1 188
1 614
1 490
1 177
1 154
1 198
1 194
1 258
1 196
1 682
2 2565
2 230
2 8789
2 199
2 173
2 133
2 124
2 255
2 139
2 178
2 299
2 188
2 126
2 138
2 873
2 695
2 198
2 106
2 488
2 607
2 137
2 809
2 603
2 136
2 604
2 621
2 181
2 626
2 401
2 666
3 100
3 2563
3 234
3 230
3 150
3 105
3 409
3 870
3 200
3 457
3 259
3 233
3 430
3 600
3 108
3 198
3 809
3 830
3 258
3 698
3 176
3 686
3 102
3 292
3 435
3 693
3 633
3 093
3 624
3 678
3 479
3 492
3 637
3 111
3 156
3 208
3 486
3 858
3 834
3 284
3 634
3 671
3 491
3 000
3 436
3 744
3 444
3 652
3 005
3 632
3 452
3 656
3 651
3 738
3 246
3 202
3 734
3 731
3 832
4 256
4 100
4 252
4 271
4 239
4 470
4 275
4 800
4 195
4 237
4 400
4 403
4 405
4 688
4 298
4 272
4 137
4 895
4 404
4 274
4 288
4 182
4 156
4 232
4 226
4 291
4 281
4 626
4 406
4 642
4 611
4 601
4 652
4 641
4 606
5 256
5 090
5 235
5 730
5 221
5 257
5 190
5 279
5 179
5 135
5 409
5 157
5 124
5 107
5 293
5 195
5 200
5 499
5 493
5 879
5 403
5 238
5 609
5 142
5 106
5 236
5 132
5 272
5 830
5 859
5 686
5 134
5 292
5 458
5 224
5 897
5 294
5 605
5 276
5 655
5 093
5 638
5 604
5 184
5 700
5 608
5 838
5 474
5 208
5 858
5 804
5 621
5 894
5 282
5 456
5 891
5 094
5 476
5 696
5 898
5 636
5 171
5 496
5 735
5 882
5 007
5 305
5 333
5 334
5 393
5 307
5 358
5 471
5 772
5 746
5 757
5 742
6 257
6 153
6 103
6 450
6 259
6 495
6 177
6 688
6 128
6 154
6 198
6 673
6 298
6 497
6 698
6 102
6 644
6 633
6 694
6 874
6 486
6 231
6 296
6 646
6 642
6 171
6 452
6 481
6 872
7 253
7 252
7 199
7 103
7 800
7 174
7 875
7 109
7 679
7 177
7 128
7 695
7 236
7 899
7 132
7 498
7 630
7 228
7 603
7 477
7 686
7 102
7 292
7 278
7 659
7 146
7 602
7 121
7 294
7 196
7 434
7 186
7 156
7 657
7 608
7 231
7 804
7 621
7 454
7 284
7 401
7 330
7 282
7 476
7 337
7 244
7 707
7 636
7 601
7 171
7 632
7 402
7 432
7 251
7 472
7 737
7 738
7 216
7 242
7 881
7 331
7 201
8 104
8 221
8 257
8 279
8 199
8 135
8 105
8 107
8 473
8 139
8 450
8 200
8 499
8 158
8 639
8 177
8 254
8 695
8 198
8 899
8 272
8 855
8 857
8 677
8 136
8 458
8 224
8 295
8 644
8 196
8 407
8 276
8 492
8 186
8 182
8 152
8 116
8 231
8 681
8 226
8 894
8 634
8 642
8 101
8 476
8 611
8 171
8 652
8 806
8 836
8 202
8 802
8 471
8 801
9 253
9 2569
9 234
9 130
9 193
9 470
9 459
9 473
9 875
9 200
9 439
9 144
9 675
9 138
9 128
9 258
9 698
9 176
9 835
9 857
9 478
9 458
9 224
9 878
9 674
9 638
9 479
9 182
9 672
9 438
9 608
9 838
9 116
9 231
9 896
9 284
9 131
9 692
9 482
9 666
9 204
9 658
9 642
9 206
9 676
9 496
9 444
9 632
9 451
9 806
9 402
9 808
9 606
9 338
9 651
9 216
9 886
9 202
9 004
9 358
9 242
9 731
9 832
9 881
9 331
9 431
9 441
9 376
9 342
A N
A f
A cc
A ie
A ngu
A ros
A ss
A Rio
A rico
A ne
A mi
A sc
A ina
A Le
A ju
A cho
A tan
A lis
A ira
A ill
A lom
A tea
A more
A imar
A tez
A hig
A tencia
A lins
B L
B c
B n
B t
B ec
B of
B ia
B ona
B EDD
B DDA
B AEF
B one
B aum
B ladimiro
B unyola
C g
C to
C apel
C ta
C is
C lu
C ript
C fi
C lin
C ura
C ron
C On
D en
D ent
D ona
D ario
D aun
D inar
D onay
E b
E z
E ngu
E ros
E ber
E ve
E be
E var
E der
E cio
E AAF
E AAA
E Pu
E Gr
E dur
E rasio
E tayo
F p
F ie
F rag
F ci
F ur
F il
F ion
F ul
F um
F ona
F ai
F Ma
F ana
F eb
F ha
F it
F jar
F ierra
F ky
F uli
F aix
F Lon
G ros
G ina
G uel
G ena
G ene
G ine
G Lo
G imi
G rey
G ull
G audi
G ENe
H as
H il
H ac
H ero
H ines
H ita
H idalgo
H arissa
I C
I e
I q
I se
I le
I pa
I En
I lla
I ara
I Ta
I ris
I ola
I CI
I dO
I tiS
I enna
I EPu
J ap
J ub
J il
J ab
J eni
J airo
K im
K inde
K uk
K usa
K ov
K uch
K iara
L ue
L La
L er
L id
L of
L et
L ler
L ui
L ig
L lin
L ago
L illo
L ER
L Fi
L esa
L apo
M ux
M ac
M ia
M uel
M paros
M all
M ecer
N ch
N ec
N ci
N ir
N ab
N eb
N uez
N apo
N adia
N ery
N esser
N acional
O ma
O lla
O dad
O DA
O ta
O sc
O ms
O jan
O vio
O Mer
O cente
O rella
O gaz
O bis
O delia
O lula
O dulio
P lo
P io
P il
P ino
P ina
P ani
P eni
P uru
P uras
P elle
P ridi
P anama
Q uis
R g
R ti
R ap
R La
R ET
R of
R ol
R Na
R Am
R iego
R enzo
R rE
R adio
R Tal
R ACi
R unke
S c
S la
S len
S id
S agar
S mar
S og
S auz
S un
S ara
S hi
S ari
S art
S ure
S Is
S adia
S ierro
S Up
S cola
S klar
T h
T x
T os
T en
T io
T rid
T ras
T ic
T Ab
T Is
T aul
T uli
T una
T urt
T ecla
U M
U Ali
U rosa
U nz
U bieta
U rigoiti
U leila
V O
V ai
V eni
V ErTI
W or
W ilda
W ester
X and
X arlen
Y v
Y lla
Y ad
Y ai
Y ose
Y oh
Y uray
Z A
Z b
Z al
Z ula
Z nar
Z enobia
_ &
a C
a S
a T
a ro
a ke
a que
a ble
a il
a ja
a za
a lia
a zo
a yo
a Ga
a hor
a fran
a llar
a ngel
a tiva
a vero
a uria
a Us
a tiaherminia
a lland
a oki
b x
b ec
b id
b wd
b man
b lin
b ls
b ene
b ruz
b ling
b ill
b bon
b aus
b young
c ost
c cal
c ser
c que
c di
c si
c era
c uri
c ABA
c On
c rich
c bell
c ece
c lug
c ullum
d ok
d sp
d ros
d ha
d ner
d ares
d oso
d kin
d sn
d Cli
e pa
e los
e Sa
e ber
e is
e Ra
e ju
e don
e irena
f I
f p
f s
f ac
f res
f ria
f si
f ell
f lor
f ry
f rio
f ines
f lores
f tino
f uru
f ierro
f lip
f fano
g U
g ona
g ai
g ena
g ami
g wal
g wo
g lea
g aun
g acena
g UE
g eces
g nae
h ler
h osa
h ill
h ello
h sin
h ash
h ube
h nat
h ager
i E
i pe
i les
i ste
i der
i cha
i van
i No
i ff
i cion
i dea
i uk
i wil
i teo
i bl
i hnat
j A
j arse
j ub
j ur
j st
j Ar
j ess
j yi
j uez
j davie
k ok
k pla
k au
k ac
k ia
k ru
k ura
k ari
k ner
k wa
k han
k nau
k wei
k row
l I
l T
l ma
l ke
l ker
l Ta
l On
m ble
m ion
m me
m ino
m ura
m AR
m oso
m uelas
m tat
m cil
m see
n co
n no
n ke
n tp
n ub
n adi
n am
n ina
n uri
n Te
n cara
n chai
o j
o ht
o lla
o car
o log
o id
o tos
o za
o Pe
o at
o las
o ji
o may
o pedro
o ct
p ag
p ok
p id
p ir
p Ro
p he
p ras
p ard
p ut
p iel
p dal
p ray
p eno
p bay
p cv
p api
p ons
p risto
p ardos
q per
r l
r co
r ene
r ini
r Es
r bel
r rez
r chu
r bara
r ceo
r AdOr
r retar
s ap
s html
s ni
s au
s ce
s ina
s ago
s An
s ua
s ly
s ER
s aul
s sel
s wick
s inger
s cien
s pace
s ummer
s undar
t xt
t se
t ja
t so
t any
t uel
t ter
t Or
t son
t cher
t amar
t rosa
t Os
t amer
t UAli
u ti
u go
u des
u las
u ck
u zo
u ley
u tic
u jano
u cela
v m
v ros
v edi
v all
v yn
v oni
v oka
w li
w ent
w inde
w ier
w yn
w acker
w anama
x is
x imo
y or
y to
y un
y uela
y ton
y mas
y lis
y itan
y cki
y thia
z O
z l
z ba
z Na
z url
z ure
z orno
z umel
z Aci
Ġ 13
Ġ 35
Ġ 31
Ġ 92
Ġ 140
Ġ 150
Ġ 120
Ġ 187
Ġ 124
Ġ 139
Ġ 108
Ġ 138
Ġ 142
Ġ 106
Ġ 137
Ġ 134
Ġ 224
Ġ 602
Ġ 122
Ġ 152
Ġ 296
Ġ 149
Ġ 151
Ġ 317
Ġ 315
Ġ 305
Ġ 324
Ġ 340
Ġ 352
on en
on er
on fre
on ario
ca b
ca k
ca ser
ca ss
ca ve
ca bi
ca rey
te d
te da
te men
te na
te man
te bin
te gas
te fane
te guy
ti os
ti lo
ti le
ti ce
ti jo
ti ste
ti san
ti llero
ti ril
ti mio
os ito
os chamizo
la N
la ing
la tienda
la ri
la for
la hi
la ck
la yu
la tal
la bra
la ney
la hos
la ila
la tino
la nga
80 40
80 68
80 24
80 05
80 84
80 78
80 76
80 58
80 54
80 139
80 495
80 430
80 602
80 624
80 474
80 666
80 393
80 778
80 3350
cc o
en r
en ar
en del
en ver
en era
en dez
en cer
en cam
en hard
en ning
en TO
en cara
en march
en TAn
li en
li de
li th
li sta
li tes
li ty
pt o
pt om
in io
in du
in ce
in fa
in ves
in su
in tele
in quet
ag ro
ag no
ag ron
ag ula
ag aste
ch t
ch ue
ch ok
ch am
ch ada
ch and
ch mann
ch nie
ch ong
ch yi
ch apoli
ch novsky
ch urch
ht ar
zi oz
xt a
co u
co ll
co yo
co mad
co lod
co ches
co urt
co rac
co ffer
co wley
co ogan
co ivo
ro b
ro ca
ro te
ro ar
ro th
ro to
ro za
ro bo
ro Na
ro tes
ro ua
ro Ne
ro dri
ro ming
ro anne
de on
de re
de ST
de me
de sc
de lor
de lina
de ano
de rer
de ek
de baldo
de cusa
de colch
ap aros
ap az
ap lon
ap iro
ap hy
lo o
lo z
lo te
lo tf
lo th
lo an
lo ve
lo eb
lo we
lo vic
lo ube
no z
no lle
no rio
no jada
ec on
ec os
ec zko
se R
se m
se el
se men
se bo
se it
se mas
se eck
se ale
se ward
se hima
se zl
tf er
cal e
cal men
age dCli
def otos
ar ca
ar no
ar ri
ar as
ar za
ar gue
ar ine
ar anca
Con qui
Con dal
da z
da ro
da ba
da ig
da lia
da mente
da ky
da shi
da jer
ie ste
tro m
tro dela
im any
im osa
im pre
im iro
im peria
le au
le tas
le van
le af
le gg
le gre
le cci
le tina
le von
le iman
le tha
le grow
ma N
ma ro
ma ur
ma cre
ma ste
ma yo
ma lina
ma cin
ma col
ma quin
ma llett
ma thews
pa o
pa st
pa sa
pa ta
pa sta
pa tri
pa ud
pa ten
pa ola
pa stor
pa vor
pa tten
pa ddie
pa Rra
pa mbie
pa xton
ent wi
ue ga
Ca do
Ca si
Ca bu
Ca ssa
Ca ses
Ca ama
Ca RI
Ca ledon
Ca moe
Ca jahu
ser man
ser res
ser ge
ser ret
En t
En te
En cia
En me
En zo
En ju
En tre
ror ie
ror ity
lla c
lla m
lla mar
lla longa
La v
La x
La cha
La bra
La tre
La dis
La zaro
La ila
La uli
La sher
La mbar
La sso
La dI
La font
La Nd
com pass
com ta
com estar
com onuevo
com ptom
Co N
Co do
Co per
Co yo
Co llado
Co ut
Co rera
Co quina
Co tamo
Co pons
ok e
ok ai
ke ro
ke sc
ke ll
ke ly
ke dro
ke less
ke efer
ke vyn
que ro
que ll
que hac
que ts
que ridor
ing ton
ing enie
Mo ll
Mo gro
Mo tri
Mo rea
Mo reda
Mo tta
Mo gel
Mo dole
Mo cej
ko g
ko t
ko z
ko ol
ko ws
ko wska
ko rn
ko wsk
ko marov
con ces
con roy
con levan
rag ue
rag ia
rag lin
rag uera
Ag ue
Ag un
Ag eo
Ch in
Ch an
Ch au
Ch era
Ch ic
Ch ill
Ch ala
Ch api
Ch ann
Ch este
Ch eres
Ch ristopher
ble m
tp lasencia
Lin dolfo
ngu ida
like ana
re o
re er
re les
re zar
re mi
re ina
re ver
re ria
re ron
re dia
re ed
re iro
re teo
re esh
re mend
re pei
re queridor
sp era
sp indo
sp eros
sp ort
sp lug
nt ley
nt And
nt repei
or men
or hon
or witz
or chard
ub ac
ub us
pub s
mb u
mb y
mb ia
mb art
mb ee
ci da
ci vi
ci Na
ci oso
ci uc
25 42
25 71
25 175
25 135
25 139
25 439
25 145
25 136
25 119
25 833
25 330
25 777
25 472
25 332
25 301
25 5413
gi ca
gi ga
gi org
gi cio
gi uli
gi onario
di l
di x
di ch
di sp
di len
di al
di og
di ga
di ste
di sh
di bu
di ente
di gan
di gg
di arra
di Lig
di voka
di lecci
do re
do men
do va
do mi
do ms
do ming
do dd
do lad
do zier
do mbas
do vico
do ony
40 29
40 63
40 39
40 44
40 01
40 130
40 170
40 185
40 275
40 108
40 145
40 604
40 184
ur Co
ur dan
ur reta
ur pila
ri cas
ri ta
ri cat
ri gan
ri jos
ri bera
ri quez
ri vers
ri canos
pe ro
pe ri
pe tal
pe sco
pe tre
pe tri
pe cher
pe rep
pe tting
pe lland
pe pple
27 67
27 49
27 22
27 62
27 21
27 46
27 58
27 07
27 92
27 91
27 170
27 463
27 609
27 134
27 478
27 203
27 694
27 208
27 836
27 4040
27 532
27 2060
mo z
mo es
mo va
mo ll
mo hat
mo ore
mo rov
car l
car on
car se
car ves
car ental
car regui
car taya
car denas
len s
len dos
len nard
th orman
th els
eng hi
eng uer
ST osA
es ch
es mil
es dol
es marbella
es lahos
er A
er t
er Mo
er tz
er nie
er tl
al c
al ta
al bo
al bu
al rea
al pes
al bor
al berta
al lix
al balak
al EGr
ros erra
ros ener
an O
an do
an ja
an sa
an cha
an ut
an sel
an elli
an zas
an alle
an uncio
mie do
mie ri
10 15
10 20
10 39
10 30
10 77
10 38
10 81
10 86
10 76
10 58
10 06
10 98
10 110
10 140
10 135
10 470
10 191
10 247
10 635
10 895
10 893
10 638
10 161
10 184
10 858
10 505
10 392
10 056
10 001
10 4913
dad ora
29 27
29 10
29 13
29 45
29 12
29 70
29 95
29 41
29 56
29 54
29 170
29 127
29 493
29 688
29 655
29 125
29 684
29 550
29 658
29 611
29 244
29 691
29 451
29 251
29 904
29 6780
29 2790
29 2099
rec tifica
17 60
17 77
17 36
17 94
17 199
17 879
17 180
17 600
17 172
17 833
17 114
17 452
17 735
17 394
17 4009
17 4882
23 10
23 63
23 09
23 46
23 41
23 93
23 94
23 92
23 130
23 183
23 140
23 120
23 450
23 109
23 297
23 857
23 878
23 215
23 611
23 337
23 306
23 4045
23 1394
el to
el ler
el rever
63 19
63 22
63 70
63 62
63 59
63 05
63 84
63 97
63 36
63 94
63 185
63 689
63 447
63 289
63 095
63 550
63 590
63 556
63 907
13 09
13 75
13 86
13 170
13 129
13 690
13 643
13 107
13 670
13 403
13 289
13 144
13 697
13 607
13 136
13 750
13 736
13 558
io doro
85 10
85 19
85 60
85 83
85 49
85 12
85 81
85 82
85 51
85 660
85 165
85 113
85 147
85 199
85 285
85 158
85 697
85 855
85 141
85 295
85 294
85 213
85 096
85 1590
15 25
15 22
15 14
15 16
15 147
15 120
15 443
15 107
15 614
15 600
15 697
15 145
15 477
15 677
15 778
15 354
15 8069
15 47327
15 1698
to pi
to lio
to bia
to mbi
to lenc
to Ise
69 81
69 01
69 06
69 185
69 228
69 225
69 491
69 307
69 501
69 2357
69 3123
65 80
65 49
65 70
65 30
65 253
65 32
65 51
65 165
65 835
65 122
65 616
65 0627
43 40
43 17
43 11
43 57
43 95
43 93
43 76
43 31
43 32
43 04
43 127
43 620
43 875
43 879
43 283
43 115
43 830
43 884
43 7709
43 4070
43 6468
43 0447
43 3118
67 48
67 09
67 74
67 21
67 56
67 129
67 189
67 133
67 654
67 6810
ss l
ss all
ss af
ss uar
19 70
19 44
19 05
19 34
19 97
19 94
19 235
19 783
19 443
19 275
19 155
19 453
19 639
19 108
19 106
19 630
19 895
19 184
19 954
19 302
19 532
19 1560
19 2557
19 1509
47 40
47 69
47 19
47 60
47 44
47 88
47 34
47 81
47 31
47 123
47 150
47 463
47 480
47 483
47 675
47 673
47 162
47 287
47 210
47 219
47 892
47 691
47 831
47 908
47 757
47 6947
47 3266
87 43
87 22
87 64
87 79
87 62
87 38
87 05
87 41
87 71
87 07
87 06
87 110
87 257
87 8789
87 451
87 795
87 2585
20 23
20 11
20 16
20 31
20 54
20 100
20 110
20 235
20 257
20 445
20 493
20 180
20 653
20 608
20 406
20 594
20 8597
20 2719
45 68
45 35
45 46
45 41
45 82
45 76
45 54
45 06
45 100
45 167
45 179
45 143
45 447
45 247
45 292
45 479
45 790
45 738
45 594
45 991
45 8547
45 1045
45 0385
45 14559
60 65
60 88
60 57
60 46
60 82
60 98
60 91
60 263
60 165
60 285
60 659
60 694
60 094
60 207
60 000
as ca
as ti
as ch
as tro
as is
as her
as dn
89 17
89 65
89 19
89 60
89 48
89 68
89 03
89 32
89 249
89 293
89 154
89 224
89 692
89 436
89 508
89 734
89 593
89 091
89 8781
89 3014
83 17
83 85
83 47
83 61
83 16
83 53
83 58
83 06
83 197
83 873
83 154
83 236
83 634
83 882
83 590
83 786
83 001
83 4750
il do
il len
il sa
il ler
il lero
49 68
49 28
49 16
49 46
49 32
49 120
49 143
49 173
49 650
49 285
49 177
49 254
49 680
49 437
49 693
49 610
49 633
49 599
49 731
49 341
49 7900
ni t
ni u
ni to
ni tin
ni kov
22 69
22 67
22 81
22 470
22 299
22 683
22 809
22 859
22 2055
22 111
22 232
22 4967
22 4265
ED m
ED z
ED la
ED zar
ED ber
ED Pe
ED CCD
ED mbra
ED ritu
ED fic
Re in
Re mo
Re ta
Re Ar
Re ig
Re ix
Re mes
Re molinos
Re eve
Re agan
Re ade
Re villar
carri l
adi ta
adi vo
adi az
tar I
tar tas
vin ci
vin es
vin dex
ema chine
39 69
39 87
39 28
39 64
39 44
39 77
39 41
39 94
39 32
39 640
39 643
39 273
39 665
39 686
39 659
39 779
39 294
39 694
39 379
39 315
39 213
39 727
39 723
39 460
39 745
39 572
39 7120
39 7610
FA b
FA DE
FA BC
FA sti
FA CAD
entrar paros
EC FD
EC FB
EC CFD
EC ABD
EC CCD
FC es
FC BEB
FC CFC
FC ido
FC enza
12 12
12 44
12 110
12 127
12 153
12 470
12 875
12 439
12 857
12 482
12 63423
FD DC
FD CF
FD CCA
33 27
33 69
33 33
33 18
33 62
33 66
33 71
33 07
33 613
33 783
33 730
33 279
33 690
33 197
33 600
33 210
33 777
33 795
33 402
33 336
33 471
33 394
33 594
33 057
33 001
33 776
33 2585
33 2429
33 7441
48 69
48 192
48 150
48 178
48 405
48 289
48 497
48 117
48 280
48 888
48 45261
EB FBA
09 27
09 10
09 15
09 69
09 64
09 79
09 253
09 26
09 05
09 58
09 56
09 270
09 32
09 06
09 230
09 193
09 135
09 450
09 499
09 247
09 873
09 680
09 298
09 830
09 146
09 119
09 759
09 226
09 454
09 894
09 267
09 752
09 615
09 441
09 558
09 2050
18 27
18 17
18 83
18 48
18 24
18 270
18 110
18 130
18 160
18 127
18 445
18 690
18 620
18 800
18 400
18 285
18 680
18 223
18 837
18 156
18 6440
ra o
ra in
ra che
ra ng
ra ma
ra man
ra tz
ra bas
ra nto
ra hn
ra ngo
AC DC
AC AFA
AC DBB
AC FAF
68 64
68 285
68 138
68 627
68 298
75 63
75 20
75 89
75 14
75 66
75 16
75 72
75 81
75 71
75 93
75 07
75 31
75 54
75 92
75 02
75 51
75 130
75 409
75 480
75 639
75 896
75 994
75 6787
75 262911
28 49
28 28
28 253
28 620
28 463
28 403
28 647
28 850
28 607
28 605
28 296
28 181
28 101
28 691
28 451
28 1517
AD u
AD FA
AD DC
AD BC
AD DFA
AD FBC
AB AD
AB FE
AB BDB
AB FBB
AB DCD
61 18
61 16
61 46
61 138
61 106
61 803
61 182
70 65
70 79
70 37
70 38
70 54
70 02
70 100
70 147
70 137
70 779
70 357
70 218
70 346
70 6824
70 3917
au g
au stin
64 18
64 253
64 130
64 660
64 192
64 129
64 118
64 220
64 291
64 217
64 201
73 48
73 75
73 62
73 84
73 56
73 409
73 463
73 438
73 210
73 737
73 6020
73 5999
73 1575
73 66562
79 40
79 13
79 85
79 62
79 24
79 37
79 77
79 41
79 72
79 42
79 93
79 07
79 97
79 54
79 36
79 98
79 660
79 198
79 653
79 488
79 803
79 671
79 467
79 883
79 506
79 821
79 596
79 6714
55 85
55 83
55 68
55 75
55 50
55 44
55 38
55 81
55 36
55 357
55 687
55 465
55 464
55 7709
55 1377
55 46960
FE EF
BB AF
BB EFC
BB FDA
BB DBD
DC EA
DC FFB
DC BDF
14 69
14 62
14 42
14 471
14 2480
62 29
62 65
62 60
62 61
62 66
62 100
62 613
62 257
62 193
62 139
62 237
62 169
62 162
59 27
59 48
59 68
59 64
59 79
59 00
59 11
59 66
59 26
59 90
59 81
59 82
59 03
59 58
59 585
59 508
59 787
59 1349
CC EB
CC FE
CC DDB
CC FED
EE FD
EE AC
EE EDD
00 83
00 22
00 09
00 18
00 46
00 76
00 36
00 01
00 32
00 52
00 51
00 105
00 600
00 277
00 435
00 280
00 709
00 098
00 1166
DB AA
DB CD
DB DFD
11 80
11 12
11 64
11 130
11 140
11 660
11 160
11 103
11 610
11 6508
11 8025
11 2353
AA FF
AA ECE
AA FDF
AA FCD
me ja
me ha
24 47
24 41
24 123
24 221
24 293
24 174
24 875
24 450
24 439
24 278
24 156
24 284
24 206
24 442
24 8937
bal c
bal go
bal don
74 40
74 17
74 69
74 64
74 44
74 670
74 839
74 204
74 8576
cas o
cas io
cas ter
glo ves
glo ven
glo ry
50 80
50 13
50 12
50 61
50 73
50 14
50 44
50 84
50 53
50 54
50 110
50 783
50 160
50 685
50 293
50 155
50 485
50 259
50 490
50 647
50 247
50 142
50 850
50 605
50 837
50 217
50 691
50 790
50 622
50 1000
50 6740
30 25
30 69
30 22
30 64
30 26
30 78
30 81
30 71
30 32
30 257
30 189
30 163
30 390
30 739
30 735
30 360
30 6590
30 1393
DD AEE
66 15
66 47
66 12
66 64
66 62
66 188
66 158
66 873
66 206
66 6313
66 6508
66 4010
AE EDD
CB CE
CB FBD
37 13
37 15
37 83
37 70
37 66
37 26
37 82
37 270
37 730
37 170
37 129
37 120
37 800
37 289
37 108
37 775
37 217
37 777
37 707
37 882
37 793
37 216
37 6555
44 19
44 87
44 12
44 64
44 153
44 113
44 120
44 285
44 483
44 220
44 141
44 420
44 119
44 611
44 4528
35 17
35 13
35 69
35 22
35 48
35 75
35 70
35 64
35 14
35 44
35 35
35 81
35 283
35 228
35 839
35 486
35 210
35 742
35 771
35 4755
35 1589
88 19
88 20
88 28
88 14
88 62
88 21
88 26
88 41
88 81
88 159
88 189
88 113
88 445
88 207
88 856
88 6059
ac I
99 29
99 23
99 85
99 15
99 69
99 18
99 28
99 37
99 77
99 38
99 26
99 34
99 76
99 58
99 31
99 04
99 173
99 483
99 335
99 229
99 063
99 587
99 380
99 957
99 811
99 942
99 1428
99 1780
les ley
les ton
ja b
ja d
ja t
ja do
ja ya
ja tin
ja mila
21 23
21 64
21 690
21 450
21 138
21 142
21 132
21 484
21 610
21 898
21 1043
DE FC
DE ra
DE FDA
edi fico
mber g
77 13
77 67
77 89
77 83
77 33
77 70
77 64
77 74
77 81
77 274
77 678
77 767
77 741
77 817
77 4789
253 09
253 2575
BC EC
BC FFF
BC DBD
canti nf
AF EC
38 25
38 87
38 64
38 66
38 46
38 42
38 103
38 499
38 673
38 492
38 894
38 410
sti an
sti lli
26 10
26 17
26 60
26 64
26 150
26 135
26 639
26 126
26 154
26 605
26 288
26 638
26 854
insertar bob
tos latino
CD N
CD n
CD AFA
CD AAD
CD ECE
CD AFF
CD FAF
05 33
05 64
05 73
05 14
05 66
05 88
05 41
05 71
05 86
05 190
05 690
05 289
05 695
05 673
05 194
05 115
05 458
05 215
05 152
05 632
05 709
05 317
05 202
05 760
05 619
05 4095
05 1719
05 00027
am ura
am illo
am agula
16 40
16 13
16 60
16 83
16 124
16 800
16 878
16 6167
CE r
CE FB
BD AFA
BD ADD
BD AEC
BD ADB
BE FB
BE FEC
84 17
84 68
84 140
84 189
84 273
84 639
84 647
84 830
84 677
84 276
84 638
84 2539
90 25
90 10
90 65
90 12
90 24
90 74
90 30
90 77
90 34
90 72
90 42
90 76
90 31
90 220
90 646
90 669
90 1729
90 6588
cor n
cor ta
cor bo
cor dova
cor rigan
sg u
57 10
57 84
57 183
57 230
57 143
57 289
57 283
57 605
57 834
57 742
BA da
BA FC
BA AC
den ko
den ur
den cio
den burg
34 65
34 67
34 45
34 12
34 61
34 21
34 16
34 127
34 263
34 167
34 473
34 689
34 191
34 292
34 117
34 116
34 406
34 8379
34 19988
CA R
CA Mi
95 27
95 69
95 68
95 00
95 66
95 42
95 82
95 160
95 105
95 659
95 217
95 628
95 1949
95 6385
Cre mat
DA EDB
DA rbel
CF FA
CF FE
CF ECA
incorrectas Set
78 13
78 67
78 19
78 47
78 61
78 64
78 230
78 635
78 686
78 1865
EF EDD
EF lles
46 49
46 170
46 103
46 135
46 174
46 177
46 803
46 892
46 1574
ir us
ir ly
ir nie
ir cbell
41 87
41 60
41 100
41 850
41 899
41 295
41 205
41 2567
41 6525
41 8955
72 10
72 23
72 87
72 45
72 12
72 68
72 64
72 62
72 175
72 2789
72 1785
72 6772
81 17
81 63
81 65
81 48
81 68
81 62
81 252
81 805
81 403
81 208
81 232
st ur
st any
st rell
st uria
st rim
42 40
42 69
42 83
42 48
42 11
42 130
42 897
42 203
42 434
42 291
42 606
42 836
53 40
53 69
53 89
53 66
53 470
53 689
53 659
53 599
53 854
53 269
53 1797
53 2070
53 2265
82 17
82 85
82 43
82 87
82 48
82 18
82 64
82 11
82 2537
82 174
82 477
82 186
82 896
82 6564
82 2943
71 29
71 14
71 834
93 13
93 85
93 43
93 75
93 28
93 64
93 74
93 66
93 16
93 163
93 255
93 438
93 214
93 1950
93 2587
86 80
86 47
86 83
86 49
86 61
86 64
86 870
86 196
86 674
86 898
86 1382
86 1376
03 69
03 67
03 19
03 47
03 18
03 59
03 00
03 24
03 74
03 50
03 21
03 127
03 239
03 430
03 680
03 228
03 638
03 759
03 692
03 007
03 738
03 794
03 4015
03 2060
03 6276
men s
men io
men cio
men tiril
76 40
76 63
76 43
76 20
76 89
76 234
76 275
76 855
76 693
76 657
76 486
76 2019
76 646408
mar s
mar ca
mar ti
mar ion
mar ce
mar ina
mar ty
mar eu
mar quez
mar idosa
58 80
58 89
58 61
58 14
58 24
58 135
58 105
58 600
58 809
go th
go bert
go zzi
go orwitz
go ertz
256 179
256 4007
sa f
sa no
sa do
sa car
sa bu
sa tel
sa int
sa tur
sa ins
sa mbo
sa bry
sa vard
sa ave
sa chnovsky
lle do
lle ros
lle ll
lle gas
07 40
07 67
07 22
07 39
07 09
07 26
07 150
07 105
07 195
07 258
07 638
07 700
07 836
07 6985
31 60
31 22
31 48
31 270
31 150
31 657
31 2009
56 43
56 20
56 45
56 60
56 68
56 8735
97 49
97 39
97 61
97 21
97 686
97 892
54 25
54 29
54 47
54 20
54 22
54 62
54 21
54 246
54 6167
54 6741
54 18660
36 13
36 15
36 65
36 48
36 68
36 28
36 450
36 695
36 830
36 658
36 4556
08 80
08 25
08 40
08 10
08 69
08 89
08 18
08 64
08 62
08 256
08 150
08 650
08 200
08 697
08 228
08 698
08 181
of eng
01 13
01 15
01 20
01 45
01 22
01 12
01 103
01 675
01 657
01 632
01 8391
94 15
94 47
94 48
94 61
94 62
94 66
94 21
94 290
94 695
94 102
94 284
270 33
270 84
32 85
32 14
32 170
32 230
32 124
32 237
32 400
32 146
32 1949
52 80
52 89
52 809
92 29
92 15
92 43
92 89
92 64
92 409
92 6945
92 8013
96 17
96 49
96 18
96 64
96 62
96 876
96 2561
96 498
96 803
96 6766
02 80
02 40
02 85
02 67
02 87
02 12
02 68
02 66
02 250
02 453
02 236
02 141
02 652
02 2539
so b
so e
so me
so man
so mp
so lon
so uba
so rority
so elto
06 25
06 29
06 23
06 63
06 48
06 64
06 190
06 230
06 453
06 670
06 177
06 176
06 196
06 655
06 604
06 226
06 601
06 4030
98 15
98 43
98 18
98 68
98 28
98 66
98 16
98 235
98 130
98 458
98 6847
51 29
51 17
51 69
51 20
51 60
51 49
51 22
51 8508
ta in
ta se
ta ng
ta ss
ta zo
ta wn
ta bby
91 63
91 85
91 19
91 89
91 48
91 18
91 64
91 2572
Pas illas
04 27
04 17
04 13
04 60
04 89
04 28
04 24
04 21
04 253
04 173
04 272
por ter
Confirmar AND
100 45
100 77
ul t
ul son
um osa
252 45
tu lo
tu pas
tu viaje
tu limi
De S
De sp
De za
De palo
De pur
Rio mao
du al
du men
du das
du gan
du ain
du cciones
du dge
Man cha
Man uela
Man resa
Man sur
Man agedCli
zar ello
et O
et ag
et to
et ta
za k
za tor
za ya
za ka
za dos
za Dor
na va
na zan
na lino
na ntas
na ith
na dieu
na fsi
Que ila
Que rol
Que ijo
va le
va to
va lencia
va dim
va llalonga
vi v
vi z
vi te
vi ra
vi vi
vi ve
vi su
vi vier
Al cia
Al var
Al fi
Al jara
Al mad
Al pan
Al pu
Al berto
Al mag
Al monte
Al bella
Al quin
Al cant
Al pont
Al lende
ono va
ono van
Sa x
Sa y
Sa bu
Sa lina
Sa vio
Sa ins
Sa vina
Sa bie
Sa nou
Sa bino
Sa splug
stra tton
stra uss
Ġ33 3
Ġ33 8
cre ach
cre ate
Ib a
ba zi
ba le
ba ol
ba yo
ba lado
ba bera
ba ila
ba lova
ba teman
Jam il
Ġ17 4
esti r
ona ti
Vi ch
Vi var
Vi tal
Vi cent
Vi anella
man e
man do
ad ri
ad man
ad sc
ad ura
ad Or
ad ley
ad rado
ai g
ai leen
ada da
ada baila
ru per
ru sh
ru oh
ru diger
bo on
bo les
bo ya
bo qui
bo ts
bo om
bo ys
bo wden
ce der
ce lin
ce val
ce leste
ce vita
ce utic
ran da
ran car
wi g
wi ley
wi cz
wi tch
per al
per kins
per ceval
ler mo
ler as
del li
del ubac
ga R
ga j
ga on
ga ch
ga to
ga il
ga dero
ga decer
un e
un ya
un cion
un kel
ui tA
ol y
ol pe
ol vida
res ca
ne ar
ne lla
ne il
ne vin
ne wf
ne rero
ne bros
ne ider
ne tplasencia
Ar ri
Ar ga
Ar ras
Ar ces
Ar nan
Ar ban
Ar bas
Ar gui
Ar ten
Ar bon
Ar tero
Ar tico
Ar ceo
Ar bona
Ar vid
Ar imany
San sa
San dy
San cti
San sol
San date
123 05
123 325
mi k
mi le
mi ss
mi les
mi chi
mi gon
mi hara
mi tir
jo la
jo vo
jo by
jo han
jo litz
jo urdan
ara tz
110 4
110 7
110 9
110 64
Pa y
Pa hi
Pa llares
Pa jaron
Pa doan
Pa RLa
Pa CAMi
Bar b
Bar be
Bar gu
Bar dina
Bar reda
Bar ea
Bar bie
Bar bara
Bar reras
Bar nera
640 79
640 21
640 955
090 8077
dela ine
Mar ino
Mar ges
Mar rett
Mar acena
Mar cilla
Mar roig
ber y
ber enice
ber thels
ber meja
613 3
613 23
613 85
613 77
613 08
613 92
613 28646
ve te
ve de
ve re
ve do
ve oc
ve cchi
sc ythia
104 40
104 10
104 68
104 232
ste p
ste ene
ste ima
ste fan
ste ele
ste made
ste ffano
Va lor
SC O
Car de
Car da
Car ra
Car me
Car ren
Car ball
Car pio
Car dona
Car ril
Car mona
be y
be ca
be jar
be fan
be gley
be asley
be adley
sh eng
sh ig
sh ida
sh apiro
wai kil
tor to
tor ta
tor dera
tor ao
290 27
290 60
290 70
Tam pa
is z
is trol
is ler
is bn
us A
us bar
us ka
us feli
Ma N
Ma e
Ma j
Ma o
Ma ur
Ma th
Ma ja
Ma za
Ma rola
Ma karena
Ma roto
Ma delaine
ab ba
ab uela
ab arra
235 47
Ro i
Ro ma
Ro th
Ro cas
Ro ta
Ro mer
Ro cio
Ro han
Ro jas
Ro mag
Ro cam
Ro ciana
Ro meo
Ro elas
Ro pero
Gu are
Gu ardo
Gu zm
Gu inea
Gu adix
Gu iral
Gu STosA
Gu ancha
783 0
783 1
783 009
783 7305
ver man
ver bo
ver ene
ver nes
ig us
ig nan
ig nie
ig uilla
Se lla
Se ver
Se mp
Se veri
Na ta
Na der
Na tal
Na vines
Le To
Le gu
Le iro
Le mus
Le ide
Le zama
Le inad
Le uco
Le temen
234 239
Ba h
Ba li
Ba jo
Ba der
Ba jas
Ba hab
Ba kero
Sant andreu
lu u
lu co
lu mb
lu cha
lu kas
lu engo
lu ssier
ya t
Pe z
Pe ix
Pe ira
Pe rich
Pe guera
Pe roming
cel les
ex am
ex tin
ex apps
ex clamatoria
130 64
130 66
130 409
130 49118
uel len
221 20
221 66
ria do
ria to
fi ro
fi lis
271 6313
Val def
Val ga
Val dela
Val pal
mp son
mp oz
Mon ells
Mon forte
Mon estel
Mon tfer
Mon istrol
Bur una
Bur bI
257 60
257 49
257 870
257 2557
257 6828
Villa ca
Villa tur
Villa gat
Villa bona
Villa vega
Villa basta
Villa eles
Villa muelas
Villa tuel
der as
der rick
190 28
190 138
183 83
183 00
183 163
183 8747
bar ba
bar qu
bar soe
mer ca
mer as
mer rile
170 66
170 299
140 2
140 5
140 78
lin n
lin y
lin den
lin son
lin kin
lin dt
lin dberg
eb y
230 11
230 173
230 292
279 26
279 6424
279 78102
Sala zar
Sala vedra
Sala berri
660 1
660 3
660 4
660 8
660 57
660 8769
660 5103
660 202719
192 25
192 64
192 6544
192 8002
160 3
160 62
160 5435
160 6504
160 001166
185 40
185 65
185 70
185 50
185 05
at ra
at rio
Tor i
Tor os
Tor la
Tor rens
Tor rijos
127 6
127 8501
127 73567
175 33
175 24
175 38
175 42
175 2374
ho hl
ho well
ho dge
ho lister
ho reth
ho RrE
si u
si le
si ham
si gloven
si stemade
rid os
129 2
129 3
129 2357
129 6224
129 52733
129 49693
159 89
159 33
159 70
159 40180
ter ina
ter zon
ter nal
ter nacionales
150 63
150 34
150 4583
153 69
153 39
153 50
263 2
263 75
263 24
263 723
263 66193
165 0
165 400
2537 6
ge mpart
ge deon
805 79
805 37
805 38
805 0923
239 6588
239 49250
113 80
113 769
113 4011
113 29453
193 68
193 830
167 6
167 47
167 08
167 885
147 1
147 83
163 1
163 17
163 42
163 416525
120 0928
445 9
445 28
445 7359
445 22158
bi b
bi z
bi li
bi ar
bi tt
bi lio
179 50
179 230
179 19949
143 4
143 61
143 585
143 216
143 35839
443 0
443 3
443 69
443 89
443 70
443 97892
2570 0
2570 6
ka me
ka yna
ka ssi
he uri
he ws
he lem
he ader
he msley
je anes
173 00
173 2985
103 80
103 73
103 11
103 686
243 20
243 22
243 70
243 24
243 46
243 58
243 94
135 702
135 4790
690 28
690 59
690 84830
187 7
187 01
187 265
187 24470
des n
des bu
des can
des Fia
des dibu
685 71
685 99587
620 2
620 6
620 8
620 34
620 4145
620 4495
620 93064
643 3
643 9
643 40
643 580
643 412567
To yo
To tan
650 33887
470 17826
459 50
459 392219
133 67
133 2887
133 69501
133 748576
105 19
105 24
vo j
vo wel
409 23
409 45
409 79
409 21
409 78
409 41
409 822537
157 65
157 4027
157 1243
mu ti
mu chapoli
197 10
197 62
124 27
124 10
124 48
124 14
275 69
275 3512
107 7416
249 3
249 8
249 00
249 659
249 044
249 8947
249 0977
293 20
293 60
293 28
155 23
155 47
155 79
155 48447
155 274040
155 75409
155 2564007
800 10
800 18
800 59
800 6169
255 20
255 60
255 22
255 44
174 1584
473 40
473 20
473 18
473 1967
473 74204
In O
In T
In ca
In cas
In dura
195 70
195 81
195 2780
inc esa
139 5031
875 38
875 3717
453 16
689 15
689 2387
689 5937
689 26901
ha ml
ha nt
ha ver
ha ines
ha worth
ha ssen
ha ake
ha ssall
vas co
237 25
670 49
450 17
450 45
450 68
450 70
450 137
450 288
463 4
463 68
870 2099
870 87000
200 79
200 38
200 135
200 871
200 87599
200 62630
Guada ssuar
499 68
sta ntley
493 11
493 624
265 1
265 7
265 8
265 85
265 665
265 625
265 17265
265 10240
265 53470
447 2
447 5036
400 2449
178 10
178 43
178 18
178 61
879 37
879 34
403 807
403 755
403 6689
457 68
457 2575
457 6411
457 89614
299 48
299 66
299 738
po le
po wer
po vich
po tok
po RTal
po descan
188 17
188 69
188 11
188 26209
109 88
699 86
285 6
285 04
285 960
285 368
158 85
158 16
439 73
439 57
614 17526
AFB FF
qu o
qu al
238 1335
238 1547327
ACB FA
180 2
180 9
180 41
180 01
480 1
480 12
480 31
480 378
480 8771
485 3
485 9
259 18
259 72
259 2750
639 85
639 77
639 431
495 21
430 50
430 555
430 6920
490 83
490 6708
490 4995
683 60
683 283
683 6529
Zar co
pi t
pi ca
pi lla
pi stilli
647 2
647 515
679 73
191 25
Ra im
Ra vi
Ra chi
Ra yo
Ra ez
Ra yn
Ra ffer
Ra bassa
177 33
177 70
177 73
177 29617
FEB B
FEB EE
405 40
405 41
405 8009
289 80
289 89
289 617
289 319
108 27
108 17
108 11
144 26
Ju lia
Ju das
Ju lian
gu ir
gu at
gu illo
247 2
247 88
247 1595
483 2
483 4
483 80
483 20
483 394
675 8781
283 1
283 4
283 65
283 00
688 80
688 13
688 1713
138 43179
873 24
873 2726
209 50
209 05
209 86
128 40
128 10
128 23
128 1089
Po ble
Po za
Po lit
Po ller
Po eti
Po liti
Po mbal
Po lendos
Po liny
254 40
254 49
254 2375
cha ar
cha mber
cha ya
cha zo
cha tino
695 49
EDB CB
ACC EB
ACC AA
635 75
154 21206
198 29
198 20
198 62
198 1301
198 12448
680 4
680 6
680 640955
680 10311
Ber lin
Ber das
Ber riz
Ber zal
Ber enice
Ber engel
Ber ango
Ber enguer
172 20
665 3
665 8
Bo i
Bo lo
Bo ta
Bo qui
Bo bet
Bo leda
DBB F
673 49
673 09
627 7
627 79
627 6770
627 73463
min s
min do
297 63
297 67446
455 83
455 35
El A
El sio
El duain
tt aglia
Ter O
Ter r
EEB FE
298 66610
fa e
fa z
fa cci
fa jardo
850 09
850 0983
433 45
433 39
194 15
877 15
877 87
877 2381547327
497 39
488 1993
115 52656
CEC AD
277 65
277 20
277 1560
899 75
899 14
899 052
chi ca
chi tchar
132 80
475 13
475 00
475 479
475 23526
607 43
607 497
498 4374
137 63
137 69
137 48689
137 17524
809 29
809 61
630 450137
855 49
830 27
830 09
830 44
Gir ut
258 83
258 22
258 13144
859 55
859 38
228 634
220 4
220 8
220 136
220 739
220 8466
220 20406
Ri vas
Ri bot
Ri alb
890 88
Cor bal
Cor bi
Cor ena
603 50
603 757
141 64
AFD DF
895 17
895 094
895 856
145 6
145 70
145 97
FFC B
FFC FB
cu na
cu lar
cu lero
cu mby
176 4884
437 70
437 73
437 8749
477 17
477 88
477 403405
835 69
835 33
835 1548
686 15
686 638
FEF FE
420 17
420 45
420 66
[...]
