{
  "version": "1.0",
  "truncation": null,
  "padding": null,
  "added_tokens": [
    {
      "id": 0,
      "content": "<s>",
      "single_word": false,
      "lstrip": false,
      "rstrip": false,
      "normalized": true,
      "special": true
    },
    {
      "id": 1,
      "content": "<pad>",
      "single_word": false,
      "lstrip": false,
      "rstrip": false,
      "normalized": true,
      "special": true
    },
    {
      "id": 2,
      "content": "</s>",
      "single_word": false,
      "lstrip": false,
      "rstrip": false,
      "normalized": true,
      "special": true
    },
    {
      "id": 3,
      "content": "<unk>",
      "single_word": false,
      "lstrip": false,
      "rstrip": false,
      "normalized": true,
      "special": true
    },
    {
      "id": 4,
      "content": "<mask>",
      "single_word": false,
      "lstrip": true,
      "rstrip": false,
      "normalized": false,
      "special": true
    }
  ],
  "normalizer": null,
  "pre_tokenizer": {
    "type": "ByteLevel",
    "add_prefix_space": false,
    "trim_offsets": true,
    "use_regex": true
  },
  "post_processor": {
    "type": "RobertaProcessing",
    "sep": [
      "</s>",
      2
    ],
    "cls": [
      "<s>",
      0
    ],
    "trim_offsets": true,
    "add_prefix_space": false
  },
  "decoder": {
    "type": "ByteLevel",
    "add_prefix_space": true,
    "trim_offsets": true,
    "use_regex": true
  },
  "model": {
    "type": "BPE",
    "dropout": null,
    "unk_token": null,
    "continuing_subword_prefix": "",
    "end_of_word_suffix": "",
    "fuse_unk": false,
    "byte_fallback": false,
    "ignore_merges": false,
    "vocab": {
      "<s>": 0,
      "<pad>": 1,
      "</s>": 2,
      "<unk>": 3,
      "<mask>": 4,
      "!": 5,
      "\"": 6,
      "#": 7,
      "$": 8,
      "%": 9,
      "&": 10,
      "'": 11,
      "(": 12,
      ")": 13,
      "*": 14,
      "+": 15,
      ",": 16,
      "-": 17,
      ".": 18,
      "/": 19,
      "0": 20,
      "1": 21,
      "2": 22,
      "3": 23,
      "4": 24,
      "5": 25,
      "6": 26,
      "7": 27,
      "8": 28,
      "9": 29,
      ":": 30,
      ";": 31,
      "<": 32,
      "=": 33,
      ">": 34,
      "?": 35,
      "@": 36,
      "A": 37,
      "B": 38,
      "C": 39,
      "D": 40,
      "E": 41,
      "F": 42,
      "G": 43,
      "H": 44,
      "I": 45,
      "J": 46,
      "K": 47,
      "L": 48,
      "M": 49,
      "N": 50,
      "O": 51,
      "P": 52,
      "Q": 53,
      "R": 54,
      "S": 55,
      "T": 56,
      "U": 57,
      "V": 58,
      "W": 59,
      "X": 60,
      "Y": 61,
      "Z": 62,
      "[": 63,
      "\\": 64,
      "]": 65,
      "^": 66,
      "_": 67,
      "`": 68,
      "a": 69,
      "b": 70,
      "c": 71,
      "d": 72,
      "e": 73,
      "f": 74,
      "g": 75,
      "h": 76,
      "i": 77,
      "j": 78,
      "k": 79,
      "l": 80,
      "m": 81,
      "n": 82,
      "o": 83,
      "p": 84,
      "q": 85,
      "r": 86,
      "s": 87,
      "t": 88,
      "u": 89,
      "v": 90,
      "w": 91,
      "x": 92,
      "y": 93,
      "z": 94,
      "{": 95,
      "|": 96,
      "}": 97,
      "~": 98,
      "¡": 99,
      "¢": 100,
      "£": 101,
      "¤": 102,
      "¥": 103,
      "¦": 104,
      "§": 105,
      "¨": 106,
      "©": 107,
      "ª": 108,
      "«": 109,
      "¬": 110,
      "®": 111,
      "¯": 112,
      "°": 113,
      "±": 114,
      "²": 115,
      "³": 116,
      "´": 117,
      "µ": 118,
      "¶": 119,
      "·": 120,
      "¸": 121,
      "¹": 122,
      "º": 123,
      "»": 124,
      "¼": 125,
      "½": 126,
      "¾": 127,
      "¿": 128,
      "À": 129,
      "Á": 130,
      "Â": 131,
      "Ã": 132,
      "Ä": 133,
      "Å": 134,
      "Æ": 135,
      "Ç": 136,
      "È": 137,
      "É": 138,
      "Ê": 139,
      "Ë": 140,
      "Ì": 141,
      "Í": 142,
      "Î": 143,
      "Ï": 144,
      "Ð": 145,
      "Ñ": 146,
      "Ò": 147,
      "Ó": 148,
      "Ô": 149,
      "Õ": 150,
      "Ö": 151,
      "×": 152,
      "Ø": 153,
      "Ù": 154,
      "Ú": 155,
      "Û": 156,
      "Ü": 157,
      "Ý": 158,
      "Þ": 159,
      "ß": 160,
      "à": 161,
      "á": 162,
      "â": 163,
      "ã": 164,
      "ä": 165,
      "å": 166,
      "æ": 167,
      "ç": 168,
      "è": 169,
      "é": 170,
      "ê": 171,
      "ë": 172,
      "ì": 173,
      "í": 174,
      "î": 175,
      "ï": 176,
      "ð": 177,
      "ñ": 178,
      "ò": 179,
      "ó": 180,
      "ô": 181,
      "õ": 182,
      "ö": 183,
      "÷": 184,
      "ø": 185,
      "ù": 186,
      "ú": 187,
      "û": 188,
      "ü": 189,
      "ý": 190,
      "þ": 191,
      "ÿ": 192,
      "Ā": 193,
      "ā": 194,
      "Ă": 195,
      "ă": 196,
      "Ą": 197,
      "ą": 198,
      "Ć": 199,
      "ć": 200,
      "Ĉ": 201,
      "ĉ": 202,
      "Ċ": 203,
      "ċ": 204,
      "Č": 205,
      "č": 206,
      "Ď": 207,
      "ď": 208,
      "Đ": 209,
      "đ": 210,
      "Ē": 211,
      "ē": 212,
      "Ĕ": 213,
      "ĕ": 214,
      "Ė": 215,
      "ė": 216,
      "Ę": 217,
      "ę": 218,
      "Ě": 219,
      "ě": 220,
      "Ĝ": 221,
      "ĝ": 222,
      "Ğ": 223,
      "ğ": 224,
      "Ġ": 225,
      "ġ": 226,
      "Ģ": 227,
      "ģ": 228,
      "Ĥ": 229,
      "ĥ": 230,
      "Ħ": 231,
      "ħ": 232,
      "Ĩ": 233,
      "ĩ": 234,
      "Ī": 235,
      "ī": 236,
      "Ĭ": 237,
      "ĭ": 238,
      "Į": 239,
      "į": 240,
      "İ": 241,
      "ı": 242,
      "Ĳ": 243,
      "ĳ": 244,
      "Ĵ": 245,
      "ĵ": 246,
      "Ķ": 247,
      "ķ": 248,
      "ĸ": 249,
      "Ĺ": 250,
      "ĺ": 251,
      "Ļ": 252,
      "ļ": 253,
      "Ľ": 254,
      "ľ": 255,
      "Ŀ": 256,
      "ŀ": 257,
      "Ł": 258,
      "ł": 259,
      "Ń": 260,
      "on": 261,
      "ca": 262,
      "te": 263,
      "ti": 264,
      "ml": 265,
      "os": 266,
      "la": 267,
      "80": 268,
      "cc": 269,
      "en": 270,
      "li": 271,
      "pt": 272,
      "cce": 273,
      "Acce": 274,
      "Accept": 275,
      "in": 276,
      "ag": 277,
      "tion": 278,
      "ch": 279,
      "che": 280,
      "ht": 281,
      "ost": 282,
      "zi": 283,
      "xt": 284,
      "xml": 285,
      "text": 286,
      "co": 287,
      "ro": 288,
      "de": 289,
      "ap": 290,
      "lo": 291,
      "lica": 292,
      "app": 293,
      "lication": 294,
      "application": 295,
      "no": 296,
      "ec": 297,
      "se": 298,
      "ng": 299,
      "tf": 300,
      "cal": 301,
      "age": 302,
      "host": 303,
      "html": 304,
      "def": 305,
      "late": 306,
      "local": 307,
      "localhost": 308,
      "cache": 309,
      "*;": 310,
      "HT": 311,
      "gzi": 312,
      "utf": 313,
      "Ġ(": 314,
      "ĠK": 315,
      "Ġx": 316,
      "Ġno": 317,
      "Ġutf": 318,
      "deflate": 319,
      "gzip": 320,
      "8080": 321,
      "ar": 322,
      "Con": 323,
      "da": 324,
      "ie": 325,
      "tro": 326,
      "im": 327,
      "le": 328,
      "ma": 329,
      "pa": 330,
      "ent": 331,
      "ue": 332,
      "Ca": 333,
      "ser": 334,
      "En": 335,
      "ror": 336,
      "lla": 337,
      "los": 338,
      "La": 339,
      "com": 340,
      "Co": 341,
      "ok": 342,
      "okie": 343,
      "ke": 344,
      "que": 345,
      "ing": 346,
      "Mo": 347,
      "ko": 348,
      "con": 349,
      "rag": 350,
      "Ag": 351,
      "Ch": 352,
      "SE": 353,
      "ble": 354,
      "tp": 355,
      "http": 356,
      "pla": 357,
      "ID": 358,
      "ux": 359,
      "SS": 360,
      "arse": 361,
      "nec": 362,
      "IO": 363,
      "Lin": 364,
      "ngu": 365,
      ":/": 366,
      "ding": 367,
      "trol": 368,
      "Host": 369,
      "control": 370,
      "://": 371,
      "pati": 372,
      "like": 373,
      "lose": 374,
      "ION": 375,
      "close": 376,
      "zilla": 377,
      "*/": 378,
      ",*/": 379,
      "Gec": 380,
      "JSE": 381,
      "ML": 382,
      "Prag": 383,
      "TP": 384,
      "User": 385,
      "png": 386,
      "xhtml": 387,
      "Ġen": 388,
      "Ġtext": 389,
      "Ġlocalhost": 390,
      "Ġ*;": 391,
      "ĠHT": 392,
      "Ġdeflate": 393,
      "Ġgzip": 394,
      "ĠMo": 395,
      "Ġhttp": 396,
      "ĠLin": 397,
      "Ġclose": 398,
      "ĠGec": 399,
      "ĠJSE": 400,
      "onque": 401,
      "coding": 402,
      "HTML": 403,
      "ĠKonque": 404,
      "ĠKHTML": 405,
      "Connec": 406,
      "image": 407,
      "Cache": 408,
      "Encoding": 409,
      "Langu": 410,
      "compati": 411,
      "Cookie": 412,
      "Agent": 413,
      "Charse": 414,
      "plain": 415,
      "SSION": 416,
      ",*/*;": 417,
      "Pragma": 418,
      "ĠHTTP": 419,
      "ĠMozilla": 420,
      "ĠLinux": 421,
      "ĠGecko": 422,
      "ĠJSESSION": 423,
      "ĠKonqueror": 424,
      "Connection": 425,
      "Language": 426,
      "compatible": 427,
      "Charset": 428,
      "ĠJSESSIONID": 429,
      "enda": 430,
      "tienda": 431,
      "re": 432,
      "sp": 433,
      "jsp": 434,
      "ET": 435,
      "GET": 436,
      "nt": 437,
      "or": 438,
      "ub": 439,
      "tent": 440,
      "ww": 441,
      "Content": 442,
      "pub": 443,
      "lico": 444,
      "publico": 445,
      "mb": 446,
      "ci": 447,
      "25": 448,
      "gi": 449,
      "di": 450,
      "gis": 451,
      "rar": 452,
      "do": 453,
      "40": 454,
      "ur": 455,
      "ri": 456,
      "pe": 457,
      "27": 458,
      "mo": 459,
      "car": 460,
      "len": 461,
      "th": 462,
      "modo": 463,
      "for": 464,
      "eng": 465,
      "form": 466,
      "code": 467,
      "ype": 468,
      "Leng": 469,
      "urlen": 470,
      "Type": 471,
      "Ġapplication": 472,
      "www": 473,
      "coded": 474,
      "Length": 475,
      "urlencoded": 476,
      "ST": 477,
      "es": 478,
      "PO": 479,
      "POST": 480,
      "er": 481,
      "log": 482,
      "al": 483,
      "ros": 484,
      "an": 485,
      "mie": 486,
      "mbros": 487,
      "miembros": 488,
      "10": 489,
      "dad": 490,
      "cia": 491,
      "mbre": 492,
      "nombre": 493,
      "login": 494,
      "regis": 495,
      "registro": 496,
      "trar": 497,
      "29": 498,
      "rec": 499,
      "17": 500,
      "enes": 501,
      "agenes": 502,
      "imagenes": 503,
      "23": 504,
      "el": 505,
      "63": 506,
      "13": 507,
      "io": 508,
      "85": 509,
      "15": 510,
      "to": 511,
      "69": 512,
      "65": 513,
      "43": 514,
      "67": 515,
      "ss": 516,
      "19": 517,
      "47": 518,
      "87": 519,
      "20": 520,
      "pro": 521,
      "45": 522,
      "60": 523,
      "as": 524,
      "89": 525,
      "83": 526,
      "il": 527,
      "49": 528,
      "ni": 529,
      "22": 530,
      "ED": 531,
      "Re": 532,
      "ion": 533,
      "carri": 534,
      "carrito": 535,
      "adi": 536,
      "lid": 537,
      "tar": 538,
      "nti": 539,
      "vin": 540,
      "id": 541,
      "pass": 542,
      "passw": 543,
      "udad": 544,
      "adir": 545,
      "ema": 546,
      "ccion": 547,
      "ord": 548,
      "ntc": 549,
      "cp": 550,
      "apel": 551,
      "provin": 552,
      "dni": 553,
      "password": 554,
      "reccion": 555,
      "ciudad": 556,
      "direccion": 557,
      "lidos": 558,
      "email": 559,
      "apellidos": 560,
      "provincia": 561,
      "prec": 562,
      "Regis": 563,
      "precio": 564,
      "Registrar": 565,
      "39": 566,
      "FA": 567,
      "entrar": 568,
      "EC": 569,
      "FC": 570,
      "12": 571,
      "FD": 572,
      "aci": 573,
      "FB": 574,
      "33": 575,
      "48": 576,
      "EB": 577,
      "09": 578,
      "18": 579,
      "ra": 580,
      "aciar": 581,
      "AC": 582,
      "68": 583,
      "gif": 584,
      "75": 585,
      "28": 586,
      "AD": 587,
      "AB": 588,
      "61": 589,
      "70": 590,
      "au": 591,
      "64": 592,
      "73": 593,
      "79": 594,
      "55": 595,
      "FE": 596,
      "BB": 597,
      "DC": 598,
      "14": 599,
      "62": 600,
      "59": 601,
      "CC": 602,
      "EE": 603,
      "00": 604,
      "DB": 605,
      "11": 606,
      "AA": 607,
      "me": 608,
      "24": 609,
      "bal": 610,
      "FF": 611,
      "74": 612,
      "cas": 613,
      "glo": 614,
      "50": 615,
      "global": 616,
      "30": 617,
      "DD": 618,
      "pg": 619,
      "jpg": 620,
      "66": 621,
      "AE": 622,
      "CB": 623,
      "37": 624,
      "44": 625,
      "35": 626,
      "88": 627,
      "ac": 628,
      "99": 629,
      "les": 630,
      "ja": 631,
      "21": 632,
      "DE": 633,
      "aute": 634,
      "wd": 635,
      "edi": 636,
      "anadir": 637,
      "nticar": 638,
      "autenticar": 639,
      "mber": 640,
      "77": 641,
      "pwd": 642,
      "reme": 643,
      "253": 644,
      "remember": 645,
      "BC": 646,
      "canti": 647,
      "cantidad": 648,
      "AF": 649,
      "editar": 650,
      "agar": 651,
      "Entrar": 652,
      "+&": 653,
      "pagar": 654,
      "38": 655,
      "sti": 656,
      "inser": 657,
      "26": 658,
      "insertar": 659,
      "tos": 660,
      "CD": 661,
      "05": 662,
      "am": 663,
      "16": 664,
      "CE": 665,
      "BD": 666,
      "BE": 667,
      "84": 668,
      "90": 669,
      "cor": 670,
      "teri": 671,
      "sg": 672,
      "vaciar": 673,
      "57": 674,
      "carac": 675,
      "caracteri": 676,
      "sticas": 677,
      "caracteristicas": 678,
      "Msg": 679,
      "rorMsg": 680,
      "errorMsg": 681,
      "BA": 682,
      "den": 683,
      "34": 684,
      "tas": 685,
      "CA": 686,
      "95": 687,
      "Cre": 688,
      "DA": 689,
      "dencia": 690,
      "CF": 691,
      "Vaciar": 692,
      "incor": 693,
      "Credencia": 694,
      "incorrec": 695,
      "Credenciales": 696,
      "incorrectas": 697,
      "EA": 698,
      "78": 699,
      "DF": 700,
      "BF": 701,
      "EF": 702,
      "46": 703,
      "ir": 704,
      "41": 705,
      "72": 706,
      "81": 707,
      "st": 708,
      "42": 709,
      "53": 710,
      "82": 711,
      "71": 712,
      "93": 713,
      "86": 714,
      "03": 715,
      "men": 716,
      "76": 717,
      "mar": 718,
      "58": 719,
      "inde": 720,
      "go": 721,
      "256": 722,
      "index": 723,
      "sa": 724,
      "lle": 725,
      "07": 726,
      "31": 727,
      "56": 728,
      "97": 729,
      "54": 730,
      "36": 731,
      "08": 732,
      "of": 733,
      "01": 734,
      "94": 735,
      "270": 736,
      "32": 737,
      "52": 738,
      "92": 739,
      "96": 740,
      "logo": 741,
      "02": 742,
      "so": 743,
      "06": 744,
      "98": 745,
      "=%": 746,
      "51": 747,
      "ta": 748,
      "91": 749,
      "Pas": 750,
      "Calle": 751,
      "04": 752,
      "por": 753,
      "fir": 754,
      "off": 755,
      "Confir": 756,
      "Confirmar": 757,
      "ia": 758,
      "caja": 759,
      "Pasar": 760,
      "ino": 761,
      "100": 762,
      "ul": 763,
      "um": 764,
      "252": 765,
      "tu": 766,
      "De": 767,
      "Rio": 768,
      "+%": 769,
      "du": 770,
      "Man": 771,
      "zar": 772,
      "--": 773,
      "Rioja": 774,
      "et": 775,
      "Ġ2": 776,
      "fo": 777,
      "og": 778,
      "za": 779,
      "na": 780,
      "250": 781,
      "Que": 782,
      "va": 783,
      "vi": 784,
      "Vino": 785,
      "Al": 786,
      "ono": 787,
      "chego": 788,
      "Manchego": 789,
      "Sa": 790,
      "erra": 791,
      "stra": 792,
      "rico": 793,
      "nue": 794,
      "Ġ33": 795,
      "cre": 796,
      "Ib": 797,
      "Queso": 798,
      "ba": 799,
      "titu": 800,
      "auz": 801,
      "titulo": 802,
      "Jam": 803,
      "zarauz": 804,
      "Ġ17": 805,
      "Ġ4": 806,
      "ogono": 807,
      "esti": 808,
      "menum": 809,
      "2563": 810,
      "credi": 811,
      "tierra": 812,
      "duc": 813,
      "creditos": 814,
      "css": 815,
      "ona": 816,
      "estilos": 817,
      "stratierra": 818,
      "nuestratierra": 819,
      "produc": 820,
      "productos": 821,
      "sali": 822,
      "bul": 823,
      "castro": 824,
      "salir": 825,
      "fotos": 826,
      "cmen": 827,
      "cmenbul": 828,
      "aros": 829,
      "Vi": 830,
      "man": 831,
      "ad": 832,
      "ai": 833,
      "2574": 834,
      "ada": 835,
      "ru": 836,
      "bo": 837,
      "ce": 838,
      "ran": 839,
      "wi": 840,
      "per": 841,
      "ler": 842,
      "del": 843,
      "ga": 844,
      "un": 845,
      "--%": 846,
      "ui": 847,
      "ol": 848,
      "res": 849,
      "asf": 850,
      "ne": 851,
      "wide": 852,
      "Ar": 853,
      "San": 854,
      "cookie": 855,
      "123": 856,
      "mi": 857,
      "jo": 858,
      "ara": 859,
      "110": 860,
      "2529": 861,
      "2569": 862,
      "Pa": 863,
      "2565": 864,
      "Bar": 865,
      "640": 866,
      "090": 867,
      "dela": 868,
      "Mar": 869,
      "ber": 870,
      "613": 871,
      "FN": 872,
      "ve": 873,
      "sc": 874,
      "104": 875,
      "ste": 876,
      "Va": 877,
      "SC": 878,
      "ll": 879,
      "PT": 880,
      "SCR": 881,
      "IPT": 882,
      "Car": 883,
      "lert": 884,
      "be": 885,
      "sh": 886,
      "Paros": 887,
      "alert": 888,
      "wai": 889,
      "tor": 890,
      "290": 891,
      "tfor": 892,
      "Tam": 893,
      "is": 894,
      "us": 895,
      "Ma": 896,
      "delay": 897,
      "Bwai": 898,
      "Bwaitfor": 899,
      "idA": 900,
      "Ġ25": 901,
      "Set": 902,
      "BTam": 903,
      "uen": 904,
      "BTamper": 905,
      "2522": 906,
      "any": 907,
      "ab": 908,
      "235": 909,
      "Ro": 910,
      "Gu": 911,
      "ana": 912,
      "Ġ38": 913,
      "783": 914,
      "ina": 915,
      "ver": 916,
      "ig": 917,
      "Se": 918,
      "Na": 919,
      "Ġ43": 920,
      "Le": 921,
      "amp": 922,
      "234": 923,
      "ora": 924,
      "730": 925,
      "Ba": 926,
      "lencia": 927,
      "Sant": 928,
      "lu": 929,
      "lan": 930,
      "ASet": 931,
      "ya": 932,
      "var": 933,
      "Pe": 934,
      "cel": 935,
      "ex": 936,
      "130": 937,
      "errorMsgA": 938,
      "uel": 939,
      "221": 940,
      ".+": 941,
      "876": 942,
      "ript": 943,
      "ria": 944,
      "fi": 945,
      "271": 946,
      "2561": 947,
      "Val": 948,
      "mp": 949,
      "Mon": 950,
      "CSCR": 951,
      "Ealert": 952,
      "Bur": 953,
      "gos": 954,
      "257": 955,
      "ida": 956,
      "Villa": 957,
      "der": 958,
      "ier": 959,
      "190": 960,
      "183": 961,
      "bar": 962,
      "mer": 963,
      "170": 964,
      "140": 965,
      "lin": 966,
      "eb": 967,
      "230": 968,
      "279": 969,
      "Sala": 970,
      "660": 971,
      "2528": 972,
      "192": 973,
      "celona": 974,
      "160": 975,
      "EDa": 976,
      "185": 977,
      "paros": 978,
      "at": 979,
      "Tor": 980,
      "127": 981,
      "175": 982,
      "ho": 983,
      "si": 984,
      "rid": 985,
      "4727": 986,
      "129": 987,
      "ago": 988,
      "159": 989,
      "ter": 990,
      "150": 991,
      "153": 992,
      "189": 993,
      "263": 994,
      "165": 995,
      "2537": 996,
      "ge": 997,
      "805": 998,
      "239": 999,
      "8789": 1000,
      "113": 1001,
      "193": 1002,
      "167": 1003,
      "147": 1004,
      "163": 1005,
      "120": 1006,
      "445": 1007,
      "bi": 1008,
      "2573": 1009,
      "179": 1010,
      "199": 1011,
      "143": 1012,
      "hi": 1013,
      "443": 1014,
      "2570": 1015,
      "ka": 1016,
      "he": 1017,
      "je": 1018,
      "173": 1019,
      "uer": 1020,
      "103": 1021,
      "243": 1022,
      "135": 1023,
      "690": 1024,
      "187": 1025,
      "des": 1026,
      "Burgos": 1027,
      "685": 1028,
      "620": 1029,
      "643": 1030,
      "To": 1031,
      "650": 1032,
      "470": 1033,
      "459": 1034,
      "10412": 1035,
      "via": 1036,
      "org": 1037,
      "1102537": 1038,
      "6401102537": 1039,
      "104126401102537": 1040,
      "1041264011025374727": 1041,
      "133": 1042,
      "Ġ24": 1043,
      "2527": 1044,
      "105": 1045,
      "vo": 1046,
      "409": 1047,
      "273": 1048,
      "ell": 1049,
      "157": 1050,
      "mu": 1051,
      "197": 1052,
      "124": 1053,
      "275": 1054,
      "107": 1055,
      "249": 1056,
      "293": 1057,
      "155": 1058,
      "las": 1059,
      "md": 1060,
      "800": 1061,
      "255": 1062,
      "174": 1063,
      "473": 1064,
      "manca": 1065,
      "In": 1066,
      "195": 1067,
      "Salamanca": 1068,
      "Del": 1069,
      "inc": 1070,
      "139": 1071,
      "875": 1072,
      "453": 1073,
      "689": 1074,
      "ha": 1075,
      "lia": 1076,
      "Fsc": 1077,
      "vas": 1078,
      "Ġ67": 1079,
      "237": 1080,
      "670": 1081,
      "450": 1082,
      "463": 1083,
      "dor": 1084,
      "tr": 1085,
      "870": 1086,
      "200": 1087,
      "Guada": 1088,
      "ck": 1089,
      "499": 1090,
      "sta": 1091,
      "493": 1092,
      "6136": 1093,
      "265": 1094,
      "447": 1095,
      "400": 1096,
      "178": 1097,
      "879": 1098,
      "403": 1099,
      "Ġ74": 1100,
      "457": 1101,
      "299": 1102,
      "po": 1103,
      "278789": 1104,
      "486136": 1105,
      "188": 1106,
      "2529278789": 1107,
      "Barcelona": 1108,
      "amples": 1109,
      "4861362529278789": 1110,
      "4861362529278789730": 1111,
      "109": 1112,
      "699": 1113,
      "285": 1114,
      "Pl": 1115,
      "158": 1116,
      "439": 1117,
      "614": 1118,
      "AFB": 1119,
      "qu": 1120,
      "238": 1121,
      "ACB": 1122,
      "180": 1123,
      "480": 1124,
      "485": 1125,
      "259": 1126,
      "233": 1127,
      "639": 1128,
      "495": 1129,
      "FAB": 1130,
      "RO": 1131,
      "430": 1132,
      "490": 1133,
      "683": 1134,
      "Zar": 1135,
      "llo": 1136,
      "pi": 1137,
      "647": 1138,
      "679": 1139,
      "191": 1140,
      "ECA": 1141,
      "600": 1142,
      "Ra": 1143,
      "cmd": 1144,
      "modoA": 1145,
      "177": 1146,
      "FEB": 1147,
      "405": 1148,
      "126": 1149,
      "289": 1150,
      "108": 1151,
      "144": 1152,
      "--&": 1153,
      "DFC": 1154,
      "Ju": 1155,
      "gu": 1156,
      "EDF": 1157,
      "169": 1158,
      "247": 1159,
      "483": 1160,
      "675": 1161,
      "283": 1162,
      "tes": 1163,
      "ACE": 1164,
      "688": 1165,
      "bac": 1166,
      "jara": 1167,
      "Ġ71": 1168,
      "138": 1169,
      "873": 1170,
      "209": 1171,
      "609": 1172,
      "128": 1173,
      "Av": 1174,
      "Po": 1175,
      "zo": 1176,
      "254": 1177,
      "AFA": 1178,
      "EAB": 1179,
      "cha": 1180,
      "695": 1181,
      "EDB": 1182,
      "ACC": 1183,
      "635": 1184,
      "154": 1185,
      "198": 1186,
      "680": 1187,
      "Ber": 1188,
      "172": 1189,
      "665": 1190,
      "Bo": 1191,
      "DBB": 1192,
      "cio": 1193,
      "673": 1194,
      "627": 1195,
      "AEB": 1196,
      "EFA": 1197,
      "min": 1198,
      "297": 1199,
      "697": 1200,
      "455": 1201,
      "El": 1202,
      "FFA": 1203,
      "tt": 1204,
      "vila": 1205,
      "Guadala": 1206,
      "Ter": 1207,
      "EDC": 1208,
      "142": 1209,
      "AAD": 1210,
      "3063": 1211,
      "agoza": 1212,
      "Guadalajara": 1213,
      "EEB": 1214,
      "298": 1215,
      "DEB": 1216,
      "fa": 1217,
      "850": 1218,
      "653": 1219,
      "433": 1220,
      "194": 1221,
      "EFB": 1222,
      "2572": 1223,
      "106": 1224,
      "877": 1225,
      "497": 1226,
      "488": 1227,
      "115": 1228,
      "CEC": 1229,
      "277": 1230,
      "236": 1231,
      "899": 1232,
      "BEB": 1233,
      "ND": 1234,
      "chi": 1235,
      "132": 1236,
      "475": 1237,
      "607": 1238,
      "498": 1239,
      "118": 1240,
      "AFC": 1241,
      "DDC": 1242,
      "272": 1243,
      "137": 1244,
      "EFC": 1245,
      "osa": 1246,
      "809": 1247,
      "ura": 1248,
      "630": 1249,
      "855": 1250,
      "830": 1251,
      "Gir": 1252,
      "258": 1253,
      "859": 1254,
      "228": 1255,
      "Valencia": 1256,
      "220": 1257,
      "CDC": 1258,
      "Ri": 1259,
      "698": 1260,
      "890": 1261,
      "Cor": 1262,
      "603": 1263,
      "EDE": 1264,
      "141": 1265,
      "AFD": 1266,
      "Zam": 1267,
      "69090": 1268,
      "895": 1269,
      "145": 1270,
      "FFC": 1271,
      "cu": 1272,
      "176": 1273,
      "437": 1274,
      "477": 1275,
      "835": 1276,
      "686": 1277,
      "FEF": 1278,
      "2563290": 1279,
      "7832563290": 1280,
      "30637832563290": 1281,
      "6909030637832563290": 1282,
      "420": 1283,
      "AAB": 1284,
      "ld": 1285,
      "Ġ34": 1286,
      "ena": 1287,
      "102": 1288,
      "893": 1289,
      "Navar": 1290,
      "AND": 1291,
      "BAD": 1292,
      "134": 1293,
      "857": 1294,
      "DAB": 1295,
      "EFD": 1296,
      "gar": 1297,
      "478": 1298,
      "390": 1299,
      "IN": 1300,
      "tra": 1301,
      "803": 1302,
      "oria": 1303,
      "677": 1304,
      "Zaragoza": 1305,
      "CDB": 1306,
      "Mad": 1307,
      "292": 1308,
      "136": 1309,
      "839": 1310,
      "ECE": 1311,
      "484": 1312,
      "Zamora": 1313,
      "CAD": 1314,
      "278": 1315,
      "659": 1316,
      "435": 1317,
      "458": 1318,
      "224": 1319,
      "146": 1320,
      "CFA": 1321,
      "CFB": 1322,
      "era": 1323,
      "295": 1324,
      "644": 1325,
      "779": 1326,
      "CFD": 1327,
      "DAC": 1328,
      "yo": 1329,
      "doc": 1330,
      "693": 1331,
      "602": 1332,
      "897": 1333,
      "121": 1334,
      "BAB": 1335,
      "CBB": 1336,
      "Pla": 1337,
      "llado": 1338,
      "404": 1339,
      "274": 1340,
      "294": 1341,
      "196": 1342,
      "605": 1343,
      "BCC": 1344,
      "Tar": 1345,
      "lar": 1346,
      "878": 1347,
      "203": 1348,
      "DAD": 1349,
      "FFD": 1350,
      "Lle": 1351,
      "it": 1352,
      "407": 1353,
      "FEE": 1354,
      "und": 1355,
      "117": 1356,
      "223": 1357,
      "610": 1358,
      "bu": 1359,
      "2520": 1360,
      "276": 1361,
      "633": 1362,
      "655": 1363,
      "EDD": 1364,
      "093": 1365,
      "bob": 1366,
      "/.": 1367,
      "AEE": 1368,
      "BCB": 1369,
      "mon": 1370,
      "674": 1371,
      "2055": 1372,
      "ECD": 1373,
      "288": 1374,
      "BFC": 1375,
      "BDC": 1376,
      "DFD": 1377,
      "Ga": 1378,
      "694": 1379,
      "095": 1380,
      "624": 1381,
      "245": 1382,
      "Lu": 1383,
      "ras": 1384,
      "434": 1385,
      "215": 1386,
      "775": 1387,
      "9090": 1388,
      "FH": 1389,
      "ju": 1390,
      "408": 1391,
      "638": 1392,
      "678": 1393,
      "122": 1394,
      "DFB": 1395,
      "479": 1396,
      "492": 1397,
      "DDB": 1398,
      "Or": 1399,
      "ls": 1400,
      "xy": 1401,
      "Ġ5": 1402,
      "807": 1403,
      "ECB": 1404,
      "186": 1405,
      "Santa": 1406,
      "Navarra": 1407,
      "161": 1408,
      "BFD": 1409,
      "BDB": 1410,
      "FG": 1411,
      "Ja": 1412,
      "sca": 1413,
      "and": 1414,
      "ECC": 1415,
      "182": 1416,
      "Ci": 1417,
      "CEB": 1418,
      "fe": 1419,
      "ari": 1420,
      "637": 1421,
      "precioA": 1422,
      "739": 1423,
      "An": 1424,
      "CAC": 1425,
      "CAB": 1426,
      "874": 1427,
      "Vallado": 1428,
      "Valladolid": 1429,
      "225": 1430,
      "604": 1431,
      "ECF": 1432,
      "125": 1433,
      "162": 1434,
      "672": 1435,
      "494": 1436,
      "184": 1437,
      "FFF": 1438,
      "5765": 1439,
      "AAC": 1440,
      "PU": 1441,
      "119": 1442,
      "CAA": 1443,
      "ipt": 1444,
      "qui": 1445,
      "rIPT": 1446,
      "438": 1447,
      "205": 1448,
      "proxy": 1449,
      "837": 1450,
      "EDA": 1451,
      "684": 1452,
      "700": 1453,
      "FEA": 1454,
      "111": 1455,
      "CSCRipt": 1456,
      "parosproxy": 1457,
      "FscrIPT": 1458,
      "Lleida": 1459,
      "Madrid": 1460,
      "PUT": 1461,
      "+--%": 1462,
      "CFC": 1463,
      "DFA": 1464,
      "Ġ62": 1465,
      "uri": 1466,
      "152": 1467,
      "156": 1468,
      "657": 1469,
      "608": 1470,
      "838": 1471,
      "116": 1472,
      "BFB": 1473,
      "Ġ18": 1474,
      "474": 1475,
      "208": 1476,
      "750": 1477,
      "616": 1478,
      "FFB": 1479,
      "Ġ68": 1480,
      "Ġ75": 1481,
      "486": 1482,
      "EEF": 1483,
      "164": 1484,
      "BFA": 1485,
      "DAE": 1486,
      "cript": 1487,
      "232": 1488,
      "654": 1489,
      "ECT": 1490,
      "759": 1491,
      "name": 1492,
      "uenca": 1493,
      "280": 1494,
      "EAD": 1495,
      "ente": 1496,
      "ley": 1497,
      "231": 1498,
      "858": 1499,
      "BBF": 1500,
      "503": 1501,
      "Palencia": 1502,
      "BDE": 1503,
      "ki": 1504,
      "son": 1505,
      "Ġ61": 1506,
      "853": 1507,
      "896": 1508,
      "833": 1509,
      "EBD": 1510,
      "Girona": 1511,
      "AED": 1512,
      "gro": 1513,
      "hor": 1514,
      "lor": 1515,
      "296": 1516,
      "67234": 1517,
      "681": 1518,
      "505": 1519,
      "876235": 1520,
      "205567234": 1521,
      "5765205567234": 1522,
      "5765205567234876235": 1523,
      "287": 1524,
      "AR": 1525,
      "BED": 1526,
      "CDE": 1527,
      "Cuenca": 1528,
      "yle": 1529,
      "226": 1530,
      "Gran": 1531,
      "ner": 1532,
      "804": 1533,
      "ard": 1534,
      "uela": 1535,
      "291": 1536,
      "AFF": 1537,
      "DED": 1538,
      "FEC": 1539,
      "ua": 1540,
      "834": 1541,
      "EBE": 1542,
      "621": 1543,
      "210": 1544,
      "ves": 1545,
      "454": 1546,
      "181": 1547,
      "281": 1548,
      "626": 1549,
      "DBC": 1550,
      "govia": 1551,
      "CAE": 1552,
      "Me": 1553,
      "ly": 1554,
      "sch": 1555,
      "284": 1556,
      "286": 1557,
      "AAF": 1558,
      "219": 1559,
      "379": 1560,
      "767": 1561,
      "don": 1562,
      "2575": 1563,
      "131": 1564,
      "682": 1565,
      "EEE": 1566,
      "Segovia": 1567,
      "Fe": 1568,
      "ani": 1569,
      "894": 1570,
      "EDn": 1571,
      "FCE": 1572,
      "EBA": 1573,
      "ACF": 1574,
      "705": 1575,
      "DDE": 1576,
      "DDF": 1577,
      "ker": 1578,
      "2567": 1579,
      "634": 1580,
      "692": 1581,
      "FBE": 1582,
      "335": 1583,
      "482": 1584,
      "ACA": 1585,
      "BEC": 1586,
      "401": 1587,
      "330": 1588,
      "666": 1589,
      "217": 1590,
      "375": 1591,
      "AFE": 1592,
      "Do": 1593,
      "gue": 1594,
      "Ġ72": 1595,
      "Cas": 1596,
      "Caste": 1597,
      "204": 1598,
      "ABD": 1599,
      "550": 1600,
      "DDD": 1601,
      "So": 1602,
      "Soria": 1603,
      "FCF": 1604,
      "CBD": 1605,
      "Teruel": 1606,
      "359": 1607,
      "FSCR": 1608,
      "Pi": 1609,
      "cgi": 1610,
      "nombreA": 1611,
      "658": 1612,
      "FBC": 1613,
      "282": 1614,
      "646": 1615,
      "EEA": 1616,
      "AAA": 1617,
      "CDA": 1618,
      "Carre": 1619,
      "CSCRIPT": 1620,
      "FSCRIPT": 1621,
      "149": 1622,
      "227": 1623,
      "406": 1624,
      "222": 1625,
      "642": 1626,
      "BEF": 1627,
      "ument": 1628,
      "085": 1629,
      "579": 1630,
      "CED": 1631,
      "EAE": 1632,
      "Par": 1633,
      "mc": 1634,
      "Ġ60": 1635,
      "cat": 1636,
      "FAD": 1637,
      "FDF": 1638,
      "AAE": 1639,
      "document": 1640,
      "055": 1641,
      "CFE": 1642,
      "Li": 1643,
      "ose": 1644,
      "cho": 1645,
      "151": 1646,
      "456": 1647,
      "891": 1648,
      "FCA": 1649,
      "ene": 1650,
      "101": 1651,
      "FDB": 1652,
      "094": 1653,
      "357": 1654,
      "339": 1655,
      "885": 1656,
      "user": 1657,
      "ares": 1658,
      "476": 1659,
      "FCB": 1660,
      "611": 1661,
      "229": 1662,
      "260": 1663,
      "FFE": 1664,
      "su": 1665,
      "aga": 1666,
      "631": 1667,
      "671": 1668,
      "892": 1669,
      "FDA": 1670,
      "753": 1671,
      "377": 1672,
      "EX": 1673,
      "nte": 1674,
      "web": 1675,
      "ine": 1676,
      "696": 1677,
      "207": 1678,
      "FDC": 1679,
      "DBD": 1680,
      "BEA": 1681,
      "style": 1682,
      "087": 1683,
      "asp": 1684,
      "van": 1685,
      "2564": 1686,
      "491": 1687,
      "337": 1688,
      "EBB": 1689,
      "old": 1690,
      "EXEC": 1691,
      "114": 1692,
      "ven": 1693,
      "000": 1694,
      "244": 1695,
      "javas": 1696,
      "back": 1697,
      "Be": 1698,
      "Ur": 1699,
      "loginA": 1700,
      "436": 1701,
      "206": 1702,
      "898": 1703,
      "ABC": 1704,
      "BBA": 1705,
      "DCE": 1706,
      "DCF": 1707,
      "744": 1708,
      "AEA": 1709,
      "777": 1710,
      "DEE": 1711,
      "ragona": 1712,
      "url": 1713,
      "676": 1714,
      "FAA": 1715,
      "FCD": 1716,
      "707": 1717,
      "12312": 1718,
      "CFF": 1719,
      "EFF": 1720,
      "FRO": 1721,
      "OL": 1722,
      "fer": 1723,
      "2568": 1724,
      "636": 1725,
      "601": 1726,
      "395": 1727,
      "758": 1728,
      "599": 1729,
      "DDA": 1730,
      "AEF": 1731,
      "CDF": 1732,
      "FROM": 1733,
      "955": 1734,
      "171": 1735,
      "856": 1736,
      "496": 1737,
      "ionid": 1738,
      "444": 1739,
      "446": 1740,
      "12312312": 1741,
      "Juan": 1742,
      "username": 1743,
      "035": 1744,
      "Aalert": 1745,
      "Aurl": 1746,
      "BFF": 1747,
      "FED": 1748,
      "ron": 1749,
      "Camp": 1750,
      "691": 1751,
      "652": 1752,
      "871": 1753,
      "FDD": 1754,
      "005": 1755,
      "DBE": 1756,
      "ground": 1757,
      "javascript": 1758,
      "background": 1759,
      "347": 1760,
      "BEE": 1761,
      "gra": 1762,
      "ry": 1763,
      "Ġ63": 1764,
      "632": 1765,
      "451": 1766,
      "FCC": 1767,
      "EBF": 1768,
      "641": 1769,
      "009": 1770,
      "709": 1771,
      "ton": 1772,
      "tin": 1773,
      "lio": 1774,
      "rio": 1775,
      "452": 1776,
      "399": 1777,
      "FAC": 1778,
      "FBB": 1779,
      "481": 1780,
      "795": 1781,
      "799": 1782,
      "DCD": 1783,
      "884": 1784,
      "BCA": 1785,
      "Tarragona": 1786,
      "355": 1787,
      "585": 1788,
      "806": 1789,
      "402": 1790,
      "432": 1791,
      "EBC": 1792,
      "ADD": 1793,
      "317": 1794,
      "315": 1795,
      "BFE": 1796,
      "CAF": 1797,
      "EAC": 1798,
      "dra": 1799,
      "ut": 1800,
      "FAF": 1801,
      "FBD": 1802,
      "790": 1803,
      "DEA": 1804,
      "975": 1805,
      "EAA": 1806,
      "Mi": 1807,
      "dro": 1808,
      "Ġ59": 1809,
      "808": 1810,
      "606": 1811,
      "ABA": 1812,
      "735": 1813,
      "BCF": 1814,
      "309": 1815,
      "DFF": 1816,
      "EED": 1817,
      "EAF": 1818,
      "DCB": 1819,
      "CCA": 1820,
      "EEC": 1821,
      "Te": 1822,
      "bin": 1823,
      "836": 1824,
      "FBF": 1825,
      "708": 1826,
      "598": 1827,
      "CBA": 1828,
      "882": 1829,
      "251": 1830,
      "872": 1831,
      "703": 1832,
      "CCC": 1833,
      "BCD": 1834,
      "joz": 1835,
      "327": 1836,
      "Bada": 1837,
      "DEC": 1838,
      "ini": 1839,
      "338": 1840,
      "DBF": 1841,
      "741": 1842,
      "java": 1843,
      "058": 1844,
      "267": 1845,
      "AEC": 1846,
      "BAC": 1847,
      "Es": 1848,
      "art": 1849,
      "656": 1850,
      "FBA": 1851,
      "ADF": 1852,
      "ABB": 1853,
      "595": 1854,
      "villa": 1855,
      "467": 1856,
      "Gar": 1857,
      "ledo": 1858,
      "ess": 1859,
      "ABE": 1860,
      "CCD": 1861,
      "007": 1862,
      "305": 1863,
      "CEA": 1864,
      "ceres": 1865,
      "Badajoz": 1866,
      "370": 1867,
      "EFE": 1868,
      "Hue": 1869,
      "472": 1870,
      "755": 1871,
      "ADB": 1872,
      "ADC": 1873,
      "737": 1874,
      "063": 1875,
      "687": 1876,
      "909": 1877,
      "DFE": 1878,
      "tan": 1879,
      "Cam": 1880,
      "Can": 1881,
      "FDE": 1882,
      "333": 1883,
      "ABF": 1884,
      "793": 1885,
      "213": 1886,
      "817": 1887,
      "ces": 1888,
      "let": 1889,
      "854": 1890,
      "334": 1891,
      "ADA": 1892,
      "BBD": 1893,
      "DCC": 1894,
      "CCB": 1895,
      "037": 1896,
      "168": 1897,
      "419": 1898,
      "580": 1899,
      "509": 1900,
      "715": 1901,
      "BAF": 1902,
      "Ġ64": 1903,
      "651": 1904,
      "BBC": 1905,
      "CBC": 1906,
      "DEF": 1907,
      "Toledo": 1908,
      "Ce": 1909,
      "DAA": 1910,
      "393": 1911,
      "398": 1912,
      "756": 1913,
      "738": 1914,
      "797": 1915,
      "DCA": 1916,
      "DBA": 1917,
      "CBE": 1918,
      "216": 1919,
      "059": 1920,
      "148": 1921,
      "Fer": 1922,
      "Her": 1923,
      "307": 1924,
      "442": 1925,
      "886": 1926,
      "778": 1927,
      "112": 1928,
      "gen": 1929,
      "852": 1930,
      "ssionid": 1931,
      "ADE": 1932,
      "246": 1933,
      "508": 1934,
      "888": 1935,
      "BCE": 1936,
      "ami": 1937,
      "CEF": 1938,
      "BDD": 1939,
      "tz": 1940,
      "CBF": 1941,
      "353": 1942,
      "527": 1943,
      "BAA": 1944,
      "yu": 1945,
      "BBB": 1946,
      "BBE": 1947,
      "BDF": 1948,
      "Inc": 1949,
      "540": 1950,
      "617": 1951,
      "CEE": 1952,
      "Ta": 1953,
      "cos": 1954,
      "tal": 1955,
      "202": 1956,
      "732": 1957,
      "CCE": 1958,
      "241": 1959,
      "BDA": 1960,
      "OLD": 1961,
      "360": 1962,
      "530": 1963,
      "DAF": 1964,
      "Ne": 1965,
      "OR": 1966,
      "Sal": 1967,
      "802": 1968,
      "iel": 1969,
      "dia": 1970,
      "378": 1971,
      "727": 1972,
      "930": 1973,
      "Los": 1974,
      "336": 1975,
      "ACD": 1976,
      "752": 1977,
      "004": 1978,
      "Plza": 1979,
      "013": 1980,
      "070": 1981,
      "Cant": 1982,
      "831": 1983,
      "734": 1984,
      "CCF": 1985,
      "358": 1986,
      "719": 1987,
      "787": 1988,
      "760": 1989,
      "815": 1990,
      "BAE": 1991,
      "CDD": 1992,
      "Lo": 1993,
      "her": 1994,
      "wa": 1995,
      "953": 1996,
      "Granada": 1997,
      "422": 1998,
      "939": 1999,
      "No": 2000,
      "471": 2001,
      "FAE": 2002,
      "990": 2003,
      "Torre": 2004,
      "043": 2005,
      "323": 2006,
      "417": 2007,
      "513": 2008,
      "549": 2009,
      "Old": 2010,
      "by": 2011,
      "bre": 2012,
      "ete": 2013,
      "san": 2014,
      "all": 2015,
      "242": 2016,
      "Vila": 2017,
      "344": 2018,
      "423": 2019,
      "623": 2020,
      "723": 2021,
      "770": 2022,
      "935": 2023,
      "ez": 2024,
      "sen": 2025,
      "tel": 2026,
      "+.": 2027,
      "367": 2028,
      "427": 2029,
      "539": 2030,
      "747": 2031,
      "820": 2032,
      "han": 2033,
      "801": 2034,
      "754": 2035,
      "590": 2036,
      "003": 2037,
      "uente": 2038,
      "240": 2039,
      "269": 2040,
      "310": 2041,
      "319": 2042,
      "350": 2043,
      "089": 2044,
      "343": 2045,
      "465": 2046,
      "663": 2047,
      "827": 2048,
      "913": 2049,
      "915": 2050,
      "Qu": 2051,
      "Ve": 2052,
      "mad": 2053,
      "illo": 2054,
      "731": 2055,
      "ruz": 2056,
      "Huesca": 2057,
      "415": 2058,
      "517": 2059,
      "619": 2060,
      "845": 2061,
      "989": 2062,
      "gr": 2063,
      "ecre": 2064,
      "sessionid": 2065,
      "994": 2066,
      "772": 2067,
      "010": 2068,
      "166": 2069,
      "387": 2070,
      "349": 2071,
      "489": 2072,
      "569": 2073,
      "567": 2074,
      "587": 2075,
      "717": 2076,
      "979": 2077,
      "AM": 2078,
      "Alica": 2079,
      "ER": 2080,
      "bel": 2081,
      "dy": 2082,
      "sco": 2083,
      "tera": 2084,
      "008": 2085,
      "308": 2086,
      "abria": 2087,
      "039": 2088,
      "033": 2089,
      "389": 2090,
      "440": 2091,
      "743": 2092,
      "bra": 2093,
      "em": 2094,
      "nan": 2095,
      "ure": 2096,
      "2540": 2097,
      "832": 2098,
      "053": 2099,
      "Alicante": 2100,
      "038": 2101,
      "329": 2102,
      "313": 2103,
      "449": 2104,
      "765": 2105,
      "810": 2106,
      "823": 2107,
      "Ant": 2108,
      "Fran": 2109,
      "br": 2110,
      "jar": 2111,
      "sk": 2112,
      "tre": 2113,
      "092": 2114,
      "593": 2115,
      "881": 2116,
      "Bak": 2117,
      "248": 2118,
      "523": 2119,
      "535": 2120,
      "669": 2121,
      "769": 2122,
      "863": 2123,
      "ban": 2124,
      "horas": 2125,
      "050": 2126,
      "520": 2127,
      "919": 2128,
      "960": 2129,
      "Mu": 2130,
      "az": 2131,
      "mas": 2132,
      "392": 2133,
      "ierra": 2134,
      "067": 2135,
      "079": 2136,
      "380": 2137,
      "487": 2138,
      "460": 2139,
      "545": 2140,
      "538": 2141,
      "Go": 2142,
      "bas": 2143,
      "ctor": 2144,
      "rm": 2145,
      "int": 2146,
      "027": 2147,
      "268": 2148,
      "363": 2149,
      "320": 2150,
      "312": 2151,
      "324": 2152,
      "880": 2153,
      "813": 2154,
      "860": 2155,
      "889": 2156,
      "910": 2157,
      "923": 2158,
      "965": 2159,
      "945": 2160,
      "983": 2161,
      "970": 2162,
      "950": 2163,
      "905": 2164,
      "957": 2165,
      "Da": 2166,
      "Tra": 2167,
      "bur": 2168,
      "ff": 2169,
      "hu": 2170,
      "ic": 2171,
      "lon": 2172,
      "secre": 2173,
      "555": 2174,
      "846": 2175,
      "318": 2176,
      "413": 2177,
      "468": 2178,
      "421": 2179,
      "615": 2180,
      "740": 2181,
      "722": 2182,
      "Esp": 2183,
      "ns": 2184,
      "Ġ65": 2185,
      "archi": 2186,
      "4040": 2187,
      "908": 2188,
      "BAK": 2189,
      "782": 2190,
      "786": 2191,
      "script": 2192,
      "archivo": 2193,
      "365": 2194,
      "563": 2195,
      "865": 2196,
      "927": 2197,
      "ero": 2198,
      "net": 2199,
      "Las": 2200,
      "331": 2201,
      "006": 2202,
      "746": 2203,
      "Castell": 2204,
      "083": 2205,
      "322": 2206,
      "560": 2207,
      "577": 2208,
      "729": 2209,
      "789": 2210,
      "718": 2211,
      "rie": 2212,
      "oso": 2213,
      "lina": 2214,
      "llas": 2215,
      "391": 2216,
      "557": 2217,
      "842": 2218,
      "906": 2219,
      "file": 2220,
      "064": 2221,
      "570": 2222,
      "649": 2223,
      "824": 2224,
      "PAR": 2225,
      "Ġ66": 2226,
      "lis": 2227,
      "201": 2228,
      "757": 2229,
      "736": 2230,
      "791": 2231,
      "559": 2232,
      "023": 2233,
      "069": 2234,
      "073": 2235,
      "529": 2236,
      "583": 2237,
      "500": 2238,
      "969": 2239,
      "Jo": 2240,
      "JECT": 2241,
      "ye": 2242,
      "EDo": 2243,
      "bak": 2244,
      "INJECT": 2245,
      "PARAM": 2246,
      "INJECTED": 2247,
      "045": 2248,
      "374": 2249,
      "469": 2250,
      "411": 2251,
      "645": 2252,
      "618": 2253,
      "780": 2254,
      "961": 2255,
      "Gui": 2256,
      "dri": 2257,
      "fre": 2258,
      "eni": 2259,
      "rez": 2260,
      "ubi": 2261,
      "431": 2262,
      "841": 2263,
      "017": 2264,
      "218": 2265,
      "510": 2266,
      "519": 2267,
      "528": 2268,
      "667": 2269,
      "713": 2270,
      "714": 2271,
      "867": 2272,
      "849": 2273,
      "811": 2274,
      "949": 2275,
      "Jose": 2276,
      "cf": 2277,
      "ger": 2278,
      "ms": 2279,
      "pr": 2280,
      "par": 2281,
      "2500": 2282,
      "394": 2283,
      "441": 2284,
      "383": 2285,
      "361": 2286,
      "388": 2287,
      "410": 2288,
      "917": 2289,
      "985": 2290,
      "933": 2291,
      "959": 2292,
      "Por": 2293,
      "rf": 2294,
      "Ġ58": 2295,
      "dan": 2296,
      "dio": 2297,
      "507": 2298,
      "029": 2299,
      "348": 2300,
      "515": 2301,
      "543": 2302,
      "625": 2303,
      "622": 2304,
      "847": 2305,
      "980": 2306,
      "bro": 2307,
      "997": 2308,
      "526": 2309,
      "720": 2310,
      "764": 2311,
      "840": 2312,
      "829": 2313,
      "LE": 2314,
      "sy": 2315,
      "ling": 2316,
      "751": 2317,
      "794": 2318,
      "376": 2319,
      "356": 2320,
      "576": 2321,
      "*+": 2322,
      "080": 2323,
      "212": 2324,
      "589": 2325,
      "533": 2326,
      "544": 2327,
      "668": 2328,
      "887": 2329,
      "hac": 2330,
      "tri": 2331,
      "Ġ41": 2332,
      "acion": 2333,
      "096": 2334,
      "993": 2335,
      "Ġ248": 2336,
      "lude": 2337,
      "exec": 2338,
      "include": 2339,
      "secreto": 2340,
      "+-": 2341,
      "047": 2342,
      "020": 2343,
      "214": 2344,
      "725": 2345,
      "745": 2346,
      "883": 2347,
      "929": 2348,
      "900": 2349,
      "Bcat": 2350,
      "Fpassw": 2351,
      "Fet": 2352,
      "my": 2353,
      "doba": 2354,
      "ris": 2355,
      "098": 2356,
      "556": 2357,
      "594": 2358,
      "597": 2359,
      "904": 2360,
      "536": 2361,
      "Plaza": 2362,
      "Cantabria": 2363,
      "Fpasswd": 2364,
      "Fetc": 2365,
      "040": 2366,
      "262": 2367,
      "325": 2368,
      "369": 2369,
      "300": 2370,
      "524": 2371,
      "762": 2372,
      "963": 2373,
      "920": 2374,
      "Ale": 2375,
      "Fon": 2376,
      "Gi": 2377,
      "fran": 2378,
      "ix": 2379,
      "ug": 2380,
      "ula": 2381,
      "val": 2382,
      "Cal": 2383,
      "851": 2384,
      "Real": 2385,
      "INC": 2386,
      "Carrer": 2387,
      "629": 2388,
      "843": 2389,
      "937": 2390,
      "aju": 2391,
      "ud": 2392,
      "ws": 2393,
      "558": 2394,
      "506": 2395,
      "049": 2396,
      "018": 2397,
      "464": 2398,
      "825": 2399,
      "LI": 2400,
      "Mas": 2401,
      "cl": 2402,
      "ira": 2403,
      "Ġ46": 2404,
      "loca": 2405,
      "Coru": 2406,
      "702": 2407,
      "303": 2408,
      "057": 2409,
      "ament": 2410,
      "954": 2411,
      "Ġ249": 2412,
      "usu": 2413,
      "022": 2414,
      "385": 2415,
      "311": 2416,
      "326": 2417,
      "429": 2418,
      "573": 2419,
      "628": 2420,
      "664": 2421,
      "943": 2422,
      "967": 2423,
      "948": 2424,
      "938": 2425,
      "Ast": 2426,
      "Di": 2427,
      "uy": 2428,
      "Ġ39": 2429,
      "dir": 2430,
      "704": 2431,
      "742": 2432,
      "056": 2433,
      "019": 2434,
      "048": 2435,
      "068": 2436,
      "345": 2437,
      "448": 2438,
      "525": 2439,
      "565": 2440,
      "773": 2441,
      "977": 2442,
      "Ab": 2443,
      "Fa": 2444,
      "Il": 2445,
      "jan": 2446,
      "pre": 2447,
      "ty": 2448,
      "Ġ250": 2449,
      "das": 2450,
      "pan": 2451,
      "ill": 2452,
      "397": 2453,
      "097": 2454,
      "302": 2455,
      "907": 2456,
      "Ġ254": 2457,
      "Ciudad": 2458,
      "015": 2459,
      "060": 2460,
      "078": 2461,
      "340": 2462,
      "328": 2463,
      "466": 2464,
      "547": 2465,
      "821": 2466,
      "Er": 2467,
      "Is": 2468,
      "Pon": 2469,
      "tti": 2470,
      "can": 2471,
      "ntament": 2472,
      "901": 2473,
      "572": 2474,
      "341": 2475,
      "346": 2476,
      "316": 2477,
      "425": 2478,
      "414": 2479,
      "537": 2480,
      "581": 2481,
      "984": 2482,
      "HER": 2483,
      "Pin": 2484,
      "af": 2485,
      "gas": 2486,
      "pin": 2487,
      "zan": 2488,
      "Ġ44": 2489,
      "llar": 2490,
      "396": 2491,
      "332": 2492,
      "306": 2493,
      "386": 2494,
      "Ġ247": 2495,
      "Ġ251": 2496,
      "HERE": 2497,
      "514": 2498,
      "763": 2499,
      "866": 2500,
      "928": 2501,
      "911": 2502,
      "981": 2503,
      "Ser": 2504,
      "ed": 2505,
      "onio": 2506,
      "ima": 2507,
      "706": 2508,
      "001": 2509,
      "502": 2510,
      "304": 2511,
      "342": 2512,
      "+*+": 2513,
      "088": 2514,
      "016": 2515,
      "368": 2516,
      "512": 2517,
      "584": 2518,
      "546": 2519,
      "848": 2520,
      "947": 2521,
      "918": 2522,
      "978": 2523,
      "Bu": 2524,
      "DRO": 2525,
      "KE": 2526,
      "LECT": 2527,
      "TAB": 2528,
      "WHERE": 2529,
      "bla": 2530,
      "cn": 2531,
      "gan": 2532,
      "Ġ256": 2533,
      "datos": 2534,
      "SELECT": 2535,
      "rea": 2536,
      "orn": 2537,
      "Ġ262": 2538,
      "arios": 2539,
      "urias": 2540,
      "ajuntament": 2541,
      "LIKE": 2542,
      "usuarios": 2543,
      "DROP": 2544,
      "TABLE": 2545,
      "/_": 2546,
      "065": 2547,
      "075": 2548,
      "081": 2549,
      "564": 2550,
      "749": 2551,
      "784": 2552,
      "844": 2553,
      "940": 2554,
      "Cscript": 2555,
      "Edocument": 2556,
      "Fcookie": 2557,
      "Fcgi": 2558,
      "Fhac": 2559,
      "Puer": 2560,
      "dar": 2561,
      "mor": 2562,
      "mil": 2563,
      "504": 2564,
      "054": 2565,
      "532": 2566,
      "mann": 2567,
      "steal": 2568,
      "ample": 2569,
      "example": 2570,
      "Fscript": 2571,
      "location": 2572,
      "Fcookiesteal": 2573,
      "Fhacker": 2574,
      "077": 2575,
      "084": 2576,
      "364": 2577,
      "548": 2578,
      "568": 2579,
      "575": 2580,
      "648": 2581,
      "785": 2582,
      "748": 2583,
      "987": 2584,
      "Ros": 2585,
      "Sierra": 2586,
      "esp": 2587,
      "gui": 2588,
      "ento": 2589,
      "Casti": 2590,
      "798": 2591,
      "578": 2592,
      "958": 2593,
      "074": 2594,
      "042": 2595,
      "264": 2596,
      "373": 2597,
      "321": 2598,
      "428": 2599,
      "710": 2600,
      "774": 2601,
      "982": 2602,
      "har": 2603,
      "od": 2604,
      "laga": 2605,
      "coa": 2606,
      "seo": 2607,
      "091": 2608,
      "701": 2609,
      "sad": 2610,
      "Ġ258": 2611,
      "028": 2612,
      "014": 2613,
      "011": 2614,
      "211": 2615,
      "733": 2616,
      "716": 2617,
      "812": 2618,
      "922": 2619,
      "968": 2620,
      "973": 2621,
      "Si": 2622,
      "ano": 2623,
      "ii": 2624,
      "sd": 2625,
      "ten": 2626,
      "2562": 2627,
      "2578": 2628,
      "554": 2629,
      "354": 2630,
      "571": 2631,
      "Ġ260": 2632,
      "Asturias": 2633,
      "062": 2634,
      "261": 2635,
      "314": 2636,
      "712": 2637,
      "864": 2638,
      "964": 2639,
      "Cer": 2640,
      "bs": 2641,
      "op": 2642,
      "ts": 2643,
      "win": 2644,
      "yn": 2645,
      "cher": 2646,
      "chez": 2647,
      "dal": 2648,
      "uren": 2649,
      "591": 2650,
      "301": 2651,
      "rememberA": 2652,
      "381": 2653,
      "amon": 2654,
      "Albac": 2655,
      "Camino": 2656,
      "Albacete": 2657,
      "066": 2658,
      "082": 2659,
      "412": 2660,
      "424": 2661,
      "416": 2662,
      "561": 2663,
      "661": 2664,
      "662": 2665,
      "724": 2666,
      "822": 2667,
      "925": 2668,
      "912": 2669,
      "976": 2670,
      "He": 2671,
      "kar": 2672,
      "tur": 2673,
      "vio": 2674,
      "lie": 2675,
      "nto": 2676,
      "592": 2677,
      "031": 2678,
      "461": 2679,
      "511": 2680,
      "612": 2681,
      "766": 2682,
      "869": 2683,
      "819": 2684,
      "916": 2685,
      "dos": 2686,
      "ming": 2687,
      "vel": 2688,
      "Ġ73": 2689,
      "Ġ252": 2690,
      "mati": 2691,
      "099": 2692,
      "352": 2693,
      "902": 2694,
      "903": 2695,
      "931": 2696,
      "932": 2697,
      "Almer": 2698,
      "Monte": 2699,
      "Ġ242": 2700,
      "Ġ246": 2701,
      "025": 2702,
      "030": 2703,
      "072": 2704,
      "418": 2705,
      "768": 2706,
      "728": 2707,
      "924": 2708,
      "Don": 2709,
      "Fuente": 2710,
      "Mer": 2711,
      "jos": 2712,
      "ral": 2713,
      "sal": 2714,
      "553": 2715,
      "501": 2716,
      "371": 2717,
      "admin": 2718,
      "berg": 2719,
      "Ġ255": 2720,
      "061": 2721,
      "076": 2722,
      "861": 2723,
      "926": 2724,
      "Bor": 2725,
      "Bas": 2726,
      "Cruz": 2727,
      "ren": 2728,
      "riz": 2729,
      "emailA": 2730,
      "002": 2731,
      "pwdA": 2732,
      "936": 2733,
      "Ġ263": 2734,
      "Ġ259": 2735,
      "Sevilla": 2736,
      "761": 2737,
      "711": 2738,
      "814": 2739,
      "974": 2740,
      "Gen": 2741,
      "LET": 2742,
      "Oli": 2743,
      "gal": 2744,
      "oli": 2745,
      "rdoba": 2746,
      "vil": 2747,
      "wor": 2748,
      "SER": 2749,
      "rell": 2750,
      "ric": 2751,
      "ciano": 2752,
      "792": 2753,
      "998": 2754,
      "771": 2755,
      "384": 2756,
      "462": 2757,
      "962": 2758,
      "Cu": 2759,
      "Gra": 2760,
      "ham": 2761,
      "iro": 2762,
      "samples": 2763,
      "Ġ70": 2764,
      "dez": 2765,
      "apellidosA": 2766,
      "991": 2767,
      "996": 2768,
      "952": 2769,
      "032": 2770,
      "soy": 2771,
      "uig": 2772,
      "Franci": 2773,
      "Traves": 2774,
      "071": 2775,
      "818": 2776,
      "942": 2777,
      "Bal": 2778,
      "Ouren": 2779,
      "USER": 2780,
      "Vir": 2781,
      "kin": 2782,
      "pu": 2783,
      "zu": 2784,
      "Ġ253": 2785,
      "Ġ57": 2786,
      "char": 2787,
      "DELET": 2788,
      "Ġ265": 2789,
      "Maria": 2790,
      "Pedro": 2791,
      "examples": 2792,
      "Ġ244": 2793,
      "Ourense": 2794,
      "USERS": 2795,
      "DELETE": 2796,
      "566": 2797,
      "534": 2798,
      "828": 2799,
      "816": 2800,
      "914": 2801,
      "934": 2802,
      "Fi": 2803,
      "Ho": 2804,
      "Lla": 2805,
      "Mur": 2806,
      "bon": 2807,
      "cy": 2808,
      "gg": 2809,
      "we": 2810,
      "zca": 2811,
      "are": 2812,
      "cion": 2813,
      "dis": 2814,
      "956": 2815,
      "berto": 2816,
      "Aven": 2817,
      "012": 2818,
      "582": 2819,
      "868": 2820,
      "921": 2821,
      "946": 2822,
      "Bstyle": 2823,
      "gre": 2824,
      "mel": 2825,
      "ph": 2826,
      "pp": 2827,
      "uda": 2828,
      "wen": 2829,
      "one": 2830,
      "Cala": 2831,
      "ntcA": 2832,
      "551": 2833,
      "776": 2834,
      "052": 2835,
      "Avenida": 2836,
      "034": 2837,
      "266": 2838,
      "522": 2839,
      "788": 2840,
      "944": 2841,
      "971": 2842,
      "Ni": 2843,
      "rs": 2844,
      "ray": 2845,
      "351": 2846,
      "cantidadA": 2847,
      "382": 2848,
      "051": 2849,
      "amar": 2850,
      "781": 2851,
      "barcelona": 2852,
      "liano": 2853,
      "gon": 2854,
      "jas": 2855,
      "ment": 2856,
      "ring": 2857,
      "sto": 2858,
      "tw": 2859,
      "dea": 2860,
      "passwordA": 2861,
      "596": 2862,
      "995": 2863,
      "951": 2864,
      "086": 2865,
      "721": 2866,
      "862": 2867,
      "Esc": 2868,
      "Llo": 2869,
      "Per": 2870,
      "cur": 2871,
      "mos": 2872,
      "lino": 2873,
      "line": 2874,
      "cios": 2875,
      "direccionA": 2876,
      "FAz": 2877,
      "796": 2878,
      "vera": 2879,
      "Ġ241": 2880,
      "Francisco": 2881,
      "024": 2882,
      "426": 2883,
      "562": 2884,
      "726": 2885,
      "826": 2886,
      "941": 2887,
      "Huel": 2888,
      "Pra": 2889,
      "ben": 2890,
      "cla": 2891,
      "far": 2892,
      "ku": 2893,
      "ola": 2894,
      "htm": 2895,
      "Agu": 2896,
      "provinciaA": 2897,
      "552": 2898,
      "531": 2899,
      "036": 2900,
      "bert": 2901,
      "Ġ257": 2902,
      "Travesia": 2903,
      "041": 2904,
      "588": 2905,
      "521": 2906,
      "542": 2907,
      "Pal": 2908,
      "Puig": 2909,
      "Sol": 2910,
      "dd": 2911,
      "mag": 2912,
      "wal": 2913,
      "ze": 2914,
      "Ġ69": 2915,
      "oni": 2916,
      "EDas": 2917,
      "cpA": 2918,
      "Ġ245": 2919,
      "hiper": 2920,
      "Avda": 2921,
      "ession": 2922,
      "Puerto": 2923,
      "362": 2924,
      "988": 2925,
      "bb": 2926,
      "blo": 2927,
      "nie": 2928,
      "rin": 2929,
      "uk": 2930,
      "yen": 2931,
      "leta": 2932,
      "ciudadA": 2933,
      "casa": 2934,
      "999": 2935,
      "Ġ243": 2936,
      "Doctor": 2937,
      "Carretera": 2938,
      "Huelva": 2939,
      "044": 2940,
      "021": 2941,
      "986": 2942,
      "Bi": 2943,
      "Est": 2944,
      "Gal": 2945,
      "On": 2946,
      "Za": 2947,
      "mes": 2948,
      "nar": 2949,
      "vent": 2950,
      "ssa": 2951,
      "dniA": 2952,
      "Antonio": 2953,
      "sky": 2954,
      "*%": 2955,
      "586": 2956,
      "972": 2957,
      "Ad": 2958,
      "Ama": 2959,
      "Cla": 2960,
      "Cap": 2961,
      "Web": 2962,
      "fan": 2963,
      "992": 2964,
      "Pala": 2965,
      "Mont": 2966,
      "And": 2967,
      "Guip": 2968,
      "FAzcoa": 2969,
      "518": 2970,
      "574": 2971,
      "541": 2972,
      "aje": 2973,
      "cr": 2974,
      "hen": 2975,
      "hol": 2976,
      "dera": 2977,
      "eck": 2978,
      "Ġ240": 2979,
      "Ġ261": 2980,
      "uis": 2981,
      "Santi": 2982,
      "sha": 2983,
      "Vall": 2984,
      "Campo": 2985,
      "046": 2986,
      "366": 2987,
      "516": 2988,
      "966": 2989,
      "Men": 2990,
      "Mig": 2991,
      "Pu": 2992,
      "bri": 2993,
      "cer": 2994,
      "gor": 2995,
      "om": 2996,
      "tte": 2997,
      "wil": 2998,
      "ong": 2999,
      "imo": 3000,
      "mente": 3001,
      "Vizca": 3002,
      "Valle": 3003,
      "Villar": 3004,
      "Vizcaya": 3005,
      "-%": 3006,
      "Hu": 3007,
      "II": 3008,
      "Mal": 3009,
      "Ol": 3010,
      "bes": 3011,
      "bia": 3012,
      "cin": 3013,
      "dina": 3014,
      "ges": 3015,
      "tv": 3016,
      "vie": 3017,
      "onso": 3018,
      "agu": 3019,
      "ses": 3020,
      "nge": 3021,
      "leares": 3022,
      "SSamples": 3023,
      "gol": 3024,
      "ador": 3025,
      "sho": 3026,
      "Baleares": 3027,
      "Feli": 3028,
      "madrid": 3029,
      "sdk": 3030,
      "IISSamples": 3031,
      "026": 3032,
      "Ru": 3033,
      "Ti": 3034,
      "fession": 3035,
      "uz": 3036,
      "vti": 3037,
      "tec": 3038,
      "ines": 3039,
      "nova": 3040,
      "llan": 3041,
      "mbra": 3042,
      "ther": 3043,
      "auto": 3044,
      "372": 3045,
      "ney": 3046,
      "Illes": 3047,
      "fessional": 3048,
      "Este": 3049,
      "ala": 3050,
      "bet": 3051,
      "cen": 3052,
      "eg": 3053,
      "hn": 3054,
      "hy": 3055,
      "wo": 3056,
      "whi": 3057,
      "rer": 3058,
      "Rey": 3059,
      "Ġ269": 3060,
      "Ala": 3061,
      "Cue": 3062,
      "Ver": 3063,
      "ay": 3064,
      "bru": 3065,
      "ji": 3066,
      "mun": 3067,
      "pol": 3068,
      "sof": 3069,
      "tero": 3070,
      "tia": 3071,
      "tis": 3072,
      "may": 3073,
      "pain": 3074,
      "nta": 3075,
      "aul": 3076,
      "land": 3077,
      "nsf": 3078,
      "Hor": 3079,
      "Pan": 3080,
      "mul": 3081,
      "ny": 3082,
      "sl": 3083,
      "xi": 3084,
      "tella": 3085,
      "eci": 3086,
      "imi": 3087,
      "lero": 3088,
      "rey": 3089,
      "rist": 3090,
      "ello": 3091,
      "ull": 3092,
      "Ġ266": 3093,
      "zaro": 3094,
      "Paseo": 3095,
      "Ponte": 3096,
      "=*": 3097,
      "Bra": 3098,
      "Far": 3099,
      "Lar": 3100,
      "eu": 3101,
      "fr": 3102,
      "gran": 3103,
      "ks": 3104,
      "Ġ42": 3105,
      "ins": 3106,
      "sel": 3107,
      "ario": 3108,
      "Cami": 3109,
      "quer": 3110,
      "reda": 3111,
      "rera": 3112,
      "Ġ264": 3113,
      "vide": 3114,
      "she": 3115,
      "Am": 3116,
      "Bon": 3117,
      "Ben": 3118,
      "Blan": 3119,
      "Sil": 3120,
      "dr": 3121,
      "ita": 3122,
      "ky": 3123,
      "py": 3124,
      "Ġ239": 3125,
      "tele": 3126,
      "ens": 3127,
      "enla": 3128,
      "col": 3129,
      "audi": 3130,
      "Ġ267": 3131,
      "Alb": 3132,
      "Lugo": 3133,
      "Miguel": 3134,
      "For": 3135,
      "Ger": 3136,
      "ach": 3137,
      "bus": 3138,
      "istra": 3139,
      "jes": 3140,
      "tico": 3141,
      "ting": 3142,
      "pal": 3143,
      "Cast": 3144,
      "IDE": 3145,
      "cial": 3146,
      "pez": 3147,
      "anda": 3148,
      "EDs": 3149,
      "CFIDE": 3150,
      "Ques": 3151,
      "Alcal": 3152,
      "mira": 3153,
      "monte": 3154,
      "cfm": 3155,
      "administra": 3156,
      "administrator": 3157,
      "Au": 3158,
      "Ara": 3159,
      "dora": 3160,
      "ea": 3161,
      "nu": 3162,
      "tura": 3163,
      "yan": 3164,
      "Ġ238": 3165,
      "lado": 3166,
      "inter": 3167,
      "dev": 3168,
      "ime": 3169,
      "Casa": 3170,
      "red": 3171,
      "esca": 3172,
      "acio": 3173,
      "Ġ268": 3174,
      "vic": 3175,
      "EN": 3176,
      "Eli": 3177,
      "Isa": 3178,
      "Je": 3179,
      "Ron": 3180,
      "Sag": 3181,
      "Sar": 3182,
      "cli": 3183,
      "ella": 3184,
      "hos": 3185,
      "hal": 3186,
      "jon": 3187,
      "nc": 3188,
      "ps": 3189,
      "sz": 3190,
      "tj": 3191,
      "vlet": 3192,
      "Ġ270": 3193,
      "Ġ237": 3194,
      "lig": 3195,
      "kel": 3196,
      "Mora": 3197,
      "espa": 3198,
      "ers": 3199,
      "Arro": 3200,
      "Mart": 3201,
      "ster": 3202,
      "May": 3203,
      "Rodri": 3204,
      "verde": 3205,
      "Leon": 3206,
      "ders": 3207,
      "Torres": 3208,
      "Castro": 3209,
      "Casas": 3210,
      "Lor": 3211,
      "Tr": 3212,
      "ate": 3213,
      "ale": 3214,
      "die": 3215,
      "guer": 3216,
      "sr": 3217,
      "sar": 3218,
      "laz": 3219,
      "dol": 3220,
      "nico": 3221,
      "nueva": 3222,
      "dell": 3223,
      "bera": 3224,
      "Arag": 3225,
      "CO": 3226,
      "Nu": 3227,
      "Pad": 3228,
      "Sp": 3229,
      "Su": 3230,
      "cti": 3231,
      "ela": 3232,
      "ila": 3233,
      "ito": 3234,
      "sj": 3235,
      "sn": 3236,
      "tran": 3237,
      "zon": 3238,
      "lava": 3239,
      "ieta": 3240,
      "lez": 3241,
      "lena": 3242,
      "ston": 3243,
      "Pasaje": 3244,
      "Manuel": 3245,
      "Alf": 3246,
      ".%": 3247,
      "Ex": 3248,
      "Gor": 3249,
      "Luis": 3250,
      "Mai": 3251,
      "Sim": 3252,
      "cs": 3253,
      "iz": 3254,
      "kim": 3255,
      "ple": 3256,
      "uni": 3257,
      "eno": 3258,
      "infor": 3259,
      "deh": 3260,
      "ardo": 3261,
      "maj": 3262,
      "uero": 3263,
      "gio": 3264,
      "rillo": 3265,
      "cars": 3266,
      "ford": 3267,
      "rat": 3268,
      "Salva": 3269,
      "Quin": 3270,
      "Virgen": 3271,
      "informati": 3272,
      "Dan": 3273,
      "Gr": 3274,
      "Ig": 3275,
      "Mag": 3276,
      "Plan": 3277,
      "ali": 3278,
      "cz": 3279,
      "lec": 3280,
      "sas": 3281,
      "uro": 3282,
      "Ġ8": 3283,
      "Ġ56": 3284,
      "Ġ235": 3285,
      "cci": 3286,
      "lores": 3287,
      "uelas": 3288,
      "quez": 3289,
      "rich": 3290,
      "eral": 3291,
      "elli": 3292,
      "sol": 3293,
      "onales": 3294,
      "nez": 3295,
      "Pass": 3296,
      "vedra": 3297,
      "uena": 3298,
      "Villanueva": 3299,
      "linda": 3300,
      "ajuntamentbarcelona": 3301,
      "Ali": 3302,
      "Aba": 3303,
      "Bell": 3304,
      "Beni": 3305,
      "Du": 3306,
      "Fuen": 3307,
      "Ir": 3308,
      "mcc": 3309,
      "sin": 3310,
      "up": 3311,
      "yi": 3312,
      "cam": 3313,
      "teo": 3314,
      "iego": 3315,
      "rel": 3316,
      "cis": 3317,
      "the": 3318,
      "rosa": 3319,
      "professional": 3320,
      "atge": 3321,
      "aniz": 3322,
      "Passatge": 3323,
      "Fab": 3324,
      "Pro": 3325,
      "gh": 3326,
      "kh": 3327,
      "nf": 3328,
      "rub": 3329,
      "Ġ77": 3330,
      "Ġ236": 3331,
      "chu": 3332,
      "mac": 3333,
      "uez": 3334,
      "inguda": 3335,
      "Mor": 3336,
      "reta": 3337,
      "riba": 3338,
      "esa": 3339,
      "est": 3340,
      "illos": 3341,
      "ett": 3342,
      "bay": 3343,
      "Avinguda": 3344,
      "Garcia": 3345,
      "iiss": 3346,
      "Cub": 3347,
      "Samples": 3348,
      "bl": 3349,
      "cA": 3350,
      "cro": 3351,
      "dE": 3352,
      "mur": 3353,
      "pos": 3354,
      "qa": 3355,
      "tn": 3356,
      "vu": 3357,
      "Ġ273": 3358,
      "camp": 3359,
      "tino": 3360,
      "lad": 3361,
      "degol": 3362,
      "apa": 3363,
      "nor": 3364,
      "ngel": 3365,
      "mat": 3366,
      "gil": 3367,
      "uran": 3368,
      "rado": 3369,
      "ofer": 3370,
      "guez": 3371,
      "nandez": 3372,
      "Ay": 3373,
      "Gon": 3374,
      "Ll": 3375,
      "Nar": 3376,
      "Qui": 3377,
      "TE": 3378,
      "TI": 3379,
      "ant": 3380,
      "eas": 3381,
      "gl": 3382,
      "ili": 3383,
      "kp": 3384,
      "nal": 3385,
      "pl": 3386,
      "pv": 3387,
      "samp": 3388,
      "vol": 3389,
      "Ġ37": 3390,
      "tic": 3391,
      "indo": 3392,
      "lom": 3393,
      "lei": 3394,
      "lem": 3395,
      "ueva": 3396,
      "Cata": 3397,
      "ret": 3398,
      "resa": 3399,
      "mbo": 3400,
      "8765": 3401,
      "say": 3402,
      "zano": 3403,
      "Martin": 3404,
      "club": 3405,
      "Murcia": 3406,
      "Pontevedra": 3407,
      "degolf": 3408,
      "pvt": 3409,
      "Aran": 3410,
      "Adel": 3411,
      "Br": 3412,
      "FRioja": 3413,
      "Jor": 3414,
      "Tene": 3415,
      "Vie": 3416,
      "aw": 3417,
      "cv": 3418,
      "dj": 3419,
      "eh": 3420,
      "eo": 3421,
      "ejo": 3422,
      "gun": 3423,
      "jet": 3424,
      "kr": 3425,
      "mue": 3426,
      "mus": 3427,
      "oz": 3428,
      "wel": 3429,
      "zm": 3430,
      "zas": 3431,
      "cado": 3432,
      "til": 3433,
      "enzo": 3434,
      "china": 3435,
      "apla": 3436,
      "ques": 3437,
      "rick": 3438,
      "rife": 3439,
      "illi": 3440,
      "mez": 3441,
      "dun": 3442,
      "stein": 3443,
      "shi": 3444,
      "Pere": 3445,
      "Valde": 3446,
      "Villal": 3447,
      "Doming": 3448,
      "Urb": 3449,
      "+.*%": 3450,
      "violeta": 3451,
      "App": 3452,
      "Bru": 3453,
      "Fig": 3454,
      "Flor": 3455,
      "Huer": 3456,
      "Serra": 3457,
      "Script": 3458,
      "Ven": 3459,
      "bn": 3460,
      "bos": 3461,
      "cente": 3462,
      "eta": 3463,
      "edu": 3464,
      "fra": 3465,
      "ias": 3466,
      "msad": 3467,
      "np": 3468,
      "sim": 3469,
      "wn": 3470,
      "Ġ271": 3471,
      "cad": 3472,
      "tea": 3473,
      "chin": 3474,
      "sext": 3475,
      "data": 3476,
      "lea": 3477,
      "lera": 3478,
      "uber": 3479,
      "diz": 3480,
      "rica": 3481,
      "2387": 3482,
      "6945": 3483,
      "6020": 3484,
      "carritoany": 3485,
      "adilla": 3486,
      "bol": 3487,
      "Barri": 3488,
      "bella": 3489,
      "Nava": 3490,
      "Santo": 3491,
      "Valverde": 3492,
      "andre": 3493,
      "Tenerife": 3494,
      "As": 3495,
      "Fre": 3496,
      "Ming": 3497,
      "Pr": 3498,
      "Zu": 3499,
      "bcn": 3500,
      "ey": 3501,
      "gs": 3502,
      "hir": 3503,
      "hard": 3504,
      "ica": 3505,
      "ico": 3506,
      "mir": 3507,
      "ping": 3508,
      "sb": 3509,
      "xa": 3510,
      "zuela": 3511,
      "Ġ55": 3512,
      "Ġ76": 3513,
      "tell": 3514,
      "lit": 3515,
      "api": 3516,
      "sey": 3517,
      "arro": 3518,
      "eros": 3519,
      "6527": 3520,
      "4755": 3521,
      "ash": 3522,
      "vina": 3523,
      "4865": 3524,
      "mero": 3525,
      "stru": 3526,
      "sant": 3527,
      "etti": 3528,
      "mis": 3529,
      "Maes": 3530,
      "mera": 3531,
      "hote": 3532,
      "hoja": 3533,
      "quin": 3534,
      "travioleta": 3535,
      "long": 3536,
      "Az": 3537,
      "Ame": 3538,
      "Cru": 3539,
      "Flo": 3540,
      "Gas": 3541,
      "Pue": 3542,
      "Ramon": 3543,
      "ao": 3544,
      "bj": 3545,
      "dre": 3546,
      "mx": 3547,
      "nau": 3548,
      "pm": 3549,
      "tE": 3550,
      "zr": 3551,
      "Ġ234": 3552,
      "cano": 3553,
      "cant": 3554,
      "rol": 3555,
      "apo": 3556,
      "mal": 3557,
      "uelos": 3558,
      "Cabe": 3559,
      "orca": 3560,
      "4073": 3561,
      "pes": 3562,
      "mobi": 3563,
      "stan": 3564,
      "ller": 3565,
      "vis": 3566,
      "Marti": 3567,
      "here": 3568,
      "ells": 3569,
      "Rafa": 3570,
      "lyn": 3571,
      "General": 3572,
      "white": 3573,
      "softw": 3574,
      "=.": 3575,
      "Cur": 3576,
      "Para": 3577,
      "Ram": 3578,
      "bor": 3579,
      "blan": 3580,
      "cle": 3581,
      "dur": 3582,
      "ee": 3583,
      "fle": 3584,
      "fel": 3585,
      "lv": 3586,
      "mm": 3587,
      "nes": 3588,
      "rent": 3589,
      "sla": 3590,
      "uli": 3591,
      "use": 3592,
      "vier": 3593,
      "wf": 3594,
      "tet": 3595,
      "cch": 3596,
      "nom": 3597,
      "uelo": 3598,
      "ueta": 3599,
      "servi": 3600,
      "quet": 3601,
      "spar": 3602,
      "4059": 3603,
      "mode": 3604,
      "1713": 3605,
      "1939": 3606,
      "mari": 3607,
      "Valder": 3608,
      "linos": 3609,
      "munt": 3610,
      "Corre": 3611,
      "Fede": 3612,
      "webapp": 3613,
      "Campos": 3614,
      "Espa": 3615,
      "show": 3616,
      "Arroyo": 3617,
      "BScript": 3618,
      "Ces": 3619,
      "Glor": 3620,
      "Nog": 3621,
      "VBScript": 3622,
      "cg": 3623,
      "fu": 3624,
      "gada": 3625,
      "hk": 3626,
      "hue": 3627,
      "hel": 3628,
      "iq": 3629,
      "iti": 3630,
      "ire": 3631,
      "kz": 3632,
      "lc": 3633,
      "mg": 3634,
      "mw": 3635,
      "mia": 3636,
      "ot": 3637,
      "pra": 3638,
      "tg": 3639,
      "tk": 3640,
      "tta": 3641,
      "tru": 3642,
      "una": 3643,
      "wer": 3644,
      "zy": 3645,
      "tica": 3646,
      "lada": 3647,
      "8029": 3648,
      "8069": 3649,
      "lian": 3650,
      "dero": 3651,
      "sell": 3652,
      "dado": 3653,
      "pas": 3654,
      "rero": 3655,
      "dilla": 3656,
      "6927": 3657,
      "6905": 3658,
      "1917": 3659,
      "1975": 3660,
      "4867": 3661,
      "aud": 3662,
      "6460": 3663,
      "6220": 3664,
      "sala": 3665,
      "tat": 3666,
      "zada": 3667,
      "bala": 3668,
      "gat": 3669,
      "ols": 3670,
      "Palo": 3671,
      "Mata": 3672,
      "ign": 3673,
      "hipe": 3674,
      "anilla": 3675,
      "Joan": 3676,
      "Domingo": 3677,
      "Glorieta": 3678,
      "=+&": 3679,
      "AL": 3680,
      "DO": 3681,
      "Fres": 3682,
      "Mos": 3683,
      "Puente": 3684,
      "Sen": 3685,
      "Ya": 3686,
      "cra": 3687,
      "fal": 3688,
      "gw": 3689,
      "gin": 3690,
      "hr": 3691,
      "ken": 3692,
      "lb": 3693,
      "mk": 3694,
      "nz": 3695,
      "sm": 3696,
      "star": 3697,
      "tl": 3698,
      "vc": 3699,
      "war": 3700,
      "ys": 3701,
      "Ġ231": 3702,
      "tina": 3703,
      "laya": 3704,
      "8056": 3705,
      "lod": 3706,
      "ies": 3707,
      "quera": 3708,
      "2511": 3709,
      "esc": 3710,
      "cias": 3711,
      "sson": 3712,
      "8339": 3713,
      "2819": 3714,
      "ball": 3715,
      "stin": 3716,
      "teria": 3717,
      "7119": 3718,
      "Manzan": 3719,
      "vida": 3720,
      "Carlos": 3721,
      "travel": 3722,
      "andro": 3723,
      "Lopez": 3724,
      "sanchez": 3725,
      "Quint": 3726,
      "Alex": 3727,
      "iissamples": 3728,
      "Urbaniz": 3729,
      "Rafael": 3730,
      "Ac": 3731,
      "Air": 3732,
      "CI": 3733,
      "Cri": 3734,
      "Fru": 3735,
      "Forn": 3736,
      "Gin": 3737,
      "Gre": 3738,
      "Hi": 3739,
      "Oro": 3740,
      "Rui": 3741,
      "aq": 3742,
      "bio": 3743,
      "dbs": 3744,
      "eli": 3745,
      "gri": 3746,
      "hat": 3747,
      "kn": 3748,
      "pres": 3749,
      "rw": 3750,
      "tm": 3751,
      "tech": 3752,
      "lag": 3753,
      "ching": 3754,
      "aria": 3755,
      "servlet": 3756,
      "quel": 3757,
      "ciru": 3758,
      "2545": 3759,
      "gia": 3760,
      "doro": 3761,
      "rida": 3762,
      "riva": 3763,
      "anes": 3764,
      "2939": 3765,
      "1788": 3766,
      "2360": 3767,
      "6313": 3768,
      "1364": 3769,
      "1307": 3770,
      "6564": 3771,
      "4313": 3772,
      "6780": 3773,
      "6763": 3774,
      "6714": 3775,
      "1949": 3776,
      "4743": 3777,
      "8749": 3778,
      "2009": 3779,
      "2014": 3780,
      "adia": 3781,
      "tari": 3782,
      "6815": 3783,
      "ace": 3784,
      "jada": 3785,
      "9365": 3786,
      "ette": 3787,
      "Alde": 3788,
      "ados": 3789,
      "vella": 3790,
      "llon": 3791,
      "Perez": 3792,
      "fica": 3793,
      "Montes": 3794,
      "sito": 3795,
      "viajes": 3796,
      "Ferre": 3797,
      "way": 3798,
      "ajuntamentde": 3799,
      "WebSp": 3800,
      "Cuesta": 3801,
      "ExAir": 3802,
      "Gonza": 3803,
      "hojainformati": 3804,
      "hereSamples": 3805,
      "dbsamp": 3806,
      "WebSphereSamples": 3807,
      "At": 3808,
      "Bel": 3809,
      "Blas": 3810,
      "Ceci": 3811,
      "Dor": 3812,
      "Eche": 3813,
      "Gab": 3814,
      "Hon": 3815,
      "Jos": 3816,
      "Medi": 3817,
      "Nor": 3818,
      "RE": 3819,
      "Rec": 3820,
      "Rub": 3821,
      "Res": 3822,
      "Rosa": 3823,
      "Sel": 3824,
      "Vin": 3825,
      "Zo": 3826,
      "ama": 3827,
      "bil": 3828,
      "cI": 3829,
      "cpan": 3830,
      "fj": 3831,
      "fla": 3832,
      "hon": 3833,
      "hil": 3834,
      "hua": 3835,
      "ise": 3836,
      "ian": 3837,
      "lt": 3838,
      "mh": 3839,
      "nr": 3840,
      "ning": 3841,
      "naci": 3842,
      "nell": 3843,
      "pis": 3844,
      "sur": 3845,
      "vell": 3846,
      "Ġ276": 3847,
      "tit": 3848,
      "tila": 3849,
      "tivo": 3850,
      "tillo": 3851,
      "encia": 3852,
      "uera": 3853,
      "Camer": 3854,
      "Agui": 3855,
      "bles": 3856,
      "rella": 3857,
      "ort": 3858,
      "mba": 3859,
      "2595": 3860,
      "4027": 3861,
      "4031": 3862,
      "uru": 3863,
      "rigo": 3864,
      "more": 3865,
      "caraz": 3866,
      "alle": 3867,
      "1000": 3868,
      "1003": 3869,
      "2955": 3870,
      "1797": 3871,
      "6360": 3872,
      "6399": 3873,
      "1599": 3874,
      "6920": 3875,
      "6567": 3876,
      "6729": 3877,
      "8781": 3878,
      "2018": 3879,
      "Reina": 3880,
      "1865": 3881,
      "6887": 3882,
      "6147": 3883,
      "auti": 3884,
      "aula": 3885,
      "5715": 3886,
      "Alc": 3887,
      "Alco": 3888,
      "base": 3889,
      "Vilar": 3890,
      "Vicente": 3891,
      "bour": 3892,
      "exp": 3893,
      "site": 3894,
      "Riu": 3895,
      "Parque": 3896,
      "wood": 3897,
      "zarote": 3898,
      "Mayor": 3899,
      "Rodriguez": 3900,
      "Puebla": 3901,
      "Urbanizacion": 3902,
      "cpanel": 3903,
      "Cameros": 3904,
      "Cin": 3905,
      "Diego": 3906,
      "Hig": 3907,
      "Pelli": 3908,
      "Tre": 3909,
      "Via": 3910,
      "bie": 3911,
      "bara": 3912,
      "brid": 3913,
      "cx": 3914,
      "ds": 3915,
      "dz": 3916,
      "din": 3917,
      "ef": 3918,
      "fil": 3919,
      "ide": 3920,
      "jal": 3921,
      "kw": 3922,
      "rE": 3923,
      "Ġ78": 3924,
      "Ġ275": 3925,
      "Ġ233": 3926,
      "Ġ272": 3927,
      "ons": 3928,
      "cala": 3929,
      "coco": 3930,
      "deal": 3931,
      "low": 3932,
      "seig": 3933,
      "mala": 3934,
      "Cana": 3935,
      "Com": 3936,
      "kov": 3937,
      "Cha": 3938,
      "reg": 3939,
      "2585": 3940,
      "2539": 3941,
      "4017": 3942,
      "4015": 3943,
      "mol": 3944,
      "esto": 3945,
      "ans": 3946,
      "anne": 3947,
      "1029": 3948,
      "1009": 3949,
      "2943": 3950,
      "2381": 3951,
      "1349": 3952,
      "8543": 3953,
      "1560": 3954,
      "6583": 3955,
      "6787": 3956,
      "1947": 3957,
      "2065": 3958,
      "8319": 3959,
      "1249": 3960,
      "4817": 3961,
      "4823": 3962,
      "1829": 3963,
      "ram": 3964,
      "6117": 3965,
      "6167": 3966,
      "5565": 3967,
      "5520": 3968,
      "1463": 3969,
      "6285": 3970,
      "5949": 3971,
      "2420": 3972,
      "7269": 3973,
      "5812": 3974,
      "gold": 3975,
      "llero": 3976,
      "Pastor": 3977,
      "zara": 3978,
      "bot": 3979,
      "Aren": 3980,
      "Arriba": 3981,
      "mila": 3982,
      "Valen": 3983,
      "toria": 3984,
      "luz": 3985,
      "bios": 3986,
      "heal": 3987,
      "mine": 3988,
      "mont": 3989,
      "andra": 3990,
      "guera": 3991,
      "Urg": 3992,
      "tinas": 3993,
      "Vilanova": 3994,
      "risto": 3995,
      "pintor": 3996,
      "examplesWeb": 3997,
      "ringring": 3998,
      "Ronda": 3999,
      "espacio": 4000,
      "msadc": 4001,
      "examplesWebApp": 4002,
      "=-": 4003,
      "Ana": 4004,
      "Ban": 4005,
      "Fl": 4006,
      "Les": 4007,
      "Mel": 4008,
      "Os": 4009,
      "Pet": 4010,
      "RI": 4011,
      "Rie": 4012,
      "Vent": 4013,
      "ae": 4014,
      "av": 4015,
      "bana": 4016,
      "ear": 4017,
      "his": 4018,
      "ib": 4019,
      "illa": 4020,
      "jer": 4021,
      "kos": 4022,
      "oh": 4023,
      "pio": 4024,
      "tc": 4025,
      "vg": 4026,
      "zal": 4027,
      "tek": 4028,
      "8013": 4029,
      "8089": 4030,
      "8059": 4031,
      "enel": 4032,
      "enlan": 4033,
      "info": 4034,
      "osta": 4035,
      "logi": 4036,
      "novi": 4037,
      "seca": 4038,
      "Conde": 4039,
      "dav": 4040,
      "mani": 4041,
      "4019": 4042,
      "2745": 4043,
      "2759": 4044,
      "2781": 4045,
      "movil": 4046,
      "aldo": 4047,
      "1765": 4048,
      "1730": 4049,
      "2317": 4050,
      "1523": 4051,
      "1505": 4052,
      "4307": 4053,
      "4729": 4054,
      "4500": 4055,
      "6049": 4056,
      "adio": 4057,
      "FAcar": 4058,
      "1285": 4059,
      "1287": 4060,
      "4825": 4061,
      "0900": 4062,
      "1813": 4063,
      "1845": 4064,
      "1860": 4065,
      "audio": 4066,
      "1113": 4067,
      "2423": 4068,
      "3748": 4069,
      "8813": 4070,
      "8869": 4071,
      "2169": 4072,
      "stica": 4073,
      "1648": 4074,
      "cortinas": 4075,
      "gov": 4076,
      "tado": 4077,
      "iano": 4078,
      "ultor": 4079,
      "ultravioleta": 4080,
      "Alto": 4081,
      "Sanchez": 4082,
      "jobs": 4083,
      "Naval": 4084,
      "ebac": 4085,
      "Polig": 4086,
      "docs": 4087,
      "raso": 4088,
      "Mira": 4089,
      "fredo": 4090,
      "cnf": 4091,
      "Praza": 4092,
      "hosting": 4093,
      "blue": 4094,
      "database": 4095,
      "hoteles": 4096,
      "Gonzalez": 4097,
      "enlanzarote": 4098,
      "Poligono": 4099,
      "/~": 4100,
      "Ari": 4101,
      "Ace": 4102,
      "Ador": 4103,
      "Ed": 4104,
      "Iz": 4105,
      "Lli": 4106,
      "Min": 4107,
      "Mun": 4108,
      "Pine": 4109,
      "Sau": 4110,
      "Zor": 4111,
      "Zur": 4112,
      "ax": 4113,
      "ang": 4114,
      "ado": 4115,
      "bt": 4116,
      "bv": 4117,
      "bog": 4118,
      "bran": 4119,
      "dona": 4120,
      "eN": 4121,
      "ech": 4122,
      "ffe": 4123,
      "gd": 4124,
      "iN": 4125,
      "iri": 4126,
      "jm": 4127,
      "jen": 4128,
      "jor": 4129,
      "km": 4130,
      "mtos": 4131,
      "pper": 4132,
      "sie": 4133,
      "scha": 4134,
      "ski": 4135,
      "td": 4136,
      "vir": 4137,
      "Ġ277": 4138,
      "tegui": 4139,
      "tienes": 4140,
      "lam": 4141,
      "8022": 4142,
      "enie": 4143,
      "lilla": 4144,
      "agua": 4145,
      "chea": 4146,
      "coop": 4147,
      "sex": 4148,
      "arte": 4149,
      "led": 4150,
      "lee": 4151,
      "leda": 4152,
      "enta": 4153,
      "losa": 4154,
      "kes": 4155,
      "rei": 4156,
      "ube": 4157,
      "2581": 4158,
      "4089": 4159,
      "rique": 4160,
      "2770": 4161,
      "2735": 4162,
      "alon": 4163,
      "alma": 4164,
      "1063": 4165,
      "1031": 4166,
      "2987": 4167,
      "1769": 4168,
      "1771": 4169,
      "1701": 4170,
      "8547": 4171,
      "8597": 4172,
      "tools": 4173,
      "6989": 4174,
      "6573": 4175,
      "4325": 4176,
      "4326": 4177,
      "1955": 4178,
      "4713": 4179,
      "8747": 4180,
      "8730": 4181,
      "8703": 4182,
      "2015": 4183,
      "4543": 4184,
      "6050": 4185,
      "6099": 4186,
      "6095": 4187,
      "8379": 4188,
      "8355": 4189,
      "4913": 4190,
      "2219": 4191,
      "1229": 4192,
      "1267": 4193,
      "0919": 4194,
      "1880": 4195,
      "6824": 4196,
      "6149": 4197,
      "aun": 4198,
      "6489": 4199,
      "7900": 4200,
      "6280": 4201,
      "6215": 4202,
      "6244": 4203,
      "meda": 4204,
      "2112": 4205,
      "2615": 4206,
      "4167": 4207,
      "7263": 4208,
      "menorca": 4209,
      "som": 4210,
      "tanto": 4211,
      "neo": 4212,
      "nego": 4213,
      "Arg": 4214,
      "Pablo": 4215,
      "Carras": 4216,
      "beach": 4217,
      "Sebas": 4218,
      "varez": 4219,
      "Ped": 4220,
      "bien": 4221,
      "mucho": 4222,
      "Infan": 4223,
      "burn": 4224,
      "Font": 4225,
      "Pintor": 4226,
      "cincoco": 4227,
      "devuelos": 4228,
      "Sagra": 4229,
      "lazquez": 4230,
      "ofertas": 4231,
      "gadas": 4232,
      "cpanelweb": 4233,
      "Urgell": 4234,
      "cincocolores": 4235,
      "Bure": 4236,
      "Cen": 4237,
      "Cara": 4238,
      "Eu": 4239,
      "Fu": 4240,
      "Ha": 4241,
      "Ili": 4242,
      "Jes": 4243,
      "Ori": 4244,
      "Tu": 4245,
      "Terra": 4246,
      "ame": 4247,
      "clo": 4248,
      "ev": 4249,
      "fas": 4250,
      "ght": 4251,
      "gema": 4252,
      "hl": 4253,
      "hin": 4254,
      "hag": 4255,
      "iana": 4256,
      "jue": 4257,
      "jera": 4258,
      "kg": 4259,
      "mpe": 4260,
      "pen": 4261,
      "plo": 4262,
      "rue": 4263,
      "sierra": 4264,
      "tch": 4265,
      "udi": 4266,
      "wol": 4267,
      "zw": 4268,
      "Ġ230": 4269,
      "Ġ274": 4270,
      "osti": 4271,
      "8048": 4272,
      "8073": 4273,
      "ensa": 4274,
      "chan": 4275,
      "ches": 4276,
      "roo": 4277,
      "ropa": 4278,
      "apoli": 4279,
      "nga": 4280,
      "arr": 4281,
      "maher": 4282,
      "raga": 4283,
      "ntas": 4284,
      "ori": 4285,
      "cillo": 4286,
      "2579": 4287,
      "4088": 4288,
      "ril": 4289,
      "movi": 4290,
      "molinos": 4291,
      "enga": 4292,
      "alt": 4293,
      "ann": 4294,
      "anni": 4295,
      "ander": 4296,
      "1001": 4297,
      "1729": 4298,
      "1749": 4299,
      "2339": 4300,
      "elles": 4301,
      "6339": 4302,
      "8588": 4303,
      "8532": 4304,
      "1573": 4305,
      "1555": 4306,
      "6965": 4307,
      "6999": 4308,
      "6510": 4309,
      "6529": 4310,
      "6555": 4311,
      "6559": 4312,
      "6755": 4313,
      "6750": 4314,
      "6799": 4315,
      "1990": 4316,
      "4759": 4317,
      "4750": 4318,
      "8769": 4319,
      "8745": 4320,
      "8773": 4321,
      "2079": 4322,
      "4538": 4323,
      "4590": 4324,
      "4595": 4325,
      "4578": 4326,
      "6042": 4327,
      "asia": 4328,
      "8977": 4329,
      "4967": 4330,
      "4975": 4331,
      "4974": 4332,
      "nia": 4333,
      "2283": 4334,
      "2221": 4335,
      "FCDC": 4336,
      "1219": 4337,
      "4829": 4338,
      "4863": 4339,
      "4845": 4340,
      "4889": 4341,
      "ACDB": 4342,
      "6829": 4343,
      "6820": 4344,
      "6125": 4345,
      "6440": 4346,
      "1483": 4347,
      "1185": 4348,
      "1183": 4349,
      "med": 4350,
      "met": 4351,
      "2464": 4352,
      "6669": 4353,
      "8883": 4354,
      "2187": 4355,
      "9055": 4356,
      "corjet": 4357,
      "Cresp": 4358,
      "4180": 4359,
      "stri": 4360,
      "gob": 4361,
      "9263": 4362,
      "Passeig": 4363,
      "navar": 4364,
      "aix": 4365,
      "cero": 4366,
      "wick": 4367,
      "gay": 4368,
      "Arte": 4369,
      "Barto": 4370,
      "Mala": 4371,
      "exe": 4372,
      "jeres": 4373,
      "tron": 4374,
      "Bern": 4375,
      "feli": 4376,
      "gratis": 4377,
      "essionid": 4378,
      "hann": 4379,
      "Vega": 4380,
      "Frances": 4381,
      "Palmas": 4382,
      "automovi": 4383,
      "Isabel": 4384,
      "campa": 4385,
      "aplastica": 4386,
      "showcars": 4387,
      "Fresno": 4388,
      "escuela": 4389,
      "dealcaraz": 4390,
      "sierradealcaraz": 4391,
      "automoviles": 4392,
      "Ada": 4393,
      "Bro": 4394,
      "Bri": 4395,
      "Des": 4396,
      "Edu": 4397,
      "Esca": 4398,
      "Fla": 4399,
      "Fron": 4400,
      "Gru": 4401,
      "Mes": 4402,
      "Mit": 4403,
      "Nie": 4404,
      "Nue": 4405,
      "Ren": 4406,
      "Rog": 4407,
      "Un": 4408,
      "aR": 4409,
      "bh": 4410,
      "bz": 4411,
      "bby": 4412,
      "cri": 4413,
      "cina": 4414,
      "cena": 4415,
      "fie": 4416,
      "gy": 4417,
      "isa": 4418,
      "kai": 4419,
      "mq": 4420,
      "tac": 4421,
      "uar": 4422,
      "vn": 4423,
      "vos": 4424,
      "yvi": 4425,
      "Ġ20": 4426,
      "ones": 4427,
      "camb": 4428,
      "teu": 4429,
      "tiz": 4430,
      "tido": 4431,
      "osca": 4432,
      "lal": 4433,
      "8020": 4434,
      "8055": 4435,
      "8034": 4436,
      "8071": 4437,
      "aggio": 4438,
      "dear": 4439,
      "lot": 4440,
      "nou": 4441,
      "sele": 4442,
      "seum": 4443,
      "lef": 4444,
      "manue": 4445,
      "palo": 4446,
      "Cat": 4447,
      "constru": 4448,
      "rett": 4449,
      "orio": 4450,
      "4023": 4451,
      "4047": 4452,
      "4024": 4453,
      "2725": 4454,
      "estar": 4455,
      "ania": 4456,
      "1096": 4457,
      "2915": 4458,
      "1745": 4459,
      "2335": 4460,
      "2399": 4461,
      "elda": 4462,
      "6387": 4463,
      "iol": 4464,
      "8530": 4465,
      "8553": 4466,
      "8576": 4467,
      "1515": 4468,
      "1565": 4469,
      "6969": 4470,
      "6950": 4471,
      "6951": 4472,
      "6789": 4473,
      "1928": 4474,
      "4795": 4475,
      "8767": 4476,
      "8726": 4477,
      "8757": 4478,
      "2045": 4479,
      "2098": 4480,
      "4539": 4481,
      "6075": 4482,
      "6078": 4483,
      "8900": 4484,
      "8937": 4485,
      "8359": 4486,
      "ilda": 4487,
      "4929": 4488,
      "4947": 4489,
      "4989": 4490,
      "4909": 4491,
      "4955": 4492,
      "2220": 4493,
      "2245": 4494,
      "3319": 4495,
      "3359": 4496,
      "3302": 4497,
      "0943": 4498,
      "1888": 4499,
      "6810": 4500,
      "6844": 4501,
      "7573": 4502,
      "6143": 4503,
      "7029": 4504,
      "7917": 4505,
      "5999": 4506,
      "1163": 4507,
      "2429": 4508,
      "2467": 4509,
      "7467": 4510,
      "6663": 4511,
      "6645": 4512,
      "acruz": 4513,
      "3885": 4514,
      "3865": 4515,
      "2629": 4516,
      "2645": 4517,
      "1687": 4518,
      "incorrectasany": 4519,
      "4640": 4520,
      "8145": 4521,
      "stor": 4522,
      "goog": 4523,
      "3189": 4524,
      "0883": 4525,
      "9615": 4526,
      "5183": 4527,
      "tugal": 4528,
      "vich": 4529,
      "vista": 4530,
      "Alber": 4531,
      "Albe": 4532,
      "bao": 4533,
      "delmar": 4534,
      "respa": 4535,
      "Paz": 4536,
      "Barber": 4537,
      "Barrio": 4538,
      "Marce": 4539,
      "vea": 4540,
      "shan": 4541,
      "torre": 4542,
      "Malla": 4543,
      "Guar": 4544,
      "Nazar": 4545,
      "Monti": 4546,
      "kawa": 4547,
      "jean": 4548,
      "mujeres": 4549,
      "museum": 4550,
      "hay": 4551,
      "hambra": 4552,
      "gua": 4553,
      "vilano": 4554,
      "chicas": 4555,
      "Ribera": 4556,
      "you": 4557,
      "scan": 4558,
      "Soto": 4559,
      "nando": 4560,
      "bral": 4561,
      "Gomez": 4562,
      "Calzada": 4563,
      "iisad": 4564,
      "Calatra": 4565,
      "video": 4566,
      "busca": 4567,
      "Alcalde": 4568,
      "Aragon": 4569,
      "Padre": 4570,
      "Alfonso": 4571,
      "easyvi": 4572,
      "sampsite": 4573,
      "cirugi": 4574,
      "Bureba": 4575,
      "ropadegolf": 4576,
      "google": 4577,
      "easyviaggio": 4578,
      "Ata": 4579,
      "Duero": 4580,
      "Fn": 4581,
      "Fo": 4582,
      "Ing": 4583,
      "Jun": 4584,
      "Nt": 4585,
      "Prin": 4586,
      "RA": 4587,
      "Rai": 4588,
      "Rab": 4589,
      "Van": 4590,
      "Vid": 4591,
      "Wal": 4592,
      "ain": 4593,
      "aero": 4594,
      "bm": 4595,
      "bw": 4596,
      "cO": 4597,
      "cke": 4598,
      "cub": 4599,
      "dA": 4600,
      "fon": 4601,
      "fin": 4602,
      "gel": 4603,
      "hog": 4604,
      "king": 4605,
      "kil": 4606,
      "lk": 4607,
      "mr": 4608,
      "mpwd": 4609,
      "mina": 4610,
      "nl": 4611,
      "pf": 4612,
      "sE": 4613,
      "sv": 4614,
      "vet": 4615,
      "vsky": 4616,
      "wan": 4617,
      "wat": 4618,
      "yos": 4619,
      "zana": 4620,
      "Ġ83": 4621,
      "Ġ282": 4622,
      "cata": 4623,
      "cafe": 4624,
      "tio": 4625,
      "tida": 4626,
      "tian": 4627,
      "8019": 4628,
      "8075": 4629,
      "htr": 4630,
      "cofer": 4631,
      "ages": 4632,
      "less": 4633,
      "maz": 4634,
      "ueda": 4635,
      "Cali": 4636,
      "Coro": 4637,
      "quesa": 4638,
      "kova": 4639,
      "coni": 4640,
      "mbr": 4641,
      "2547": 4642,
      "2559": 4643,
      "2557": 4644,
      "digi": 4645,
      "digo": 4646,
      "dillo": 4647,
      "4005": 4648,
      "ritor": 4649,
      "2783": 4650,
      "2750": 4651,
      "alud": 4652,
      "alhambra": 4653,
      "anueva": 4654,
      "1043": 4655,
      "1087": 4656,
      "1737": 4657,
      "1757": 4658,
      "2357": 4659,
      "elsen": 4660,
      "6354": 4661,
      "1323": 4662,
      "1313": 4663,
      "1383": 4664,
      "8598": 4665,
      "1567": 4666,
      "1530": 4667,
      "6940": 4668,
      "6947": 4669,
      "6911": 4670,
      "6953": 4671,
      "6505": 4672,
      "6590": 4673,
      "6508": 4674,
      "4323": 4675,
      "6733": 4676,
      "6784": 4677,
      "6771": 4678,
      "6703": 4679,
      "6754": 4680,
      "1987": 4681,
      "1978": 4682,
      "1993": 4683,
      "4725": 4684,
      "4789": 4685,
      "4718": 4686,
      "8774": 4687,
      "8735": 4688,
      "2075": 4689,
      "4545": 4690,
      "4599": 4691,
      "4557": 4692,
      "6040": 4693,
      "6010": 4694,
      "6047": 4695,
      "6087": 4696,
      "4987": 4697,
      "4976": 4698,
      "EDFA": 4699,
      "adiana": 4700,
      "FAs": 4701,
      "FDFC": 4702,
      "3379": 4703,
      "0989": 4704,
      "1881": 4705,
      "1886": 4706,
      "ramo": 4707,
      "6883": 4708,
      "6828": 4709,
      "7583": 4710,
      "2865": 4711,
      "2847": 4712,
      "7083": 4713,
      "aus": 4714,
      "6424": 4715,
      "7329": 4716,
      "7918": 4717,
      "7981": 4718,
      "DCCC": 4719,
      "1417": 4720,
      "6225": 4721,
      "5969": 4722,
      "5939": 4723,
      "1162": 4724,
      "media": 4725,
      "castella": 4726,
      "CDa": 4727,
      "amente": 4728,
      "1629": 4729,
      "tasde": 4730,
      "CFFC": 4731,
      "CFEB": 4732,
      "sty": 4733,
      "8289": 4734,
      "8283": 4735,
      "0323": 4736,
      "9775": 4737,
      "3610": 4738,
      "0110": 4739,
      "9443": 4740,
      "9865": 4741,
      "9162": 4742,
      "zaragoza": 4743,
      "fore": 4744,
      "Almen": 4745,
      "Saba": 4746,
      "adora": 4747,
      "runa": 4748,
      "cea": 4749,
      "cep": 4750,
      "oll": 4751,
      "Sanch": 4752,
      "berta": 4753,
      "velazquez": 4754,
      "sher": 4755,
      "vers": 4756,
      "veros": 4757,
      "Navas": 4758,
      "Bala": 4759,
      "ierro": 4760,
      "barni": 4761,
      "ebs": 4762,
      "heim": 4763,
      "Dels": 4764,
      "hang": 4765,
      "tras": 4766,
      "quie": 4767,
      "pico": 4768,
      "Riba": 4769,
      "garra": 4770,
      "Galin": 4771,
      "Luci": 4772,
      "Lugar": 4773,
      "arias": 4774,
      "quitec": 4775,
      "Feix": 4776,
      "Herman": 4777,
      "Hernandez": 4778,
      "Quir": 4779,
      "Fontan": 4780,
      "presti": 4781,
      "Isla": 4782,
      "tural": 4783,
      "Merca": 4784,
      "salva": 4785,
      "Palacios": 4786,
      "Santiago": 4787,
      "mundo": 4788,
      "mayor": 4789,
      "Salvador": 4790,
      "Huerta": 4791,
      "modelos": 4792,
      "Ruiz": 4793,
      "ajuntamentdebarcelona": 4794,
      "nacionales": 4795,
      "automovilesalhambra": 4796,
      "iisadmpwd": 4797,
      "Calatrava": 4798,
      "0093": 4799,
      "9457": 4800,
      "=_": 4801,
      "Bos": 4802,
      "Bus": 4803,
      "Bena": 4804,
      "Buena": 4805,
      "Clo": 4806,
      "CACB": 4807,
      "CECA": 4808,
      "Esg": 4809,
      "Fun": 4810,
      "Ge": 4811,
      "Llor": 4812,
      "Lagu": 4813,
      "Mir": 4814,
      "Pres": 4815,
      "Pera": 4816,
      "Ras": 4817,
      "TO": 4818,
      "Vil": 4819,
      "Xo": 4820,
      "cun": 4821,
      "dO": 4822,
      "dm": 4823,
      "dll": 4824,
      "eti": 4825,
      "eve": 4826,
      "fos": 4827,
      "gf": 4828,
      "gn": 4829,
      "hart": 4830,
      "kam": 4831,
      "lun": 4832,
      "ou": 4833,
      "pw": 4834,
      "sue": 4835,
      "sil": 4836,
      "von": 4837,
      "Ġ6": 4838,
      "Ġ22": 4839,
      "tie": 4840,
      "tiva": 4841,
      "8083": 4842,
      "entes": 4843,
      "inosa": 4844,
      "dec": 4845,
      "desp": 4846,
      "dani": 4847,
      "imar": 4848,
      "imene": 4849,
      "leo": 4850,
      "ental": 4851,
      "Caban": 4852,
      "Comp": 4853,
      "Codigo": 4854,
      "rago": 4855,
      "Agua": 4856,
      "2515": 4857,
      "4033": 4858,
      "4009": 4859,
      "4018": 4860,
      "4011": 4861,
      "4030": 4862,
      "4095": 4863,
      "urn": 4864,
      "pear": 4865,
      "pedro": 4866,
      "2787": 4867,
      "2739": 4868,
      "este": 4869,
      "estu": 4870,
      "alb": 4871,
      "alqui": 4872,
      "miel": 4873,
      "1019": 4874,
      "1083": 4875,
      "1090": 4876,
      "1739": 4877,
      "1714": 4878,
      "2378": 4879,
      "6315": 4880,
      "6395": 4881,
      "1327": 4882,
      "1301": 4883,
      "8527": 4884,
      "1548": 4885,
      "1590": 4886,
      "1595": 4887,
      "6925": 4888,
      "6985": 4889,
      "6975": 4890,
      "6937": 4891,
      "6525": 4892,
      "6593": 4893,
      "4366": 4894,
      "4337": 4895,
      "6700": 4896,
      "6735": 4897,
      "6716": 4898,
      "1900": 4899,
      "4747": 4900,
      "4739": 4901,
      "4709": 4902,
      "8719": 4903,
      "8770": 4904,
      "8799": 4905,
      "8782": 4906,
      "2037": 4907,
      "2003": 4908,
      "2036": 4909,
      "2006": 4910,
      "progra": 4911,
      "4523": 4912,
      "4547": 4913,
      "4508": 4914,
      "6017": 4915,
      "6054": 4916,
      "8987": 4917,
      "8975": 4918,
      "8961": 4919,
      "8955": 4920,
      "8914": 4921,
      "8946": 4922,
      "8395": 4923,
      "4925": 4924,
      "4950": 4925,
      "2225": 4926,
      "2243": 4927,
      "2248": 4928,
      "EDAF": 4929,
      "EDCA": 4930,
      "iones": 4931,
      "vino": 4932,
      "ntcu": 4933,
      "3955": 4934,
      "3990": 4935,
      "FCBB": 4936,
      "1243": 4937,
      "1248": 4938,
      "FDBD": 4939,
      "3350": 4940,
      "ACCB": 4941,
      "6840": 4942,
      "6863": 4943,
      "6865": 4944,
      "6843": 4945,
      "6867": 4946,
      "6866": 4947,
      "7543": 4948,
      "2869": 4949,
      "2887": 4950,
      "2888": 4951,
      "6113": 4952,
      "6160": 4953,
      "6467": 4954,
      "6448": 4955,
      "7930": 4956,
      "FEAA": 4957,
      "1440": 4958,
      "6248": 4959,
      "5914": 4960,
      "1169": 4961,
      "2480": 4962,
      "2413": 4963,
      "2414": 4964,
      "7460": 4965,
      "5029": 4966,
      "3029": 4967,
      "6685": 4968,
      "4461": 4969,
      "9933": 4970,
      "2183": 4971,
      "7709": 4972,
      "stitu": 4973,
      "2643": 4974,
      "2618": 4975,
      "ams": 4976,
      "1669": 4977,
      "4140": 4978,
      "4129": 4979,
      "4145": 4980,
      "7110": 4981,
      "7120": 4982,
      "0389": 4983,
      "santcu": 4984,
      "5443": 4985,
      "3266": 4986,
      "9223": 4987,
      "0412": 4988,
      "0418": 4989,
      "nat": 4990,
      "Alba": 4991,
      "bad": 4992,
      "Victor": 4993,
      "ceo": 4994,
      "gaz": 4995,
      "under": 4996,
      "neu": 4997,
      "6130": 4998,
      "vero": 4999,
      "lls": 5000,
      "Tamar": 5001,
      "isner": 5002,
      "isapi": 5003,
      "Seg": 5004,
      "Pela": 5005,
      "Montor": 5006,
      "home": 5007,
      "ueras": 5008,
      "design": 5009,
      "hama": 5010,
      "mini": 5011,
      "faders": 5012,
      "CECB": 5013,
      "loral": 5014,
      "gues": 5015,
      "Canal": 5016,
      "Fernandez": 5017,
      "Herm": 5018,
      "amiento": 5019,
      "scripts": 5020,
      "wski": 5021,
      "Servlet": 5022,
      "Escritor": 5023,
      "Andres": 5024,
      "shaw": 5025,
      "gordo": 5026,
      "Felipe": 5027,
      "videos": 5028,
      "Castrillo": 5029,
      "andaluz": 5030,
      "Rodrigo": 5031,
      "hiperespa": 5032,
      "hojainformativas": 5033,
      "health": 5034,
      "construccion": 5035,
      "braltar": 5036,
      "velazquezlar": 5037,
      "5805": 5038,
      "7697": 5039,
      "7744": 5040,
      "8459": 5041,
      "Ai": 5042,
      "Aca": 5043,
      "Cerra": 5044,
      "Cure": 5045,
      "Cristo": 5046,
      "Dos": 5047,
      "Der": 5048,
      "Edi": 5049,
      "Estra": 5050,
      "Fol": 5051,
      "Hos": 5052,
      "Hen": 5053,
      "Ii": 5054,
      "Ivan": 5055,
      "Oca": 5056,
      "Ofi": 5057,
      "Pie": 5058,
      "Pai": 5059,
      "Pol": 5060,
      "Sor": 5061,
      "Tri": 5062,
      "Tran": 5063,
      "ak": 5064,
      "alo": 5065,
      "aas": 5066,
      "bf": 5067,
      "bag": 5068,
      "bry": 5069,
      "cU": 5070,
      "ct": 5071,
      "ctu": 5072,
      "ek": 5073,
      "ep": 5074,
      "fro": 5075,
      "jun": 5076,
      "kri": 5077,
      "kan": 5078,
      "mt": 5079,
      "mv": 5080,
      "mz": 5081,
      "pur": 5082,
      "pul": 5083,
      "rt": 5084,
      "sos": 5085,
      "sche": 5086,
      "sia": 5087,
      "tA": 5088,
      "ulla": 5089,
      "uta": 5090,
      "vor": 5091,
      "ying": 5092,
      "zzi": 5093,
      "8085": 5094,
      "8077": 5095,
      "8095": 5096,
      "80243": 5097,
      "ind": 5098,
      "inal": 5099,
      "inmadrid": 5100,
      "agan": 5101,
      "cole": 5102,
      "rom": 5103,
      "rola": 5104,
      "rocofer": 5105,
      "deven": 5106,
      "arra": 5107,
      "day": 5108,
      "dana": 5109,
      "dades": 5110,
      "leon": 5111,
      "leen": 5112,
      "max": 5113,
      "malla": 5114,
      "mata": 5115,
      "ueca": 5116,
      "Cabal": 5117,
      "serrat": 5118,
      "ntra": 5119,
      "mbar": 5120,
      "cil": 5121,
      "cidad": 5122,
      "2550": 5123,
      "2502": 5124,
      "diana": 5125,
      "4010": 5126,
      "4045": 5127,
      "4014": 5128,
      "4078": 5129,
      "4008": 5130,
      "urt": 5131,
      "rias": 5132,
      "ritu": 5133,
      "pel": 5134,
      "pera": 5135,
      "2790": 5136,
      "2753": 5137,
      "2798": 5138,
      "allo": 5139,
      "1013": 5140,
      "1069": 5141,
      "1045": 5142,
      "1060": 5143,
      "2967": 5144,
      "2983": 5145,
      "2926": 5146,
      "1719": 5147,
      "1720": 5148,
      "1774": 5149,
      "1754": 5150,
      "2365": 5151,
      "2352": 5152,
      "6327": 5153,
      "6310": 5154,
      "6393": 5155,
      "6356": 5156,
      "1365": 5157,
      "1387": 5158,
      "1379": 5159,
      "1382": 5160,
      "8546": 5161,
      "1527": 5162,
      "1575": 5163,
      "1511": 5164,
      "1544": 5165,
      "1507": 5166,
      "6919": 5167,
      "6982": 5168,
      "6952": 5169,
      "6522": 5170,
      "4383": 5171,
      "6764": 5172,
      "6704": 5173,
      "1980": 5174,
      "1972": 5175,
      "1904": 5176,
      "4717": 5177,
      "4763": 5178,
      "4799": 5179,
      "4705": 5180,
      "8785": 5181,
      "2070": 5182,
      "2000": 5183,
      "2066": 5184,
      "4585": 5185,
      "6067": 5186,
      "6035": 5187,
      "6005": 5188,
      "6053": 5189,
      "6096": 5190,
      "8989": 5191,
      "8984": 5192,
      "8953": 5193,
      "8300": 5194,
      "4980": 5195,
      "4901": 5196,
      "2280": 5197,
      "2223": 5198,
      "2265": 5199,
      "EDDC": 5200,
      "idro": 5201,
      "3917": 5202,
      "3920": 5203,
      "FAED": 5204,
      "FAFE": 5205,
      "FACE": 5206,
      "ECAB": 5207,
      "FCFA": 5208,
      "FCDD": 5209,
      "1289": 5210,
      "1214": 5211,
      "1281": 5212,
      "FDCE": 5213,
      "FBEB": 5214,
      "FBAD": 5215,
      "3305": 5216,
      "4883": 5217,
      "4849": 5218,
      "4864": 5219,
      "4881": 5220,
      "EBAB": 5221,
      "EBFF": 5222,
      "1867": 5223,
      "1846": 5224,
      "rac": 5225,
      "ACEB": 5226,
      "6825": 5227,
      "6862": 5228,
      "2817": 5229,
      "2889": 5230,
      "2812": 5231,
      "2862": 5232,
      "2881": 5233,
      "6110": 5234,
      "6185": 5235,
      "6115": 5236,
      "6165": 5237,
      "7019": 5238,
      "aut": 5239,
      "6413": 5240,
      "7982": 5241,
      "DCEB": 5242,
      "1465": 5243,
      "1449": 5244,
      "6287": 5245,
      "DBED": 5246,
      "1127": 5247,
      "1166": 5248,
      "AAFE": 5249,
      "melo": 5250,
      "7480": 5251,
      "7449": 5252,
      "DDDF": 5253,
      "6613": 5254,
      "3725": 5255,
      "3775": 5256,
      "DEAC": 5257,
      "2683": 5258,
      "ames": 5259,
      "CEEB": 5260,
      "BDEB": 5261,
      "BDFE": 5262,
      "BEAF": 5263,
      "9047": 5264,
      "cordoba": 5265,
      "CAFC": 5266,
      "4110": 5267,
      "7112": 5268,
      "8685": 5269,
      "0770": 5270,
      "0773": 5271,
      "5469": 5272,
      "3683": 5273,
      "9265": 5274,
      "0229": 5275,
      "9127": 5276,
      "tucasa": 5277,
      "valo": 5278,
      "Alonso": 5279,
      "adra": 5280,
      "aire": 5281,
      "box": 5282,
      "body": 5283,
      "nero": 5284,
      "veri": 5285,
      "torio": 5286,
      "ismo": 5287,
      "isio": 5288,
      "Roda": 5289,
      "atriz": 5290,
      "Torrent": 5291,
      "geinmadrid": 5292,
      "uerte": 5293,
      "viaje": 5294,
      "Juli": 5295,
      "Pola": 5296,
      "DAEF": 5297,
      "Medina": 5298,
      "Miquel": 5299,
      "Teo": 5300,
      "Teresa": 5301,
      "Esco": 5302,
      "Garri": 5303,
      "ubilla": 5304,
      "Gian": 5305,
      "wska": 5306,
      "Masia": 5307,
      "Puerta": 5308,
      "coaching": 5309,
      "Cervera": 5310,
      "Merce": 5311,
      "Olivar": 5312,
      "amarina": 5313,
      "Peral": 5314,
      "Agustin": 5315,
      "hipermadrid": 5316,
      "gesmaher": 5317,
      "Sarri": 5318,
      "Morales": 5319,
      "dolfo": 5320,
      "unidades": 5321,
      "campo": 5322,
      "sayuela": 5323,
      "hardt": 5324,
      "lodgeinmadrid": 5325,
      "Fructu": 5326,
      "tilacion": 5327,
      "aplasticacordoba": 5328,
      "cirugiaplasticacordoba": 5329,
      "salvador": 5330,
      "imenez": 5331,
      "deventilacion": 5332,
      "gesmahernan": 5333,
      "unidadesdeventilacion": 5334,
      "Amar": 5335,
      "Abe": 5336,
      "AACE": 5337,
      "AACC": 5338,
      "Alar": 5339,
      "Bla": 5340,
      "BEDE": 5341,
      "CACC": 5342,
      "Dora": 5343,
      "FI": 5344,
      "Fra": 5345,
      "FEDB": 5346,
      "Gan": 5347,
      "Jan": 5348,
      "Lara": 5349,
      "Llu": 5350,
      "Nte": 5351,
      "Plu": 5352,
      "Sof": 5353,
      "Trist": 5354,
      "Up": 5355,
      "Yas": 5356,
      "acch": 5357,
      "bona": 5358,
      "cie": 5359,
      "cum": 5360,
      "dk": 5361,
      "dura": 5362,
      "eco": 5363,
      "ese": 5364,
      "eiro": 5365,
      "flo": 5366,
      "ful": 5367,
      "ffi": 5368,
      "gm": 5369,
      "gq": 5370,
      "guri": 5371,
      "has": 5372,
      "hara": 5373,
      "hut": 5374,
      "iS": 5375,
      "mn": 5376,
      "meng": 5377,
      "mio": 5378,
      "mid": 5379,
      "nand": 5380,
      "pru": 5381,
      "para": 5382,
      "scar": 5383,
      "sun": 5384,
      "sand": 5385,
      "tres": 5386,
      "usa": 5387,
      "uenga": 5388,
      "wag": 5389,
      "yar": 5390,
      "Ġ14": 5391,
      "Ġ99": 5392,
      "Ġ94": 5393,
      "Ġ232": 5394,
      "Ġ281": 5395,
      "cap": 5396,
      "caro": 5397,
      "cana": 5398,
      "tex": 5399,
      "8039": 5400,
      "8000": 5401,
      "8011": 5402,
      "8041": 5403,
      "8032": 5404,
      "enne": 5405,
      "encio": 5406,
      "lier": 5407,
      "into": 5408,
      "invent": 5409,
      "chie": 5410,
      "chia": 5411,
      "chet": 5412,
      "cox": 5413,
      "roy": 5414,
      "roya": 5415,
      "sed": 5416,
      "ager": 5417,
      "ars": 5418,
      "mada": 5419,
      "Cama": 5420,
      "llah": 5421,
      "Lan": 5422,
      "inga": 5423,
      "playa": 5424,
      "arsessionid": 5425,
      "real": 5426,
      "revi": 5427,
      "order": 5428,
      "mbri": 5429,
      "2509": 5430,
      "2544": 5431,
      "2584": 5432,
      "4080": 5433,
      "4067": 5434,
      "4070": 5435,
      "4035": 5436,
      "4021": 5437,
      "4077": 5438,
      "4016": 5439,
      "4076": 5440,
      "uras": 5441,
      "uria": 5442,
      "2740": 5443,
      "2710": 5444,
      "2789": 5445,
      "2700": 5446,
      "2737": 5447,
      "2726": 5448,
      "2794": 5449,
      "cardo": 5450,
      "cargo": 5451,
      "1097": 5452,
      "ciales": 5453,
      "2963": 5454,
      "2960": 5455,
      "2905": 5456,
      "2936": 5457,
      "1785": 5458,
      "1743": 5459,
      "1700": 5460,
      "2329": 5461,
      "2385": 5462,
      "2373": 5463,
      "2300": 5464,
      "2395": 5465,
      "elle": 5466,
      "6309": 5467,
      "6350": 5468,
      "6371": 5469,
      "1343": 5470,
      "1348": 5471,
      "1344": 5472,
      "1394": 5473,
      "8554": 5474,
      "8508": 5475,
      "1517": 5476,
      "1543": 5477,
      "1583": 5478,
      "1509": 5479,
      "1568": 5480,
      "1579": 5481,
      "1535": 5482,
      "6908": 5483,
      "4327": 5484,
      "4333": 5485,
      "4359": 5486,
      "4390": 5487,
      "6749": 5488,
      "6746": 5489,
      "6753": 5490,
      "sso": 5491,
      "1927": 5492,
      "1979": 5493,
      "1937": 5494,
      "1984": 5495,
      "8728": 5496,
      "8750": 5497,
      "2019": 5498,
      "2089": 5499,
      "2012": 5500,
      "2042": 5501,
      "2071": 5502,
      "4556": 5503,
      "6025": 5504,
      "6015": 5505,
      "6012": 5506,
      "6074": 5507,
      "6090": 5508,
      "6076": 5509,
      "8920": 5510,
      "8329": 5511,
      "8323": 5512,
      "8309": 5513,
      "8366": 5514,
      "8335": 5515,
      "8356": 5516,
      "8397": 5517,
      "4945": 5518,
      "4937": 5519,
      "4953": 5520,
      "night": 5521,
      "2249": 5522,
      "2226": 5523,
      "EDFD": 5524,
      "EDAC": 5525,
      "EDFE": 5526,
      "Reg": 5527,
      "3965": 5528,
      "3975": 5529,
      "3905": 5530,
      "FAn": 5531,
      "FAEE": 5532,
      "FACD": 5533,
      "ECFC": 5534,
      "ECCF": 5535,
      "1210": 5536,
      "FBCE": 5537,
      "FBBE": 5538,
      "3329": 5539,
      "EBFC": 5540,
      "0909": 5541,
      "0935": 5542,
      "0993": 5543,
      "1849": 5544,
      "1866": 5545,
      "1882": 5546,
      "6827": 5547,
      "6885": 5548,
      "6847": 5549,
      "2885": 5550,
      "2814": 5551,
      "ADDE": 5552,
      "ABFC": 5553,
      "ABCC": 5554,
      "6169": 5555,
      "6183": 5556,
      "6410": 5557,
      "6463": 5558,
      "6468": 5559,
      "6416": 5560,
      "7359": 5561,
      "7909": 5562,
      "7953": 5563,
      "5521": 5564,
      "BBEB": 5565,
      "BBAE": 5566,
      "DCFB": 5567,
      "DCBA": 5568,
      "DCCA": 5569,
      "1428": 5570,
      "5977": 5571,
      "0040": 5572,
      "0027": 5573,
      "1110": 5574,
      "2417": 5575,
      "2485": 5576,
      "2446": 5577,
      "baldo": 5578,
      "3009": 5579,
      "3014": 5580,
      "DDDC": 5581,
      "6617": 5582,
      "6689": 5583,
      "6649": 5584,
      "AEFE": 5585,
      "4410": 5586,
      "3512": 5587,
      "3542": 5588,
      "2161": 5589,
      "7775": 5590,
      "BCFB": 5591,
      "BCFE": 5592,
      "2612": 5593,
      "0530": 5594,
      "1645": 5595,
      "1661": 5596,
      "8445": 5597,
      "terio": 5598,
      "CAEC": 5599,
      "DAEC": 5600,
      "incorrectasbob": 5601,
      "EAFC": 5602,
      "EFFC": 5603,
      "4664": 5604,
      "iras": 5605,
      "stad": 5606,
      "4214": 5607,
      "8223": 5608,
      "7115": 5609,
      "5869": 5610,
      "5868": 5611,
      "9729": 5612,
      "5413": 5613,
      "5485": 5614,
      "oftw": 5615,
      "9619": 5616,
      "0627": 5617,
      "0683": 5618,
      "Ġ229": 5619,
      "zales": 5620,
      "visco": 5621,
      "new": 5622,
      "nex": 5623,
      "Arquitec": 5624,
      "Sanz": 5625,
      "joubi": 5626,
      "joudi": 5627,
      "Barra": 5628,
      "delavida": 5629,
      "Marcos": 5630,
      "Marques": 5631,
      "Carmen": 5632,
      "bee": 5633,
      "Guil": 5634,
      "Peri": 5635,
      "baran": 5636,
      "bijoubi": 5637,
      "hibrid": 5638,
      "jeda": 5639,
      "6436": 5640,
      "muni": 5641,
      "pola": 5642,
      "poli": 5643,
      "Ray": 5644,
      "Julio": 5645,
      "2479": 5646,
      "Poeta": 5647,
      "Boli": 5648,
      "DBBD": 5649,
      "AEBC": 5650,
      "minas": 5651,
      "EEBC": 5652,
      "DEBB": 5653,
      "Corta": 5654,
      "monti": 5655,
      "Gala": 5656,
      "1226": 5657,
      "Anda": 5658,
      "urita": 5659,
      "Parser": 5660,
      "super": 5661,
      "ferente": 5662,
      "Campa": 5663,
      "Noel": 5664,
      "nette": 5665,
      "Josep": 5666,
      "danie": 5667,
      "franca": 5668,
      "llard": 5669,
      "ajuntamentbcn": 5670,
      "Castillo": 5671,
      "ynes": 5672,
      "Llave": 5673,
      "wei": 5674,
      "Nico": 5675,
      "cursos": 5676,
      "Santib": 5677,
      "willi": 5678,
      "Larra": 5679,
      "Castany": 5680,
      "light": 5681,
      "Lorenzo": 5682,
      "ladim": 5683,
      "clubde": 5684,
      "Jorge": 5685,
      "Maestro": 5686,
      "Martinez": 5687,
      "Manzanares": 5688,
      "tidodelavida": 5689,
      "elsentidodelavida": 5690,
      "styles": 5691,
      "Segura": 5692,
      "oftware": 5693,
      "joudiferente": 5694,
      "bijoubijoudiferente": 5695,
      "hibridos": 5696,
      "0279": 5697,
      "6233": 5698,
      "7730": 5699,
      "7609": 5700,
      "Ati": 5701,
      "Aro": 5702,
      "Alo": 5703,
      "Angel": 5704,
      "But": 5705,
      "Baix": 5706,
      "Cos": 5707,
      "Cus": 5708,
      "Cig": 5709,
      "Crist": 5710,
      "Edel": 5711,
      "EECA": 5712,
      "EEDA": 5713,
      "Ebro": 5714,
      "Eula": 5715,
      "Fan": 5716,
      "FFAB": 5717,
      "Fuerte": 5718,
      "Gil": 5719,
      "Horn": 5720,
      "Ka": 5721,
      "Kar": 5722,
      "Llan": 5723,
      "MI": 5724,
      "Met": 5725,
      "Ou": 5726,
      "Oti": 5727,
      "Ola": 5728,
      "Pes": 5729,
      "Pesca": 5730,
      "Ran": 5731,
      "Sh": 5732,
      "Sur": 5733,
      "Sha": 5734,
      "Shar": 5735,
      "Us": 5736,
      "Vera": 5737,
      "ange": 5738,
      "cent": 5739,
      "cul": 5740,
      "eS": 5741,
      "edo": 5742,
      "eri": 5743,
      "eth": 5744,
      "emi": 5745,
      "fm": 5746,
      "fly": 5747,
      "gt": 5748,
      "ik": 5749,
      "ici": 5750,
      "ido": 5751,
      "iza": 5752,
      "jel": 5753,
      "kas": 5754,
      "kara": 5755,
      "kat": 5756,
      "lE": 5757,
      "mI": 5758,
      "ness": 5759,
      "oR": 5760,
      "ov": 5761,
      "oce": 5762,
      "pk": 5763,
      "rI": 5764,
      "rO": 5765,
      "rubi": 5766,
      "tana": 5767,
      "tten": 5768,
      "uch": 5769,
      "vid": 5770,
      "vana": 5771,
      "yer": 5772,
      "ysh": 5773,
      "zos": 5774,
      "zuelo": 5775,
      "Ġ9": 5776,
      "Ġ45": 5777,
      "Ġ89": 5778,
      "Ġ279": 5779,
      "tilla": 5780,
      "lat": 5781,
      "lano": 5782,
      "lamo": 5783,
      "8025": 5784,
      "8087": 5785,
      "8037": 5786,
      "8021": 5787,
      "8091": 5788,
      "enz": 5789,
      "enza": 5790,
      "lich": 5791,
      "incon": 5792,
      "chad": 5793,
      "chev": 5794,
      "checo": 5795,
      "rou": 5796,
      "row": 5797,
      "rofessional": 5798,
      "deux": 5799,
      "lome": 5800,
      "ecer": 5801,
      "sella": 5802,
      "seas": 5803,
      "hostrofessional": 5804,
      "dau": 5805,
      "leg": 5806,
      "masa": 5807,
      "entre": 5808,
      "Coma": 5809,
      "Coll": 5810,
      "inger": 5811,
      "reras": 5812,
      "spon": 5813,
      "2543": 5814,
      "2507": 5815,
      "dig": 5816,
      "domucho": 5817,
      "4065": 5818,
      "4074": 5819,
      "rilla": 5820,
      "ribas": 5821,
      "pell": 5822,
      "petit": 5823,
      "2743": 5824,
      "2709": 5825,
      "2773": 5826,
      "moto": 5827,
      "carlos": 5828,
      "lene": 5829,
      "esta": 5830,
      "esmer": 5831,
      "ante": 5832,
      "1080": 5833,
      "1025": 5834,
      "1017": 5835,
      "1065": 5836,
      "1026": 5837,
      "2969": 5838,
      "2965": 5839,
      "2984": 5840,
      "2972": 5841,
      "1783": 5842,
      "1764": 5843,
      "1799": 5844,
      "1778": 5845,
      "1782": 5846,
      "2348": 5847,
      "2318": 5848,
      "2379": 5849,
      "2359": 5850,
      "2377": 5851,
      "2384": 5852,
      "2391": 5853,
      "6363": 5854,
      "6385": 5855,
      "6347": 5856,
      "1312": 5857,
      "1355": 5858,
      "1308": 5859,
      "8587": 5860,
      "1529": 5861,
      "1539": 5862,
      "top": 5863,
      "6978": 5864,
      "6986": 5865,
      "6588": 5866,
      "6538": 5867,
      "6556": 5868,
      "4343": 5869,
      "4347": 5870,
      "4388": 5871,
      "6785": 5872,
      "6747": 5873,
      "6783": 5874,
      "ssori": 5875,
      "1973": 5876,
      "1950": 5877,
      "1942": 5878,
      "4765": 5879,
      "4775": 5880,
      "4770": 5881,
      "4730": 5882,
      "8723": 5883,
      "8755": 5884,
      "8788": 5885,
      "8772": 5886,
      "2043": 5887,
      "2060": 5888,
      "2062": 5889,
      "2034": 5890,
      "2046": 5891,
      "4580": 5892,
      "4540": 5893,
      "4571": 5894,
      "4594": 5895,
      "6033": 5896,
      "6009": 5897,
      "6028": 5898,
      "6024": 5899,
      "6077": 5900,
      "6038": 5901,
      "6092": 5902,
      "asi": 5903,
      "aso": 5904,
      "asalud": 5905,
      "8940": 5906,
      "8979": 5907,
      "8935": 5908,
      "8906": 5909,
      "8313": 5910,
      "8349": 5911,
      "8390": 5912,
      "8336": 5913,
      "4983": 5914,
      "4979": 5915,
      "4959": 5916,
      "4957": 5917,
      "2227": 5918,
      "2287": 5919,
      "EDCC": 5920,
      "adillo": 5921,
      "3968": 5922,
      "3970": 5923,
      "FAl": 5924,
      "FACC": 5925,
      "FCEB": 5926,
      "12170": 5927,
      "FBBB": 5928,
      "FBCF": 5929,
      "3375": 5930,
      "4848": 5931,
      "4828": 5932,
      "EBDE": 5933,
      "09390": 5934,
      "1815": 5935,
      "rad": 5936,
      "ractor": 5937,
      "raulla": 5938,
      "ACDF": 5939,
      "6822": 5940,
      "7547": 5941,
      "7549": 5942,
      "2880": 5943,
      "2844": 5944,
      "ADDB": 5945,
      "ADDD": 5946,
      "ADCE": 5947,
      "ABFD": 5948,
      "6189": 5949,
      "7018": 5950,
      "6447": 5951,
      "7988": 5952,
      "5516": 5953,
      "FEED": 5954,
      "FEAD": 5955,
      "DCBF": 5956,
      "6249": 5957,
      "5909": 5958,
      "5937": 5959,
      "0070": 5960,
      "DBEE": 5961,
      "DBCF": 5962,
      "1189": 5963,
      "AAFB": 5964,
      "2449": 5965,
      "FFED": 5966,
      "FFFD": 5967,
      "5039": 5968,
      "3045": 5969,
      "3089": 5970,
      "DDDA": 5971,
      "AEAD": 5972,
      "3537": 5973,
      "8887": 5974,
      "acena": 5975,
      "9907": 5976,
      "2149": 5977,
      "DEs": 5978,
      "DEFA": 5979,
      "DEAE": 5980,
      "7743": 5981,
      "BCEE": 5982,
      "AFED": 5983,
      "AFFA": 5984,
      "0577": 5985,
      "amor": 5986,
      "1610": 5987,
      "1617": 5988,
      "1665": 5989,
      "8418": 5990,
      "8411": 5991,
      "CAFB": 5992,
      "7815": 5993,
      "EFFE": 5994,
      "4629": 5995,
      "4622": 5996,
      "8140": 5997,
      "8169": 5998,
      "8112": 5999,
      "4215": 6000,
      "4289": 6001,
      "7187": 6002,
      "7118": 6003,
      "8615": 6004,
      "llet": 6005,
      "3169": 6006,
      "08281": 6007,
      "ofi": 6008,
      "9440": 6009,
      "9269": 6010,
      "sou": 6011,
      "0685": 6012,
      "0447": 6013,
      "zarasalud": 6014,
      "zabal": 6015,
      "nasext": 6016,
      "vipetit": 6017,
      "Alfa": 6018,
      "Aldea": 6019,
      "Alvarez": 6020,
      "creacion": 6021,
      "bach": 6022,
      "mand": 6023,
      "bous": 6024,
      "bout": 6025,
      "ceda": 6026,
      "Arti": 6027,
      "1103": 6028,
      "sten": 6029,
      "Vaz": 6030,
      "Carri": 6031,
      "bea": 6032,
      "beria": 6033,
      "beauti": 6034,
      "ablan": 6035,
      "Rom": 6036,
      "Bazan": 6037,
      "landa": 6038,
      "25716": 6039,
      "idal": 6040,
      "barebac": 6041,
      "1272": 6042,
      "house": 6043,
      "silla": 6044,
      "2631": 6045,
      "1472": 6046,
      "lasen": 6047,
      "lasco": 6048,
      "tren": 6049,
      "43977": 6050,
      "pita": 6051,
      "6471": 6052,
      "Pobla": 6053,
      "EABD": 6054,
      "AEBB": 6055,
      "minia": 6056,
      "FFAA": 6057,
      "tts": 6058,
      "Tera": 6059,
      "EFCB": 6060,
      "DABC": 6061,
      "CADD": 6062,
      "CFDA": 6063,
      "guete": 6064,
      "Castej": 6065,
      "aresaas": 6066,
      "fernand": 6067,
      "31750": 6068,
      "tandomucho": 6069,
      "Fernando": 6070,
      "95343977": 6071,
      "brad": 6072,
      "Gochez": 6073,
      "Espejo": 6074,
      "enice": 6075,
      "Port": 6076,
      "Gior": 6077,
      "ugh": 6078,
      "Isidro": 6079,
      "Pinar": 6080,
      "pintandomucho": 6081,
      "mori": 6082,
      "Castil": 6083,
      "Castilla": 6084,
      "worth": 6085,
      "hiperbil": 6086,
      "multasde": 6087,
      "imiento": 6088,
      "montessori": 6089,
      "transito": 6090,
      "informatica": 6091,
      "Abajo": 6092,
      "professionalhosting": 6093,
      "rubia": 6094,
      "oferta": 6095,
      "xavipetit": 6096,
      "softwaresaas": 6097,
      "197595343977": 6098,
      "Quintana": 6099,
      "hispa": 6100,
      "apolicial": 6101,
      "campanasext": 6102,
      "escuelamontessori": 6103,
      "Eduardo": 6104,
      "Frontera": 6105,
      "0093197595343977": 6106,
      "fulbody": 6107,
      "viscotek": 6108,
      "ractoras": 6109,
      "beautifulbody": 6110,
      "hiperbilbao": 6111,
      "multasdetransito": 6112,
      "campanasextractoras": 6113,
      "0809": 6114,
      "2190": 6115,
      "2670": 6116,
      "2109": 6117,
      "4253": 6118,
      "7858": 6119,
      "8430": 6120,
      "8616": 6121,
      "9279": 6122,
      "Aim": 6123,
      "Bl": 6124,
      "Bes": 6125,
      "Bul": 6126,
      "BEDF": 6127,
      "BFFF": 6128,
      "Cel": 6129,
      "CFAB": 6130,
      "Dia": 6131,
      "DACB": 6132,
      "DFAB": 6133,
      "Eno": 6134,
      "Emi": 6135,
      "Esta": 6136,
      "EECE": 6137,
      "Fray": 6138,
      "Hel": 6139,
      "Ino": 6140,
      "Jal": 6141,
      "Jard": 6142,
      "Koh": 6143,
      "Lagar": 6144,
      "Nal": 6145,
      "Oc": 6146,
      "Pen": 6147,
      "Pau": 6148,
      "Pru": 6149,
      "Ull": 6150,
      "Ves": 6151,
      "Yo": 6152,
      "Zap": 6153,
      "ade": 6154,
      "ato": 6155,
      "avi": 6156,
      "bir": 6157,
      "bres": 6158,
      "bell": 6159,
      "bena": 6160,
      "beck": 6161,
      "cE": 6162,
      "clar": 6163,
      "dt": 6164,
      "drid": 6165,
      "dns": 6166,
      "eda": 6167,
      "ever": 6168,
      "emp": 6169,
      "fes": 6170,
      "fina": 6171,
      "gent": 6172,
      "get": 6173,
      "gall": 6174,
      "gaudio": 6175,
      "hau": 6176,
      "ip": 6177,
      "itia": 6178,
      "josa": 6179,
      "kie": 6180,
      "kur": 6181,
      "lles": 6182,
      "ob": 6183,
      "ore": 6184,
      "riel": 6185,
      "sme": 6186,
      "smi": 6187,
      "ska": 6188,
      "tR": 6189,
      "tsch": 6190,
      "unt": 6191,
      "uso": 6192,
      "utu": 6193,
      "wes": 6194,
      "well": 6195,
      "yk": 6196,
      "yna": 6197,
      "Ġ12": 6198,
      "Ġ81": 6199,
      "Ġ82": 6200,
      "Ġ51": 6201,
      "caju": 6202,
      "tez": 6203,
      "temp": 6204,
      "tille": 6205,
      "lao": 6206,
      "lap": 6207,
      "lamar": 6208,
      "8050": 6209,
      "8093": 6210,
      "8007": 6211,
      "8001": 6212,
      "8052": 6213,
      "ende": 6214,
      "engi": 6215,
      "inos": 6216,
      "inar": 6217,
      "inst": 6218,
      "chri": 6219,
      "chil": 6220,
      "chini": 6221,
      "xto": 6222,
      "det": 6223,
      "dele": 6224,
      "lova": 6225,
      "lobar": 6226,
      "nold": 6227,
      "ecla": 6228,
      "set": 6229,
      "ageles": 6230,
      "dante": 6231,
      "pav": 6232,
      "pada": 6233,
      "uet": 6234,
      "Cato": 6235,
      "Camar": 6236,
      "come": 6237,
      "comer": 6238,
      "Cora": 6239,
      "kess": 6240,
      "queta": 6241,
      "Mola": 6242,
      "Cho": 6243,
      "redon": 6244,
      "spro": 6245,
      "spers": 6246,
      "orno": 6247,
      "orra": 6248,
      "mbla": 6249,
      "cir": 6250,
      "cilla": 6251,
      "2533": 6252,
      "2530": 6253,
      "2535": 6254,
      "2505": 6255,
      "2576": 6256,
      "dida": 6257,
      "dista": 6258,
      "rard": 6259,
      "dom": 6260,
      "4013": 6261,
      "4085": 6262,
      "4022": 6263,
      "4057": 6264,
      "2727": 6265,
      "2715": 6266,
      "2760": 6267,
      "2774": 6268,
      "2799": 6269,
      "motor": 6270,
      "cara": 6271,
      "engo": 6272,
      "engel": 6273,
      "anti": 6274,
      "anco": 6275,
      "1016": 6276,
      "1007": 6277,
      "2922": 6278,
      "2933": 6279,
      "2948": 6280,
      "2914": 6281,
      "2930": 6282,
      "2931": 6283,
      "1715": 6284,
      "1705": 6285,
      "2369": 6286,
      "6314": 6287,
      "6335": 6288,
      "6353": 6289,
      "6301": 6290,
      "1385": 6291,
      "1368": 6292,
      "1361": 6293,
      "1377": 6294,
      "1334": 6295,
      "1302": 6296,
      "1391": 6297,
      "8518": 6298,
      "8570": 6299,
      "8511": 6300,
      "8599": 6301,
      "8505": 6302,
      "1510": 6303,
      "1513": 6304,
      "1574": 6305,
      "1538": 6306,
      "tol": 6307,
      "tode": 6308,
      "6923": 6309,
      "6930": 6310,
      "6944": 6311,
      "6934": 6312,
      "6942": 6313,
      "6996": 6314,
      "6998": 6315,
      "6543": 6316,
      "6545": 6317,
      "6512": 6318,
      "6518": 6319,
      "6544": 6320,
      "6595": 6321,
      "6503": 6322,
      "6536": 6323,
      "4373": 6324,
      "4330": 6325,
      "4353": 6326,
      "6765": 6327,
      "6745": 6328,
      "6739": 6329,
      "6744": 6330,
      "6795": 6331,
      "6741": 6332,
      "6793": 6333,
      "6708": 6334,
      "6791": 6335,
      "1929": 6336,
      "1920": 6337,
      "1945": 6338,
      "1948": 6339,
      "1964": 6340,
      "1921": 6341,
      "1903": 6342,
      "1932": 6343,
      "1996": 6344,
      "1998": 6345,
      "4762": 6346,
      "4774": 6347,
      "4735": 6348,
      "4793": 6349,
      "4702": 6350,
      "8737": 6351,
      "8753": 6352,
      "2050": 6353,
      "2099": 6354,
      "2095": 6355,
      "2082": 6356,
      "4529": 6357,
      "4515": 6358,
      "4579": 6359,
      "4584": 6360,
      "6045": 6361,
      "6022": 6362,
      "ast": 6363,
      "8910": 6364,
      "8947": 6365,
      "8958": 6366,
      "8931": 6367,
      "8997": 6368,
      "8384": 6369,
      "4935": 6370,
      "4990": 6371,
      "4971": 6372,
      "EDBB": 6373,
      "carritoparos": 6374,
      "3940": 6375,
      "3936": 6376,
      "3998": 6377,
      "FAFB": 6378,
      "FAAC": 6379,
      "FACF": 6380,
      "ECDC": 6381,
      "ECBE": 6382,
      "FCCB": 6383,
      "FCCE": 6384,
      "1263": 6385,
      "1266": 6386,
      "1216": 6387,
      "1284": 6388,
      "FDCB": 6389,
      "FDCD": 6390,
      "FBFA": 6391,
      "FBDC": 6392,
      "3373": 6393,
      "4844": 6394,
      "4816": 6395,
      "4882": 6396,
      "EBFE": 6397,
      "EBCE": 6398,
      "0955": 6399,
      "1825": 6400,
      "1820": 6401,
      "ACEC": 6402,
      "6860": 6403,
      "7587": 6404,
      "7599": 6405,
      "2860": 6406,
      "2868": 6407,
      "2824": 6408,
      "ADAF": 6409,
      "ADCD": 6410,
      "ABEA": 6411,
      "6145": 6412,
      "7064": 6413,
      "7034": 6414,
      "6465": 6415,
      "6443": 6416,
      "7381": 6417,
      "7386": 6418,
      "7996": 6419,
      "5523": 6420,
      "5555": 6421,
      "5552": 6422,
      "BBFB": 6423,
      "BBDC": 6424,
      "BBBE": 6425,
      "BBEA": 6426,
      "DCFC": 6427,
      "DCAB": 6428,
      "DCBB": 6429,
      "1410": 6430,
      "6223": 6431,
      "6243": 6432,
      "6267": 6433,
      "6218": 6434,
      "CCED": 6435,
      "CCFD": 6436,
      "EEFA": 6437,
      "1125": 6438,
      "1119": 6439,
      "1147": 6440,
      "AAAA": 6441,
      "2424": 6442,
      "7416": 6443,
      "casti": 6444,
      "5059": 6445,
      "3043": 6446,
      "3079": 6447,
      "3034": 6448,
      "DDFD": 6449,
      "DDAB": 6450,
      "DDDB": 6451,
      "DDDE": 6452,
      "DDAF": 6453,
      "6618": 6454,
      "AEAB": 6455,
      "CBAC": 6456,
      "3761": 6457,
      "4489": 6458,
      "4446": 6459,
      "3587": 6460,
      "3577": 6461,
      "9989": 6462,
      "auten": 6463,
      "7778": 6464,
      "stina": 6465,
      "CDEE": 6466,
      "0539": 6467,
      "1643": 6468,
      "CEFC": 6469,
      "8422": 6470,
      "8461": 6471,
      "corte": 6472,
      "5788": 6473,
      "5716": 6474,
      "BAFB": 6475,
      "BAFF": 6476,
      "3410": 6477,
      "3466": 6478,
      "CAEE": 6479,
      "9510": 6480,
      "9538": 6481,
      "DAFE": 6482,
      "4663": 6483,
      "4683": 6484,
      "4185": 6485,
      "7285": 6486,
      "stu": 6487,
      "4265": 6488,
      "4243": 6489,
      "4219": 6490,
      "5370": 6491,
      "9355": 6492,
      "9350": 6493,
      "8627": 6494,
      "0329": 6495,
      "0355": 6496,
      "7625": 6497,
      "7610": 6498,
      "7619": 6499,
      "mares": 6500,
      "5823": 6501,
      "gow": 6502,
      "0713": 6503,
      "3185": 6504,
      "5663": 6505,
      "5685": 6506,
      "0189": 6507,
      "2702": 6508,
      "3212": 6509,
      "5243": 6510,
      "9210": 6511,
      "9249": 6512,
      "tasp": 6513,
      "tantra": 6514,
      "9129": 6515,
      "9143": 6516,
      "Pascu": 6517,
      "Callejon": 6518,
      "0485": 6519,
      "portal": 6520,
      "portugal": 6521,
      "umos": 6522,
      "tus": 6523,
      "dula": 6524,
      "duali": 6525,
      "foro": 6526,
      "zama": 6527,
      "viana": 6528,
      "vivo": 6529,
      "Alci": 6530,
      "Alfredo": 6531,
      "crement": 6532,
      "onato": 6533,
      "bull": 6534,
      "many": 6535,
      "cere": 6536,
      "cement": 6537,
      "lers": 6538,
      "uix": 6539,
      "1234": 6540,
      "Patri": 6541,
      "Marina": 6542,
      "bernero": 6543,
      "Carles": 6544,
      "shin": 6545,
      "Roca": 6546,
      "Roble": 6547,
      "Roman": 6548,
      "Gual": 6549,
      "Guadiana": 6550,
      "vert": 6551,
      "Segarra": 6552,
      "Perio": 6553,
      "1407": 6554,
      "terry": 6555,
      "1435": 6556,
      "hiro": 6557,
      "tracion": 6558,
      "stain": 6559,
      "Rambla": 6560,
      "FEBC": 6561,
      "tesania": 6562,
      "Polo": 6563,
      "Pozo": 6564,
      "Pozuelo": 6565,
      "EABF": 6566,
      "Berro": 6567,
      "Bergu": 6568,
      "EFAF": 6569,
      "tton": 6570,
      "EEBE": 6571,
      "BEBD": 6572,
      "CDCA": 6573,
      "Ripol": 6574,
      "cusa": 6575,
      "CFBA": 6576,
      "Tarciano": 6577,
      "AEEF": 6578,
      "BCBC": 6579,
      "Gali": 6580,
      "juguete": 6581,
      "DFBA": 6582,
      "BFDB": 6583,
      "CAAA": 6584,
      "Pica": 6585,
      "mcrs": 6586,
      "oseguri": 6587,
      "chotel": 6588,
      "rones": 6589,
      "drae": 6590,
      "Garc": 6591,
      "Candela": 6592,
      "bren": 6593,
      "osoto": 6594,
      "fred": 6595,
      "brook": 6596,
      "Dios": 6597,
      "Cerro": 6598,
      "turn": 6599,
      "world": 6600,
      "soyandaluz": 6601,
      "Calaf": 6602,
      "farma": 6603,
      "rincon": 6604,
      "Estrella": 6605,
      "tecno": 6606,
      "Esteve": 6607,
      "Esteban": 6608,
      "soft": 6609,
      "ault": 6610,
      "Blanco": 6611,
      "enlaces": 6612,
      "intercamb": 6613,
      "clichotel": 6614,
      "dehumos": 6615,
      "Benito": 6616,
      "sinduali": 6617,
      "Catalan": 6618,
      "Adelqui": 6619,
      "mueve": 6620,
      "Peregr": 6621,
      "Serrano": 6622,
      "sexta": 6623,
      "bolsa": 6624,
      "Federico": 6625,
      "Aldeanueva": 6626,
      "filtracion": 6627,
      "zarahealth": 6628,
      "ringringcargo": 6629,
      "espaciopintor": 6630,
      "cortinasarte": 6631,
      "Zurbaran": 6632,
      "enieria": 6633,
      "Orion": 6634,
      "gemas": 6635,
      "Bartolome": 6636,
      "Marcelino": 6637,
      "Corominas": 6638,
      "barnices": 6639,
      "Feixas": 6640,
      "Cerrato": 6641,
      "Andalu": 6642,
      "Metauten": 6643,
      "idalgo": 6644,
      "fernandosoto": 6645,
      "hispadis": 6646,
      "Kohls": 6647,
      "cajucar": 6648,
      "engibraltar": 6649,
      "agelespa": 6650,
      "spersonales": 6651,
      "juguetespersonales": 6652,
      "mcrspain": 6653,
      "oseguridad": 6654,
      "intercambio": 6655,
      "sindualidad": 6656,
      "filtraciondehumos": 6657,
      "cortinasartesol": 6658,
      "1199": 6659,
      "2275": 6660,
      "3650": 6661,
      "3390": 6662,
      "4150": 6663,
      "4154": 6664,
      "5250": 6665,
      "6190": 6666,
      "7159": 6667,
      "7642": 6668,
      "8271": 6669,
      "8175": 6670,
      "9159": 6671,
      "9150": 6672,
      "9690": 6673,
      "9293": 6674,
      "Ang": 6675,
      "Anti": 6676,
      "Amor": 6677,
      "Ange": 6678,
      "Bet": 6679,
      "Big": 6680,
      "BDDD": 6681,
      "Badia": 6682,
      "Cn": 6683,
      "Cie": 6684,
      "Cros": 6685,
      "Eme": 6686,
      "EACE": 6687,
      "EFEF": 6688,
      "EACF": 6689,
      "Fin": 6690,
      "Fad": 6691,
      "Han": 6692,
      "Hino": 6693,
      "Ica": 6694,
      "Ida": 6695,
      "Iso": 6696,
      "Jara": 6697,
      "Pos": 6698,
      "QU": 6699,
      "RU": 6700,
      "Rua": 6701,
      "Rut": 6702,
      "Rillo": 6703,
      "RsE": 6704,
      "Sing": 6705,
      "Ses": 6706,
      "Sera": 6707,
      "TA": 6708,
      "UE": 6709,
      "Vol": 6710,
      "Wen": 6711,
      "Yaz": 6712,
      "aD": 6713,
      "ata": 6714,
      "ader": 6715,
      "aexp": 6716,
      "atorre": 6717,
      "bg": 6718,
      "blog": 6719,
      "bun": 6720,
      "buen": 6721,
      "due": 6722,
      "dier": 6723,
      "dini": 6724,
      "drez": 6725,
      "ei": 6726,
      "ele": 6727,
      "eres": 6728,
      "fk": 6729,
      "fia": 6730,
      "fono": 6731,
      "ffer": 6732,
      "fut": 6733,
      "genes": 6734,
      "hp": 6735,
      "hid": 6736,
      "hab": 6737,
      "hig": 6738,
      "idad": 6739,
      "igo": 6740,
      "icho": 6741,
      "kle": 6742,
      "kley": 6743,
      "mck": 6744,
      "mund": 6745,
      "ndi": 6746,
      "nas": 6747,
      "owen": 6748,
      "pli": 6749,
      "rca": 6750,
      "rena": 6751,
      "sor": 6752,
      "sul": 6753,
      "sms": 6754,
      "spain": 6755,
      "tO": 6756,
      "tge": 6757,
      "tsu": 6758,
      "ual": 6759,
      "vente": 6760,
      "xia": 6761,
      "yl": 6762,
      "yas": 6763,
      "yana": 6764,
      "zin": 6765,
      "zko": 6766,
      "zona": 6767,
      "zosa": 6768,
      "Ġ47": 6769,
      "Ġ79": 6770,
      "Ġ97": 6771,
      "Ġ113": 6772,
      "Ġ228": 6773,
      "Ġ292": 6774,
      "osat": 6775,
      "lana": 6776,
      "lacant": 6777,
      "8063": 6778,
      "8043": 6779,
      "8036": 6780,
      "enc": 6781,
      "enig": 6782,
      "encasa": 6783,
      "encial": 6784,
      "lib": 6785,
      "lip": 6786,
      "lito": 6787,
      "inte": 6788,
      "intro": 6789,
      "inform": 6790,
      "instein": 6791,
      "tions": 6792,
      "chs": 6793,
      "chai": 6794,
      "chat": 6795,
      "htran": 6796,
      "xtre": 6797,
      "deu": 6798,
      "demar": 6799,
      "desa": 6800,
      "deseo": 6801,
      "dette": 6802,
      "detea": 6803,
      "aper": 6804,
      "noti": 6805,
      "calle": 6806,
      "agel": 6807,
      "artfor": 6808,
      "dano": 6809,
      "iman": 6810,
      "imera": 6811,
      "mai": 6812,
      "mao": 6813,
      "ues": 6814,
      "uelle": 6815,
      "sera": 6816,
      "seros": 6817,
      "Entra": 6818,
      "loso": 6819,
      "Molina": 6820,
      "Molt": 6821,
      "kola": 6822,
      "rep": 6823,
      "reu": 6824,
      "rear": 6825,
      "cien": 6826,
      "2510": 6827,
      "2517": 6828,
      "2519": 6829,
      "2541": 6830,
      "2597": 6831,
      "dise": 6832,
      "rardo": 6833,
      "dou": 6834,
      "4072": 6835,
      "4003": 6836,
      "4054": 6837,
      "4002": 6838,
      "40906": 6839,
      "peines": 6840,
      "2713": 6841,
      "2718": 6842,
      "2716": 6843,
      "forte": 6844,
      "alfo": 6845,
      "anno": 6846,
      "anza": 6847,
      "ankawa": 6848,
      "1033": 6849,
      "1079": 6850,
      "1044": 6851,
      "1084": 6852,
      "1057": 6853,
      "1002": 6854,
      "2985": 6855,
      "2907": 6856,
      "2997": 6857,
      "1725": 6858,
      "1763": 6859,
      "1761": 6860,
      "1738": 6861,
      "1784": 6862,
      "1734": 6863,
      "1795": 6864,
      "1772": 6865,
      "1758": 6866,
      "2367": 6867,
      "2370": 6868,
      "2305": 6869,
      "2334": 6870,
      "elf": 6871,
      "elrincon": 6872,
      "6343": 6873,
      "6364": 6874,
      "6311": 6875,
      "1367": 6876,
      "1339": 6877,
      "1311": 6878,
      "1350": 6879,
      "1337": 6880,
      "1384": 6881,
      "8563": 6882,
      "8575": 6883,
      "8555": 6884,
      "8590": 6885,
      "8541": 6886,
      "1563": 6887,
      "1570": 6888,
      "1559": 6889,
      "1588": 6890,
      "1584": 6891,
      "todo": 6892,
      "6967": 6893,
      "6909": 6894,
      "6918": 6895,
      "6979": 6896,
      "6955": 6897,
      "6914": 6898,
      "6977": 6899,
      "6946": 6900,
      "6956": 6901,
      "6954": 6902,
      "6932": 6903,
      "6589": 6904,
      "6511": 6905,
      "6537": 6906,
      "6535": 6907,
      "6576": 6908,
      "6531": 6909,
      "4360": 6910,
      "4339": 6911,
      "4375": 6912,
      "6713": 6913,
      "6720": 6914,
      "6779": 6915,
      "6794": 6916,
      "6702": 6917,
      "1922": 6918,
      "1916": 6919,
      "1902": 6920,
      "4720": 6921,
      "4746": 6922,
      "4797": 6923,
      "8715": 6924,
      "8709": 6925,
      "8777": 6926,
      "8736": 6927,
      "8794": 6928,
      "2010": 6929,
      "2044": 6930,
      "2035": 6931,
      "2078": 6932,
      "2032": 6933,
      "2092": 6934,
      "4513": 6935,
      "4573": 6936,
      "4566": 6937,
      "6063": 6938,
      "6060": 6939,
      "6089": 6940,
      "6073": 6941,
      "6034": 6942,
      "6007": 6943,
      "6001": 6944,
      "aste": 6945,
      "8943": 6946,
      "8909": 6947,
      "8369": 6948,
      "8367": 6949,
      "8337": 6950,
      "8357": 6951,
      "8386": 6952,
      "8332": 6953,
      "8398": 6954,
      "4927": 6955,
      "4965": 6956,
      "4919": 6957,
      "4984": 6958,
      "4995": 6959,
      "4903": 6960,
      "4902": 6961,
      "2222": 6962,
      "EDEB": 6963,
      "EDAD": 6964,
      "EDEE": 6965,
      "EDBC": 6966,
      "Rebo": 6967,
      "Redon": 6968,
      "carritos": 6969,
      "adillas": 6970,
      "tario": 6971,
      "idor": 6972,
      "3999": 6973,
      "FAFF": 6974,
      "FACB": 6975,
      "ECED": 6976,
      "ECEB": 6977,
      "ECAD": 6978,
      "ECCC": 6979,
      "ECAA": 6980,
      "ECCD": 6981,
      "ECDA": 6982,
      "FCFC": 6983,
      "1225": 6984,
      "1215": 6985,
      "1245": 6986,
      "FDCC": 6987,
      "FDAF": 6988,
      "FDBA": 6989,
      "acil": 6990,
      "FBCC": 6991,
      "3323": 6992,
      "3315": 6993,
      "3330": 6994,
      "4810": 6995,
      "4887": 6996,
      "4812": 6997,
      "4811": 6998,
      "4842": 6999,
      "EBEE": 7000,
      "EBCD": 7001,
      "0945": 7002,
      "1847": 7003,
      "1868": 7004,
      "1862": 7005,
      "18660": 7006,
      "ACFF": 7007,
      "ACDE": 7008,
      "ACBD": 7009,
      "ACBE": 7010,
      "ACEA": 7011,
      "6841": 7012,
      "7510": 7013,
      "7537": 7014,
      "7578": 7015,
      "2846": 7016,
      "ADFB": 7017,
      "ADAD": 7018,
      "ADFE": 7019,
      "ADBB": 7020,
      "6120": 7021,
      "6148": 7022,
      "7063": 7023,
      "7039": 7024,
      "7068": 7025,
      "7031": 7026,
      "7051": 7027,
      "6442": 7028,
      "7343": 7029,
      "7357": 7030,
      "7306": 7031,
      "7957": 7032,
      "7903": 7033,
      "7994": 7034,
      "FEEE": 7035,
      "BBEC": 7036,
      "BBAC": 7037,
      "DCEE": 7038,
      "DCDE": 7039,
      "DCEF": 7040,
      "1480": 7041,
      "1425": 7042,
      "6268": 7043,
      "5980": 7044,
      "5928": 7045,
      "CCEC": 7046,
      "CCCC": 7047,
      "CCCA": 7048,
      "EEED": 7049,
      "EEEE": 7050,
      "0047": 7051,
      "0075": 7052,
      "0082": 7053,
      "0006": 7054,
      "DBDF": 7055,
      "1120": 7056,
      "1148": 7057,
      "AAAC": 7058,
      "AAEE": 7059,
      "AAEA": 7060,
      "medilla": 7061,
      "2465": 7062,
      "2445": 7063,
      "2444": 7064,
      "cast": 7065,
      "5089": 7066,
      "5070": 7067,
      "5056": 7068,
      "3020": 7069,
      "3061": 7070,
      "DDBB": 7071,
      "6640": 7072,
      "6629": 7073,
      "6623": 7074,
      "6622": 7075,
      "CBDC": 7076,
      "CBCA": 7077,
      "4440": 7078,
      "3565": 7079,
      "3578": 7080,
      "8845": 7081,
      "8849": 7082,
      "8882": 7083,
      "9909": 7084,
      "9994": 7085,
      "leste": 7086,
      "lesias": 7087,
      "jano": 7088,
      "2127": 7089,
      "2163": 7090,
      "2145": 7091,
      "2189": 7092,
      "2148": 7093,
      "DEFB": 7094,
      "DEEB": 7095,
      "2532": 7096,
      "2534": 7097,
      "BCBB": 7098,
      "BCDB": 7099,
      "BCAE": 7100,
      "3843": 7101,
      "2640": 7102,
      "2613": 7103,
      "tosa": 7104,
      "CDAC": 7105,
      "CDFE": 7106,
      "0563": 7107,
      "1647": 7108,
      "1649": 7109,
      "BDAD": 7110,
      "BEFC": 7111,
      "8413": 7112,
      "9045": 7113,
      "9089": 7114,
      "9078": 7115,
      "BAFD": 7116,
      "dena": 7117,
      "3423": 7118,
      "CAFD": 7119,
      "9567": 7120,
      "9589": 7121,
      "DAFA": 7122,
      "7880": 7123,
      "7828": 7124,
      "EFEB": 7125,
      "4612": 7126,
      "4117": 7127,
      "4122": 7128,
      "7248": 7129,
      "8189": 7130,
      "4210": 7131,
      "5343": 7132,
      "5309": 7133,
      "5373": 7134,
      "9349": 7135,
      "9339": 7136,
      "9309": 7137,
      "8625": 7138,
      "8629": 7139,
      "8667": 7140,
      "mene": 7141,
      "7665": 7142,
      "7667": 7143,
      "5844": 7144,
      "0780": 7145,
      "0764": 7146,
      "3123": 7147,
      "3118": 7148,
      "9765": 7149,
      "9720": 7150,
      "5415": 7151,
      "3667": 7152,
      "9645": 7153,
      "9867": 7154,
      "9847": 7155,
      "5119": 7156,
      "talo": 7157,
      "tano": 7158,
      "tudio": 7159,
      "Ġ280": 7160,
      "natura": 7161,
      "Almo": 7162,
      "Albal": 7163,
      "Alta": 7164,
      "Alhama": 7165,
      "Salo": 7166,
      "Sang": 7167,
      "ricolacant": 7168,
      "bano": 7169,
      "Vista": 7170,
      "manzan": 7171,
      "aida": 7172,
      "adan": 7173,
      "bou": 7174,
      "cedo": 7175,
      "perro": 7176,
      "resort": 7177,
      "neda": 7178,
      "neja": 7179,
      "Arco": 7180,
      "Arruna": 7181,
      "miami": 7182,
      "joya": 7183,
      "Pater": 7184,
      "Barca": 7185,
      "6409": 7186,
      "Mari": 7187,
      "Carden": 7188,
      "bero": 7189,
      "usk": 7190,
      "Mat": 7191,
      "Rox": 7192,
      "Romero": 7193,
      "igh": 7194,
      "igno": 7195,
      "Segun": 7196,
      "Bay": 7197,
      "Bata": 7198,
      "Pelei": 7199,
      "fic": 7200,
      "Valls": 7201,
      "Villafranca": 7202,
      "1408": 7203,
      "Torr": 7204,
      "Torra": 7205,
      "Tormes": 7206,
      "1652": 7207,
      "gecars": 7208,
      "1635": 7209,
      "1636": 7210,
      "1430": 7211,
      "10320": 7212,
      "1873": 7213,
      "6859": 7214,
      "Toro": 7215,
      "40943": 7216,
      "muta": 7217,
      "6891": 7218,
      "pota": 7219,
      "quillos": 7220,
      "2892": 7221,
      "DFCF": 7222,
      "guar": 7223,
      "Poma": 7224,
      "AFAA": 7225,
      "EABA": 7226,
      "EABE": 7227,
      "AEBF": 7228,
      "FFAF": 7229,
      "AADC": 7230,
      "DEBC": 7231,
      "EFBD": 7232,
      "EFBE": 7233,
      "chih": 7234,
      "Cortes": 7235,
      "Corral": 7236,
      "AFDD": 7237,
      "BADA": 7238,
      "CDBA": 7239,
      "CDBC": 7240,
      "CDBD": 7241,
      "DACF": 7242,
      "yola": 7243,
      "CBBA": 7244,
      "CBBF": 7245,
      "BCCB": 7246,
      "buck": 7247,
      "Lude": 7248,
      "12214": 7249,
      "Jaime": 7250,
      "andy": 7251,
      "CEBF": 7252,
      "quilla": 7253,
      "DFAA": 7254,
      "DFAE": 7255,
      "1646": 7256,
      "schn": 7257,
      "schu": 7258,
      "kers": 7259,
      "guero": 7260,
      "Casares": 7261,
      "Pico": 7262,
      "Pare": 7263,
      "sung": 7264,
      "ronio": 7265,
      "gratu": 7266,
      "Escal": 7267,
      "lette": 7268,
      "Lozana": 7269,
      "herminia": 7270,
      "grim": 7271,
      "uret": 7272,
      "secret": 7273,
      "ries": 7274,
      "rieta": 7275,
      "prensa": 7276,
      "Calz": 7277,
      "Maslo": 7278,
      "esposa": 7279,
      "ralba": 7280,
      "salsas": 7281,
      "Virma": 7282,
      "Hoyo": 7283,
      "Escultor": 7284,
      "ddie": 7285,
      "magicho": 7286,
      "casabolsa": 7287,
      "nardo": 7288,
      "Clara": 7289,
      "brun": 7290,
      "audiosat": 7291,
      "lecritu": 7292,
      "Bellmunt": 7293,
      "Fuentes": 7294,
      "yiutu": 7295,
      "clubfore": 7296,
      "Villalba": 7297,
      "Minguez": 7298,
      "Paratge": 7299,
      "blanquillos": 7300,
      "slations": 7301,
      "Correspon": 7302,
      "Crisp": 7303,
      "lagricolacant": 7304,
      "Aguilar": 7305,
      "hotelestop": 7306,
      "almascan": 7307,
      "manuel": 7308,
      "delmarmol": 7309,
      "young": 7310,
      "cubier": 7311,
      "hogar": 7312,
      "cafedetea": 7313,
      "prestigecars": 7314,
      "suecas": 7315,
      "pearl": 7316,
      "Montori": 7317,
      "Curell": 7318,
      "80243620": 7319,
      "Nicolas": 7320,
      "stylestudio": 7321,
      "Eulalia": 7322,
      "raullazaro": 7323,
      "ofertachina": 7324,
      "Periodista": 7325,
      "softstylestudio": 7326,
      "bueno": 7327,
      "enigmati": 7328,
      "introito": 7329,
      "informex": 7330,
      "htranslations": 7331,
      "artforall": 7332,
      "alfombra": 7333,
      "ankawaelda": 7334,
      "elrincondelmarmol": 7335,
      "carritosessionid": 7336,
      "naturalagricolacant": 7337,
      "Arrunategui": 7338,
      "Paterna": 7339,
      "Peleij": 7340,
      "prensahp": 7341,
      "salsaspain": 7342,
      "magichobby": 7343,
      "lecriture": 7344,
      "yiutuve": 7345,
      "clubforex": 7346,
      "Correspondencia": 7347,
      "hotelestopsecret": 7348,
      "almascanarias": 7349,
      "cafedeteatro": 7350,
      "naturalagricolacantabria": 7351,
      "**": 7352,
      "0139": 7353,
      "0855": 7354,
      "0286": 7355,
      "0395": 7356,
      "1159": 7357,
      "1457": 7358,
      "2459": 7359,
      "2157": 7360,
      "2293": 7361,
      "2298": 7362,
      "3270": 7363,
      "3400": 7364,
      "3188": 7365,
      "3095": 7366,
      "3741": 7367,
      "3007": 7368,
      "4199": 7369,
      "4135": 7370,
      "4197": 7371,
      "4499": 7372,
      "4878": 7373,
      "5153": 7374,
      "5875": 7375,
      "5435": 7376,
      "5834": 7377,
      "6192": 7378,
      "6157": 7379,
      "7133": 7380,
      "7144": 7381,
      "7209": 7382,
      "7646": 7383,
      "7884": 7384,
      "8255": 7385,
      "8174": 7386,
      "9270": 7387,
      "9805": 7388,
      "9853": 7389,
      "Adela": 7390,
      "Aya": 7391,
      "Abi": 7392,
      "Apo": 7393,
      "AECA": 7394,
      "AFEF": 7395,
      "AECC": 7396,
      "Asad": 7397,
      "Bad": 7398,
      "Buen": 7399,
      "BFAB": 7400,
      "BECA": 7401,
      "BACC": 7402,
      "BEEF": 7403,
      "BAAA": 7404,
      "Bene": 7405,
      "Ball": 7406,
      "Bauti": 7407,
      "Cir": 7408,
      "Costa": 7409,
      "DECA": 7410,
      "DEDB": 7411,
      "DEDC": 7412,
      "Dacil": 7413,
      "Ech": 7414,
      "EAAE": 7415,
      "Fal": 7416,
      "FEDE": 7417,
      "FFEF": 7418,
      "FECE": 7419,
      "Gorg": 7420,
      "Gines": 7421,
      "Hol": 7422,
      "IS": 7423,
      "Io": 7424,
      "Iver": 7425,
      "Jar": 7426,
      "Lap": 7427,
      "Lim": 7428,
      "NO": 7429,
      "Od": 7430,
      "Pir": 7431,
      "Pis": 7432,
      "Rra": 7433,
      "SO": 7434,
      "Son": 7435,
      "Ste": 7436,
      "Sub": 7437,
      "Sac": 7438,
      "Sam": 7439,
      "Sul": 7440,
      "Stella": 7441,
      "Tap": 7442,
      "Vo": 7443,
      "Villo": 7444,
      "Yago": 7445,
      "aca": 7446,
      "aki": 7447,
      "bau": 7448,
      "cH": 7449,
      "cd": 7450,
      "cros": 7451,
      "cus": 7452,
      "cini": 7453,
      "cbb": 7454,
      "event": 7455,
      "fur": 7456,
      "fri": 7457,
      "fbi": 7458,
      "fiel": 7459,
      "fuente": 7460,
      "gene": 7461,
      "gados": 7462,
      "hes": 7463,
      "iv": 7464,
      "ile": 7465,
      "ist": 7466,
      "itren": 7467,
      "juela": 7468,
      "jani": 7469,
      "nard": 7470,
      "olo": 7471,
      "pon": 7472,
      "psy": 7473,
      "quen": 7474,
      "rd": 7475,
      "rn": 7476,
      "stro": 7477,
      "sley": 7478,
      "sima": 7479,
      "tros": 7480,
      "udio": 7481,
      "yok": 7482,
      "yce": 7483,
      "zza": 7484,
      "zone": 7485,
      "Ġ80": 7486,
      "Ġ40": 7487,
      "Ġ85": 7488,
      "Ġ26": 7489,
      "Ġ54": 7490,
      "Ġ36": 7491,
      "Ġ52": 7492,
      "Ġ118": 7493,
      "Ġ278": 7494,
      "Ġ114": 7495,
      "onia": 7496,
      "cath": 7497,
      "telo": 7498,
      "tima": 7499,
      "ticas": 7500,
      "ladigi": 7501,
      "8067": 7502,
      "8088": 7503,
      "8026": 7504,
      "8008": 7505,
      "8092": 7506,
      "8004": 7507,
      "enko": 7508,
      "endi": 7509,
      "enmenorca": 7510,
      "lik": 7511,
      "lida": 7512,
      "limi": 7513,
      "liana": 7514,
      "pta": 7515,
      "indi": 7516,
      "agra": 7517,
      "chami": 7518,
      "zie": 7519,
      "zier": 7520,
      "cott": 7521,
      "rod": 7522,
      "rov": 7523,
      "rojo": 7524,
      "rolet": 7525,
      "rocke": 7526,
      "deca": 7527,
      "deimagenes": 7528,
      "apps": 7529,
      "now": 7530,
      "noly": 7531,
      "nolinda": 7532,
      "ece": 7533,
      "eces": 7534,
      "sevilla": 7535,
      "calla": 7536,
      "agement": 7537,
      "aren": 7538,
      "arders": 7539,
      "artesania": 7540,
      "iet": 7541,
      "imun": 7542,
      "iminal": 7543,
      "mallo": 7544,
      "pace": 7545,
      "Cab": 7546,
      "Caba": 7547,
      "Cabre": 7548,
      "llana": 7549,
      "losofi": 7550,
      "Colon": 7551,
      "necer": 7552,
      "rem": 7553,
      "rete": 7554,
      "resta": 7555,
      "repre": 7556,
      "regui": 7557,
      "reusk": 7558,
      "spe": 7559,
      "spi": 7560,
      "orr": 7561,
      "mbi": 7562,
      "cipal": 7563,
      "ciapla": 7564,
      "2523": 7565,
      "2587": 7566,
      "2560": 7567,
      "2599": 7568,
      "2577": 7569,
      "2526": 7570,
      "2590": 7571,
      "2582": 7572,
      "2592": 7573,
      "gida": 7574,
      "gilio": 7575,
      "dion": 7576,
      "direc": 7577,
      "4069": 7578,
      "4055": 7579,
      "4062": 7580,
      "4050": 7581,
      "4081": 7582,
      "4007": 7583,
      "4056": 7584,
      "riana": 7585,
      "risi": 7586,
      "ritte": 7587,
      "peli": 7588,
      "2723": 7589,
      "2763": 7590,
      "2719": 7591,
      "2755": 7592,
      "2757": 7593,
      "2776": 7594,
      "2701": 7595,
      "moon": 7596,
      "thur": 7597,
      "fort": 7598,
      "logon": 7599,
      "ald": 7600,
      "anu": 7601,
      "1089": 7602,
      "1064": 7603,
      "1059": 7604,
      "1050": 7605,
      "1037": 7606,
      "1099": 7607,
      "1034": 7608,
      "1041": 7609,
      "1053": 7610,
      "1094": 7611,
      "1091": 7612,
      "2909": 7613,
      "2975": 7614,
      "2973": 7615,
      "2911": 7616,
      "2937": 7617,
      "2977": 7618,
      "2946": 7619,
      "2981": 7620,
      "2994": 7621,
      "1768": 7622,
      "1770": 7623,
      "1779": 7624,
      "1755": 7625,
      "1711": 7626,
      "1703": 7627,
      "1798": 7628,
      "2319": 7629,
      "2355": 7630,
      "2331": 7631,
      "2302": 7632,
      "2306": 7633,
      "elma": 7634,
      "6380": 7635,
      "6317": 7636,
      "1363": 7637,
      "1369": 7638,
      "1345": 7639,
      "1359": 7640,
      "1399": 7641,
      "1338": 7642,
      "1395": 7643,
      "1378": 7644,
      "1376": 7645,
      "1397": 7646,
      "8517": 7647,
      "8513": 7648,
      "8569": 7649,
      "8534": 7650,
      "8572": 7651,
      "8552": 7652,
      "1587": 7653,
      "1589": 7654,
      "1533": 7655,
      "1566": 7656,
      "1526": 7657,
      "1597": 7658,
      "1592": 7659,
      "1598": 7660,
      "1591": 7661,
      "6980": 7662,
      "6943": 7663,
      "6960": 7664,
      "6949": 7665,
      "6922": 7666,
      "6912": 7667,
      "6921": 7668,
      "6936": 7669,
      "6563": 7670,
      "6513": 7671,
      "6509": 7672,
      "6514": 7673,
      "6521": 7674,
      "6506": 7675,
      "4349": 7676,
      "4328": 7677,
      "4314": 7678,
      "4300": 7679,
      "4324": 7680,
      "4391": 7681,
      "6740": 7682,
      "6719": 7683,
      "6766": 7684,
      "6737": 7685,
      "6705": 7686,
      "6778": 7687,
      "6736": 7688,
      "6751": 7689,
      "ssi": 7690,
      "1933": 7691,
      "1930": 7692,
      "1999": 7693,
      "1976": 7694,
      "1901": 7695,
      "4711": 7696,
      "4737": 7697,
      "4790": 7698,
      "4772": 7699,
      "4776": 7700,
      "4756": 7701,
      "4754": 7702,
      "8717": 7703,
      "8778": 7704,
      "8708": 7705,
      "2033": 7706,
      "2074": 7707,
      "2030": 7708,
      "2021": 7709,
      "4589": 7710,
      "4509": 7711,
      "4518": 7712,
      "4528": 7713,
      "4514": 7714,
      "4550": 7715,
      "4516": 7716,
      "4534": 7717,
      "4553": 7718,
      "45870": 7719,
      "6023": 7720,
      "6085": 7721,
      "6039": 7722,
      "6014": 7723,
      "6000": 7724,
      "6037": 7725,
      "6072": 7726,
      "6086": 7727,
      "6032": 7728,
      "8927": 7729,
      "8973": 7730,
      "8966": 7731,
      "8921": 7732,
      "8996": 7733,
      "8951": 7734,
      "8325": 7735,
      "8360": 7736,
      "8318": 7737,
      "8370": 7738,
      "8394": 7739,
      "8391": 7740,
      "4930": 7741,
      "4999": 7742,
      "4991": 7743,
      "nis": 7744,
      "nica": 7745,
      "nicad": 7746,
      "2229": 7747,
      "2228": 7748,
      "EDDB": 7749,
      "EDAA": 7750,
      "EDBA": 7751,
      "EDCF": 7752,
      "carritobob": 7753,
      "3980": 7754,
      "3927": 7755,
      "3983": 7756,
      "3958": 7757,
      "FAEC": 7758,
      "FAAB": 7759,
      "FADD": 7760,
      "FADF": 7761,
      "ECFF": 7762,
      "ECBC": 7763,
      "ECCE": 7764,
      "ECDF": 7765,
      "FCED": 7766,
      "FCFB": 7767,
      "FCAD": 7768,
      "FCAB": 7769,
      "FCCC": 7770,
      "FCBC": 7771,
      "FCCF": 7772,
      "FCDF": 7773,
      "1242": 7774,
      "FDDB": 7775,
      "FDFF": 7776,
      "FDBE": 7777,
      "FDCA": 7778,
      "FDEA": 7779,
      "FBFB": 7780,
      "FBFF": 7781,
      "FBAE": 7782,
      "FBBC": 7783,
      "FBDF": 7784,
      "4862": 7785,
      "4824": 7786,
      "4846": 7787,
      "4886": 7788,
      "EBFA": 7789,
      "EBAD": 7790,
      "EBDF": 7791,
      "0939": 7792,
      "0962": 7793,
      "0977": 7794,
      "0957": 7795,
      "0907": 7796,
      "1889": 7797,
      "1864": 7798,
      "1841": 7799,
      "ACAD": 7800,
      "6818": 7801,
      "6881": 7802,
      "7505": 7803,
      "7546": 7804,
      "7508": 7805,
      "2815": 7806,
      "ADED": 7807,
      "ADFF": 7808,
      "ABFB": 7809,
      "ABBB": 7810,
      "ABDB": 7811,
      "6123": 7812,
      "6144": 7813,
      "7070": 7814,
      "7035": 7815,
      "7021": 7816,
      "7081": 7817,
      "7053": 7818,
      "7058": 7819,
      "6425": 7820,
      "6469": 7821,
      "6449": 7822,
      "7339": 7823,
      "7328": 7824,
      "7373": 7825,
      "7300": 7826,
      "7344": 7827,
      "7316": 7828,
      "7963": 7829,
      "7987": 7830,
      "7955": 7831,
      "7950": 7832,
      "5525": 7833,
      "5577": 7834,
      "5546": 7835,
      "5571": 7836,
      "FEFF": 7837,
      "FEAE": 7838,
      "BBCB": 7839,
      "BBBA": 7840,
      "DCFD": 7841,
      "DCAC": 7842,
      "DCCE": 7843,
      "DCDA": 7844,
      "DCCF": 7845,
      "1447": 7846,
      "6217": 7847,
      "6263": 7848,
      "6212": 7849,
      "6246": 7850,
      "6241": 7851,
      "5922": 7852,
      "CCEA": 7853,
      "EEAA": 7854,
      "0020": 7855,
      "0059": 7856,
      "0035": 7857,
      "1143": 7858,
      "1167": 7859,
      "1187": 7860,
      "11630": 7861,
      "AAFA": 7862,
      "AAEB": 7863,
      "AAAF": 7864,
      "meu": 7865,
      "medi": 7866,
      "2410": 7867,
      "2463": 7868,
      "2415": 7869,
      "2443": 7870,
      "2426": 7871,
      "FFFA": 7872,
      "FFFC": 7873,
      "7429": 7874,
      "7463": 7875,
      "7441": 7876,
      "7442": 7877,
      "5023": 7878,
      "5083": 7879,
      "5009": 7880,
      "5036": 7881,
      "3059": 7882,
      "DDEE": 7883,
      "DDAE": 7884,
      "6668": 7885,
      "AEAE": 7886,
      "CBFC": 7887,
      "CBFB": 7888,
      "3785": 7889,
      "3778": 7890,
      "37621": 7891,
      "4483": 7892,
      "4449": 7893,
      "3588": 7894,
      "3572": 7895,
      "acu": 7896,
      "DEAD": 7897,
      "wdsl": 7898,
      "7727": 7899,
      "7785": 7900,
      "3818": 7901,
      "2627": 7902,
      "2669": 7903,
      "2665": 7904,
      "toscbb": 7905,
      "CDFD": 7906,
      "CDAB": 7907,
      "0549": 7908,
      "0537": 7909,
      "BDAF": 7910,
      "BEAA": 7911,
      "9085": 7912,
      "9032": 7913,
      "corp": 7914,
      "5722": 7915,
      "5775": 7916,
      "5782": 7917,
      "CAFA": 7918,
      "CAFE": 7919,
      "CFFD": 7920,
      "EAED": 7921,
      "7829": 7922,
      "DFFA": 7923,
      "4613": 7924,
      "4628": 7925,
      "4165": 7926,
      "7217": 7927,
      "8129": 7928,
      "stre": 7929,
      "4267": 7930,
      "4220": 7931,
      "4218": 7932,
      "4262": 7933,
      "5311": 7934,
      "8240": 7935,
      "8215": 7936,
      "7167": 7937,
      "9369": 7938,
      "9360": 7939,
      "9379": 7940,
      "8610": 7941,
      "0363": 7942,
      "0360": 7943,
      "5843": 7944,
      "5860": 7945,
      "0783": 7946,
      "3180": 7947,
      "5627": 7948,
      "5610": 7949,
      "5622": 7950,
      "3629": 7951,
      "3663": 7952,
      "0817": 7953,
      "0822": 7954,
      "0868": 7955,
      "0165": 7956,
      "9214": 7957,
      "taber": 7958,
      "taya": 7959,
      "tatanto": 7960,
      "0463": 7961,
      "0445": 7962,
      "0483": 7963,
      "0449": 7964,
      "ummer": 7965,
      "Deu": 7966,
      "Demun": 7967,
      "fol": 7968,
      "nati": 7969,
      "natra": 7970,
      "natural": 7971,
      "25075": 7972,
      "Queral": 7973,
      "varo": 7974,
      "valos": 7975,
      "vit": 7976,
      "vita": 7977,
      "Alg": 7978,
      "Alt": 7979,
      "Alu": 7980,
      "Alman": 7981,
      "Almu": 7982,
      "Aldeh": 7983,
      "Sada": 7984,
      "titulosofi": 7985,
      "fotosero": 7986,
      "Vidal": 7987,
      "management": 7988,
      "adc": 7989,
      "bolo": 7990,
      "boarders": 7991,
      "cela": 7992,
      "delvo": 7993,
      "delpintor": 7994,
      "unnego": 7995,
      "Arj": 7996,
      "Sancho": 7997,
      "miz": 7998,
      "miro": 7999,
      "miweb": 8000,
      "berle": 8001,
      "veh": 8002,
      "vey": 8003,
      "stero": 8004,
      "Vali": 8005,
      "Carbal": 8006,
      "beatriz": 8007,
      "tort": 8008,
      "Max": 8009,
      "Mass": 8010,
      "Mateu": 8011,
      "anya": 8012,
      "Roc": 8013,
      "7837": 8014,
      "Lebri": 8015,
      "orato": 8016,
      "Bat": 8017,
      "lupe": 8018,
      "Villares": 8019,
      "1830": 8020,
      "1833": 8021,
      "1838": 8022,
      "1403": 8023,
      "links": 8024,
      "Salas": 8025,
      "6606": 8026,
      "19268": 8027,
      "Torn": 8028,
      "hotel": 8029,
      "sitienes": 8030,
      "terra": 8031,
      "1133": 8032,
      "1675": 8033,
      "billa": 8034,
      "hem": 8035,
      "hey": 8036,
      "desinvent": 8037,
      "muy": 8038,
      "muna": 8039,
      "lasmaj": 8040,
      "Infa": 8041,
      "Delgados": 8042,
      "4631": 8043,
      "4638": 8044,
      "dorra": 8045,
      "trueca": 8046,
      "Guadalupe": 8047,
      "4477": 8048,
      "AFBC": 8049,
      "AFBE": 8050,
      "6838": 8051,
      "Zarzosa": 8052,
      "DFCB": 8053,
      "DFCC": 8054,
      "DFCD": 8055,
      "DFCE": 8056,
      "1692": 8057,
      "4831": 8058,
      "AFAC": 8059,
      "AFAD": 8060,
      "EABC": 8061,
      "6654": 8062,
      "Boix": 8063,
      "DBBA": 8064,
      "EFAA": 8065,
      "EFAD": 8066,
      "FFAE": 8067,
      "tty": 8068,
      "BEBF": 8069,
      "AFCA": 8070,
      "FFCA": 8071,
      "DABF": 8072,
      "garda": 8073,
      "CDBE": 8074,
      "CADA": 8075,
      "CFBB": 8076,
      "CFBD": 8077,
      "BCCC": 8078,
      "FFDA": 8079,
      "ity": 8080,
      "itan": 8081,
      "BCBF": 8082,
      "monnal": 8083,
      "Gaspar": 8084,
      "juan": 8085,
      "BDBA": 8086,
      "Javier": 8087,
      "CACA": 8088,
      "1626": 8089,
      "CAAE": 8090,
      "FFBC": 8091,
      "BFAE": 8092,
      "CDEA": 8093,
      "Membri": 8094,
      "3796": 8095,
      "Casar": 8096,
      "Sotor": 8097,
      "Parra": 8098,
      "Lih": 8099,
      "Lihue": 8100,
      "webtienes": 8101,
      "Campillo": 8102,
      "grafos": 8103,
      "villas": 8104,
      "Ferr": 8105,
      "Ferran": 8106,
      "amira": 8107,
      "yuan": 8108,
      "coso": 8109,
      "cosur": 8110,
      "diabolo": 8111,
      "herm": 8112,
      "sansalvador": 8113,
      "7701": 8114,
      "34309": 8115,
      "Vereda": 8116,
      "madura": 8117,
      "dys": 8118,
      "Antoni": 8119,
      "Munt": 8120,
      "31227": 8121,
      "91059": 8122,
      "icultor": 8123,
      "Espar": 8124,
      "archivodeimagenes": 8125,
      "networ": 8126,
      "Portillo": 8127,
      "broad": 8128,
      "frank": 8129,
      "pany": 8130,
      "Rosse": 8131,
      "Rosario": 8132,
      "Castille": 8133,
      "tencia": 8134,
      "amontatanto": 8135,
      "Borb": 8136,
      "Oliva": 8137,
      "ville": 8138,
      "green": 8139,
      "Prat": 8140,
      "Prado": 8141,
      "clay": 8142,
      "kuo": 8143,
      "magritte": 8144,
      "Palau": 8145,
      "criminal": 8146,
      "gorio": 8147,
      "reruela": 8148,
      "tiaherminia": 8149,
      "Brau": 8150,
      "grandesinvent": 8151,
      "kspain": 8152,
      "Bonet": 8153,
      "Silva": 8154,
      "telefono": 8155,
      "telegrafos": 8156,
      "clinicad": 8157,
      "hosteria": 8158,
      "espanoly": 8159,
      "Trini": 8160,
      "zones": 8161,
      "enoza": 8162,
      "Ignolinda": 8163,
      "Planells": 8164,
      "Planelles": 8165,
      "volt": 8166,
      "Catalog": 8167,
      "Aranda": 8168,
      "Adelmo": 8169,
      "Venan": 8170,
      "santacruz": 8171,
      "longboarders": 8172,
      "feller": 8173,
      "Correos": 8174,
      "Nogue": 8175,
      "unawebtienes": 8176,
      "hipereusk": 8177,
      "Ferreol": 8178,
      "Ceciliano": 8179,
      "Norte": 8180,
      "Resid": 8181,
      "Selva": 8182,
      "surcosur": 8183,
      "Canales": 8184,
      "montamontatanto": 8185,
      "ringringrent": 8186,
      "espaciodelpintor": 8187,
      "ffey": 8188,
      "tantomontamontatanto": 8189,
      "negocios": 8190,
      "Sebastian": 8191,
      "Infante": 8192,
      "feliciano": 8193,
      "Franceschini": 8194,
      "seleccion": 8195,
      "Montiel": 8196,
      "chicasdiabolo": 8197,
      "buscador": 8198,
      "Atalaya": 8199,
      "Hermanos": 8200,
      "Laguna": 8201,
      "evelin": 8202,
      "entalsansalvador": 8203,
      "isneros": 8204,
      "Pelayo": 8205,
      "Aires": 8206,
      "Oficial": 8207,
      "Teodo": 8208,
      "cumming": 8209,
      "clubdeviaje": 8210,
      "Hornillos": 8211,
      "lamola": 8212,
      "chevrolet": 8213,
      "deuxmanagement": 8214,
      "ablanca": 8215,
      "barebackspain": 8216,
      "child": 8217,
      "portaldesign": 8218,
      "Patricio": 8219,
      "joyaseleccion": 8220,
      "Segundo": 8221,
      "Batalla": 8222,
      "cubiertoscbb": 8223,
      "Bautista": 8224,
      "itrends": 8225,
      "ladigianni": 8226,
      "rockefeller": 8227,
      "ciaplast": 8228,
      "risiberia": 8229,
      "Demuner": 8230,
      "naturalchild": 8231,
      "Aldehuela": 8232,
      "titulosoficiales": 8233,
      "fotoseroticas": 8234,
      "delvoto": 8235,
      "unnegocio": 8236,
      "sitienesunawebtienes": 8237,
      "lasmajadillas": 8238,
      "truecatucasa": 8239,
      "network": 8240,
      "grandesinventos": 8241,
      "clinicadentalsansalvador": 8242,
      "hosterialasmajadillas": 8243,
      "espanolynegocios": 8244,
      "santacruzdelvoto": 8245,
      "hipereuskadi": 8246,
      "sitienesunawebtienesunnegocio": 8247,
      "+*": 8248,
      "-&": 8249,
      "0253": 8250,
      "0690": 8251,
      "0800": 8252,
      "0450": 8253,
      "0430": 8254,
      "0479": 8255,
      "1124": 8256,
      "1455": 8257,
      "2234": 8258,
      "2105": 8259,
      "2870": 8260,
      "2457": 8261,
      "2405": 8262,
      "2272": 8263,
      "2677": 8264,
      "2642": 8265,
      "3453": 8266,
      "3879": 8267,
      "3679": 8268,
      "3497": 8269,
      "3295": 8270,
      "3404": 8271,
      "3657": 8272,
      "3853": 8273,
      "3550": 8274,
      "3881": 8275,
      "4290": 8276,
      "4235": 8277,
      "4279": 8278,
      "4296": 8279,
      "5104": 8280,
      "5103": 8281,
      "5690": 8282,
      "5470": 8283,
      "5109": 8284,
      "5699": 8285,
      "5873": 8286,
      "5603": 8287,
      "5477": 8288,
      "5878": 8289,
      "5492": 8290,
      "5436": 8291,
      "6179": 8292,
      "6273": 8293,
      "6499": 8294,
      "6457": 8295,
      "7124": 8296,
      "7495": 8297,
      "7191": 8298,
      "7405": 8299,
      "7475": 8300,
      "7095": 8301,
      "7184": 8302,
      "7896": 8303,
      "7631": 8304,
      "7491": 8305,
      "7851": 8306,
      "8190": 8307,
      "8150": 8308,
      "8239": 8309,
      "8133": 8310,
      "8157": 8311,
      "8670": 8312,
      "8635": 8313,
      "8653": 8314,
      "8859": 8315,
      "8633": 8316,
      "8434": 8317,
      "8837": 8318,
      "9139": 8319,
      "9639": 8320,
      "9154": 8321,
      "9654": 8322,
      "9759": 8323,
      "9621": 8324,
      "Are": 8325,
      "Aza": 8326,
      "Avi": 8327,
      "Aber": 8328,
      "AECE": 8329,
      "AFEA": 8330,
      "Adra": 8331,
      "BO": 8332,
      "Blo": 8333,
      "Bara": 8334,
      "Bras": 8335,
      "BECC": 8336,
      "BAAF": 8337,
      "CH": 8338,
      "Cle": 8339,
      "CEDB": 8340,
      "Clar": 8341,
      "CEDD": 8342,
      "CEEF": 8343,
      "CDDA": 8344,
      "Die": 8345,
      "Due": 8346,
      "Dur": 8347,
      "DACC": 8348,
      "DECE": 8349,
      "DECD": 8350,
      "Dami": 8351,
      "Em": 8352,
      "EACB": 8353,
      "EEDD": 8354,
      "Einstein": 8355,
      "FX": 8356,
      "Fr": 8357,
      "Fs": 8358,
      "FEDF": 8359,
      "Fidalgo": 8360,
      "Gim": 8361,
      "Gel": 8362,
      "IM": 8363,
      "Ian": 8364,
      "Ira": 8365,
      "Ina": 8366,
      "Igu": 8367,
      "Jau": 8368,
      "Lec": 8369,
      "Log": 8370,
      "Lima": 8371,
      "Mie": 8372,
      "Ores": 8373,
      "Oberto": 8374,
      "Pini": 8375,
      "Pello": 8376,
      "Rida": 8377,
      "Rami": 8378,
      "St": 8379,
      "Sec": 8380,
      "Sie": 8381,
      "Sus": 8382,
      "Sig": 8383,
      "Tur": 8384,
      "Tru": 8385,
      "Tara": 8386,
      "Tab": 8387,
      "Tubilla": 8388,
      "VE": 8389,
      "Wer": 8390,
      "Zan": 8391,
      "Zurita": 8392,
      "avilano": 8393,
      "cOR": 8394,
      "cruz": 8395,
      "cimi": 8396,
      "dim": 8397,
      "dub": 8398,
      "dino": 8399,
      "dul": 8400,
      "eon": 8401,
      "ft": 8402,
      "fad": 8403,
      "fru": 8404,
      "frie": 8405,
      "fren": 8406,
      "facio": 8407,
      "gO": 8408,
      "gros": 8409,
      "hof": 8410,
      "hana": 8411,
      "ijo": 8412,
      "jp": 8413,
      "jares": 8414,
      "kra": 8415,
      "kir": 8416,
      "kho": 8417,
      "lr": 8418,
      "mona": 8419,
      "non": 8420,
      "nin": 8421,
      "nde": 8422,
      "nel": 8423,
      "nier": 8424,
      "naga": 8425,
      "ode": 8426,
      "ole": 8427,
      "pia": 8428,
      "pens": 8429,
      "priva": 8430,
      "rto": 8431,
      "sio": 8432,
      "sana": 8433,
      "sign": 8434,
      "tI": 8435,
      "tza": 8436,
      "tamarina": 8437,
      "uv": 8438,
      "uspar": 8439,
      "vla": 8440,
      "wley": 8441,
      "yalon": 8442,
      "Ġ87": 8443,
      "Ġ49": 8444,
      "Ġ50": 8445,
      "Ġ91": 8446,
      "Ġ110": 8447,
      "Ġ127": 8448,
      "Ġ107": 8449,
      "Ġ297": 8450,
      "Ġ294": 8451,
      "Ġ284": 8452,
      "cayo": 8453,
      "camonte": 8454,
      "teiro": 8455,
      "tieb": 8456,
      "osan": 8457,
      "lah": 8458,
      "law": 8459,
      "lach": 8460,
      "lang": 8461,
      "labo": 8462,
      "lares": 8463,
      "lawn": 8464,
      "8023": 8465,
      "8065": 8466,
      "8049": 8467,
      "8035": 8468,
      "8097": 8469,
      "8002": 8470,
      "enca": 8471,
      "enco": 8472,
      "lix": 8473,
      "inad": 8474,
      "aghan": 8475,
      "chua": 8476,
      "chball": 8477,
      "chel": 8478,
      "cob": 8479,
      "cola": 8480,
      "cover": 8481,
      "colis": 8482,
      "rog": 8483,
      "rode": 8484,
      "roig": 8485,
      "robb": 8486,
      "dey": 8487,
      "demas": 8488,
      "devideos": 8489,
      "apicultor": 8490,
      "applications": 8491,
      "ecio": 8492,
      "seva": 8493,
      "htmlsamp": 8494,
      "arin": 8495,
      "arron": 8496,
      "dalena": 8497,
      "ledon": 8498,
      "leSamples": 8499,
      "mana": 8500,
      "maest": 8501,
      "pat": 8502,
      "pado": 8503,
      "paseo": 8504,
      "Cani": 8505,
      "Calera": 8506,
      "Laba": 8507,
      "Cobo": 8508,
      "Coria": 8509,
      "Comer": 8510,
      "Collan": 8511,
      "conera": 8512,
      "conmaest": 8513,
      "Agueda": 8514,
      "bley": 8515,
      "redo": 8516,
      "rega": 8517,
      "sper": 8518,
      "ntE": 8519,
      "orman": 8520,
      "ubia": 8521,
      "citi": 8522,
      "ciana": 8523,
      "2518": 8524,
      "2514": 8525,
      "25253": 8526,
      "2503": 8527,
      "2558": 8528,
      "dick": 8529,
      "doug": 8530,
      "4049": 8531,
      "4061": 8532,
      "4046": 8533,
      "4082": 8534,
      "40007": 8535,
      "pea": 8536,
      "ped": 8537,
      "2769": 8538,
      "2748": 8539,
      "2768": 8540,
      "2777": 8541,
      "2734": 8542,
      "2772": 8543,
      "27243": 8544,
      "tha": 8545,
      "thy": 8546,
      "ery": 8547,
      "eras": 8548,
      "alfa": 8549,
      "anca": 8550,
      "1027": 8551,
      "1075": 8552,
      "1014": 8553,
      "1054": 8554,
      "1036": 8555,
      "1092": 8556,
      "10133": 8557,
      "2925": 8558,
      "2947": 8559,
      "2989": 8560,
      "2928": 8561,
      "2961": 8562,
      "2974": 8563,
      "2944": 8564,
      "2988": 8565,
      "2901": 8566,
      "2902": 8567,
      "2951": 8568,
      "29494": 8569,
      "recer": 8570,
      "1780": 8571,
      "1718": 8572,
      "1759": 8573,
      "1781": 8574,
      "17143": 8575,
      "2343": 8576,
      "2349": 8577,
      "2368": 8578,
      "2390": 8579,
      "2372": 8580,
      "2353": 8581,
      "2382": 8582,
      "2303": 8583,
      "2398": 8584,
      "6365": 8585,
      "6379": 8586,
      "6300": 8587,
      "6388": 8588,
      "6346": 8589,
      "1320": 8590,
      "1381": 8591,
      "1358": 8592,
      "1332": 8593,
      "131917": 8594,
      "iola": 8595,
      "8509": 8596,
      "8528": 8597,
      "8579": 8598,
      "8514": 8599,
      "8500": 8600,
      "8524": 8601,
      "8593": 8602,
      "8596": 8603,
      "8506": 8604,
      "1519": 8605,
      "1549": 8606,
      "1553": 8607,
      "1582": 8608,
      "1571": 8609,
      "1558": 8610,
      "6939": 8611,
      "6928": 8612,
      "6959": 8613,
      "6988": 8614,
      "6995": 8615,
      "6997": 8616,
      "6992": 8617,
      "6902": 8618,
      "6569": 8619,
      "6547": 8620,
      "6562": 8621,
      "6500": 8622,
      "6550": 8623,
      "6557": 8624,
      "6581": 8625,
      "6582": 8626,
      "65185": 8627,
      "4310": 8628,
      "4329": 8629,
      "4309": 8630,
      "4379": 8631,
      "4316": 8632,
      "4381": 8633,
      "4354": 8634,
      "4396": 8635,
      "4398": 8636,
      "6769": 8637,
      "6770": 8638,
      "6777": 8639,
      "6758": 8640,
      "ssandra": 8641,
      "1919": 8642,
      "1968": 8643,
      "1961": 8644,
      "1946": 8645,
      "1971": 8646,
      "1936": 8647,
      "4783": 8648,
      "4722": 8649,
      "4738": 8650,
      "4707": 8651,
      "4798": 8652,
      "4751": 8653,
      "4704": 8654,
      "47182": 8655,
      "8727": 8656,
      "8748": 8657,
      "8775": 8658,
      "2063": 8659,
      "2047": 8660,
      "2049": 8661,
      "2081": 8662,
      "4527": 8663,
      "4510": 8664,
      "4517": 8665,
      "4560": 8666,
      "4549": 8667,
      "4575": 8668,
      "4559": 8669,
      "4574": 8670,
      "4530": 8671,
      "4501": 8672,
      "4596": 8673,
      "6013": 8674,
      "6068": 8675,
      "6070": 8676,
      "6084": 8677,
      "6031": 8678,
      "6002": 8679,
      "asterio": 8680,
      "8963": 8681,
      "8990": 8682,
      "8956": 8683,
      "89483": 8684,
      "8340": 8685,
      "8343": 8686,
      "8324": 8687,
      "8321": 8688,
      "8305": 8689,
      "8378": 8690,
      "ilus": 8691,
      "4910": 8692,
      "4939": 8693,
      "4911": 8694,
      "4981": 8695,
      "nic": 8696,
      "2263": 8697,
      "2214": 8698,
      "2216": 8699,
      "2246": 8700,
      "EDCB": 8701,
      "Reca": 8702,
      "Rebes": 8703,
      "ionari": 8704,
      "ionador": 8705,
      "tart": 8706,
      "3943": 8707,
      "3981": 8708,
      "3997": 8709,
      "3992": 8710,
      "39660": 8711,
      "FAAD": 8712,
      "FABB": 8713,
      "FADC": 8714,
      "FABA": 8715,
      "FADA": 8716,
      "FAEF": 8717,
      "ECEC": 8718,
      "ECBB": 8719,
      "ECDB": 8720,
      "ECBA": 8721,
      "ECEA": 8722,
      "FCe": 8723,
      "FCFE": 8724,
      "FCBE": 8725,
      "1280": 8726,
      "1240": 8727,
      "1213": 8728,
      "1261": 8729,
      "1241": 8730,
      "1282": 8731,
      "FDEB": 8732,
      "FDAB": 8733,
      "FDDF": 8734,
      "FDBF": 8735,
      "FBAC": 8736,
      "FBAB": 8737,
      "FBDE": 8738,
      "FBBD": 8739,
      "FBBF": 8740,
      "3389": 8741,
      "3383": 8742,
      "3370": 8743,
      "3300": 8744,
      "3344": 8745,
      "3353": 8746,
      "3332": 8747,
      "4847": 8748,
      "4868": 8749,
      "EBAC": 8750,
      "EBBC": 8751,
      "EBBE": 8752,
      "EBBA": 8753,
      "EBDA": 8754,
      "0949": 8755,
      "0953": 8756,
      "0903": 8757,
      "09143": 8758,
      "09227": 8759,
      "1840": 8760,
      "1863": 8761,
      "rab": 8762,
      "rae": 8763,
      "raz": 8764,
      "ACED": 8765,
      "ACFD": 8766,
      "ACBB": 8767,
      "ACCC": 8768,
      "ACEE": 8769,
      "ACAA": 8770,
      "ACBF": 8771,
      "6819": 8772,
      "7565": 8773,
      "7560": 8774,
      "2827": 8775,
      "2883": 8776,
      "2826": 8777,
      "ADEE": 8778,
      "ADAA": 8779,
      "ADAE": 8780,
      "ADBF": 8781,
      "ABEE": 8782,
      "ABAE": 8783,
      "ABCD": 8784,
      "ABBE": 8785,
      "6166": 8786,
      "6141": 8787,
      "7033": 8788,
      "7075": 8789,
      "7055": 8790,
      "7024": 8791,
      "7016": 8792,
      "7046": 8793,
      "7007": 8794,
      "7032": 8795,
      "6487": 8796,
      "6428": 8797,
      "6446": 8798,
      "7327": 8799,
      "7363": 8800,
      "7301": 8801,
      "7352": 8802,
      "7351": 8803,
      "7945": 8804,
      "7979": 8805,
      "7935": 8806,
      "7951": 8807,
      "5529": 8808,
      "5570": 8809,
      "5573": 8810,
      "5537": 8811,
      "5557": 8812,
      "5586": 8813,
      "5592": 8814,
      "FEAF": 8815,
      "BBFC": 8816,
      "BBFD": 8817,
      "BBCC": 8818,
      "BBCA": 8819,
      "BBCF": 8820,
      "BBEF": 8821,
      "DCAE": 8822,
      "DCBD": 8823,
      "DCBE": 8824,
      "1485": 8825,
      "1489": 8826,
      "1421": 8827,
      "6227": 8828,
      "6283": 8829,
      "5910": 8830,
      "5965": 8831,
      "5960": 8832,
      "5973": 8833,
      "5959": 8834,
      "5957": 8835,
      "5907": 8836,
      "5954": 8837,
      "CCEE": 8838,
      "CCAA": 8839,
      "CCDD": 8840,
      "CCCB": 8841,
      "CCBF": 8842,
      "EEFC": 8843,
      "EEAB": 8844,
      "EEFF": 8845,
      "0073": 8846,
      "0037": 8847,
      "DBEB": 8848,
      "DBFE": 8849,
      "DBDC": 8850,
      "DBEF": 8851,
      "1149": 8852,
      "AAED": 8853,
      "AAEF": 8854,
      "metro": 8855,
      "2422": 8856,
      "2468": 8857,
      "2421": 8858,
      "7425": 8859,
      "7427": 8860,
      "7418": 8861,
      "7468": 8862,
      "casablanca": 8863,
      "5010": 8864,
      "5060": 8865,
      "5050": 8866,
      "5038": 8867,
      "3019": 8868,
      "DDED": 8869,
      "DDEF": 8870,
      "6667": 8871,
      "AEED": 8872,
      "AEEC": 8873,
      "AEFF": 8874,
      "CBCB": 8875,
      "CBDA": 8876,
      "CBEA": 8877,
      "3779": 8878,
      "3714": 8879,
      "4465": 8880,
      "4444": 8881,
      "3520": 8882,
      "3534": 8883,
      "3541": 8884,
      "8810": 8885,
      "8817": 8886,
      "8846": 8887,
      "9910": 8888,
      "9919": 8889,
      "9968": 8890,
      "9914": 8891,
      "9999": 8892,
      "2165": 8893,
      "2162": 8894,
      "BCFC": 8895,
      "BCAD": 8896,
      "BCAB": 8897,
      "BCDC": 8898,
      "3822": 8899,
      "stillo": 8900,
      "2685": 8901,
      "2648": 8902,
      "CDEB": 8903,
      "CDAD": 8904,
      "CDBB": 8905,
      "CDAA": 8906,
      "CDAF": 8907,
      "0569": 8908,
      "0567": 8909,
      "0583": 8910,
      "0526": 8911,
      "ampa": 8912,
      "amil": 8913,
      "1680": 8914,
      "1625": 8915,
      "CEFA": 8916,
      "CEFE": 8917,
      "CEFF": 8918,
      "BEEC": 8919,
      "8440": 8920,
      "8467": 8921,
      "9079": 8922,
      "9035": 8923,
      "9038": 8924,
      "9046": 8925,
      "9036": 8926,
      "BAFA": 8927,
      "CAAB": 8928,
      "9549": 8929,
      "DAFC": 8930,
      "DAEB": 8931,
      "DAAD": 8932,
      "DAAB": 8933,
      "DAFF": 8934,
      "incorrectasp": 8935,
      "EAEC": 8936,
      "7862": 8937,
      "46838": 8938,
      "iran": 8939,
      "irubi": 8940,
      "4119": 8941,
      "4149": 8942,
      "8125": 8943,
      "81279": 8944,
      "stria": 8945,
      "stras": 8946,
      "4249": 8947,
      "4264": 8948,
      "5325": 8949,
      "5300": 8950,
      "5344": 8951,
      "7162": 8952,
      "9347": 8953,
      "9362": 8954,
      "8623": 8955,
      "8687": 8956,
      "8662": 8957,
      "0317": 8958,
      "0365": 8959,
      "0343": 8960,
      "0345": 8961,
      "0368": 8962,
      "7617": 8963,
      "7623": 8964,
      "7613": 8965,
      "7622": 8966,
      "7661": 8967,
      "mara": 8968,
      "maria": 8969,
      "martin": 8970,
      "5867": 8971,
      "5887": 8972,
      "indel": 8973,
      "gois": 8974,
      "0763": 8975,
      "0769": 8976,
      "0789": 8977,
      "0788": 8978,
      "3183": 8979,
      "5669": 8980,
      "9785": 8981,
      "9789": 8982,
      "9770": 8983,
      "5419": 8984,
      "08673": 8985,
      "9468": 8986,
      "3267": 8987,
      "5220": 8988,
      "0245": 8989,
      "sot": 8990,
      "0680": 8991,
      "0628": 8992,
      "9889": 8993,
      "9849": 8994,
      "5118": 8995,
      "5164": 8996,
      "tak": 8997,
      "tanga": 8998,
      "9140": 8999,
      "9168": 9000,
      "0469": 9001,
      "Confirmarany": 9002,
      "ullo": 9003,
      "umel": 9004,
      "tuweb": 9005,
      "tuperro": 9006,
      "Ġ227": 9007,
      "Alfor": 9008,
      "credito": 9009,
      "adrones": 9010,
      "botille": 9011,
      "deltamarina": 9012,
      "gama": 9013,
      "gant": 9014,
      "gado": 9015,
      "nelas": 9016,
      "Arcos": 9017,
      "Sans": 9018,
      "1236": 9019,
      "mien": 9020,
      "mili": 9021,
      "miento": 9022,
      "mitj": 9023,
      "Pacheco": 9024,
      "09043": 9025,
      "6132": 9026,
      "vez": 9027,
      "velo": 9028,
      "scula": 9029,
      "Vale": 9030,
      "Carrillo": 9031,
      "beau": 9032,
      "isch": 9033,
      "Matar": 9034,
      "Mayo": 9035,
      "versla": 9036,
      "ight": 9037,
      "Santander": 9038,
      "luca": 9039,
      "lutz": 9040,
      "yama": 9041,
      "varr": 9042,
      "Pedra": 9043,
      "expo": 9044,
      "fila": 9045,
      "fitz": 9046,
      "Monta": 9047,
      "Montan": 9048,
      "Moncayo": 9049,
      "Monasterio": 9050,
      "Burch": 9051,
      "lins": 9052,
      "27979": 9053,
      "1601": 9054,
      "Torralba": 9055,
      "1274": 9056,
      "hoya": 9057,
      "1295": 9058,
      "1298": 9059,
      "15076": 9060,
      "1890": 9061,
      "1896": 9062,
      "2630": 9063,
      "1656": 9064,
      "1136": 9065,
      "1672": 9066,
      "1479": 9067,
      "1633": 9068,
      "1201": 9069,
      "44561": 9070,
      "4432": 9071,
      "4436": 9072,
      "hein": 9073,
      "17385": 9074,
      "uerga": 9075,
      "ueruelas": 9076,
      "2436": 9077,
      "6855": 9078,
      "6203": 9079,
      "orges": 9080,
      "muscula": 9081,
      "2496": 9082,
      "lasmil": 9083,
      "lasses": 9084,
      "lasencia": 9085,
      "47327": 9086,
      "Indu": 9087,
      "vasi": 9088,
      "cki": 9089,
      "stabernero": 9090,
      "AFBA": 9091,
      "quia": 9092,
      "quina": 9093,
      "quillo": 9094,
      "19119": 9095,
      "FEBA": 9096,
      "FEBD": 9097,
      "FEBF": 9098,
      "guil": 9099,
      "1698": 9100,
      "2830": 9101,
      "Pomp": 9102,
      "chado": 9103,
      "chaye": 9104,
      "Bertil": 9105,
      "Bernau": 9106,
      "DBBC": 9107,
      "DBBE": 9108,
      "AADE": 9109,
      "EEBA": 9110,
      "EEBF": 9111,
      "DEBE": 9112,
      "DEBF": 9113,
      "EFBC": 9114,
      "CECE": 9115,
      "DDCA": 9116,
      "EFCA": 9117,
      "EFCC": 9118,
      "EFCD": 9119,
      "Corvera": 9120,
      "FFCD": 9121,
      "cup": 9122,
      "AABA": 9123,
      "BADD": 9124,
      "EFDF": 9125,
      "garri": 9126,
      "CFAA": 9127,
      "CFAF": 9128,
      "64416": 9129,
      "CFDF": 9130,
      "doceros": 9131,
      "29410": 9132,
      "BCCE": 9133,
      "BFCB": 9134,
      "BFCD": 9135,
      "BFCE": 9136,
      "BDCA": 9137,
      "BDCC": 9138,
      "BDCF": 9139,
      "Luna": 9140,
      "DFBE": 9141,
      "1611": 9142,
      "CEBE": 9143,
      "CACF": 9144,
      "68417": 9145,
      "1641": 9146,
      "2871": 9147,
      "CDEF": 9148,
      "vester": 9149,
      "Medel": 9150,
      "donnell": 9151,
      "guejos": 9152,
      "Castellar": 9153,
      "Sobre": 9154,
      "Piquer": 9155,
      "Liana": 9156,
      "Liberta": 9157,
      "inea": 9158,
      "vantes": 9159,
      "vende": 9160,
      "Bean": 9161,
      "03579": 9162,
      "34746": 9163,
      "0099": 9164,
      "drogas": 9165,
      "artalle": 9166,
      "Garros": 9167,
      "Garreta": 9168,
      "yung": 9169,
      "yuna": 9170,
      "Tala": 9171,
      "Salmer": 9172,
      "santi": 9173,
      "Vilal": 9174,
      "Velasco": 9175,
      "dydanie": 9176,
      "empe": 9177,
      "96068417": 9178,
      "azkara": 9179,
      "Goyen": 9180,
      "Damas": 9181,
      "Esplu": 9182,
      "erotic": 9183,
      "nett": 9184,
      "netti": 9185,
      "Guijo": 9186,
      "52864416": 9187,
      "paris": 9188,
      "Porto": 9189,
      "Porta": 9190,
      "brown": 9191,
      "21240": 9192,
      "Fonti": 9193,
      "Abenoza": 9194,
      "Ildef": 9195,
      "Pont": 9196,
      "tting": 9197,
      "eddydanie": 9198,
      "reak": 9199,
      "cherri": 9200,
      "Borja": 9201,
      "Bastida": 9202,
      "rizzar": 9203,
      "soybueno": 9204,
      "Baldo": 9205,
      "kins": 9206,
      "Hoz": 9207,
      "discon": 9208,
      "Galli": 9209,
      "Montserrat": 9210,
      "Andreu": 9211,
      "ajedrez": 9212,
      "shamba": 9213,
      "Hugo": 9214,
      "gestion": 9215,
      "hyer": 9216,
      "Reyes": 9217,
      "Verge": 9218,
      "grancolis": 9219,
      "Blanca": 9220,
      "enlaplaya": 9221,
      "auditar": 9222,
      "Albana": 9223,
      "palma": 9224,
      "Simon": 9225,
      "Simple": 9226,
      "universla": 9227,
      "dehadrones": 9228,
      "Ign": 9229,
      "Magdalena": 9230,
      "sindns": 9231,
      "professionalhost": 9232,
      "rubirubi": 9233,
      "iisstart": 9234,
      "Cuba": 9235,
      "dES": 9236,
      "matchball": 9237,
      "urante": 9238,
      "indote": 9239,
      "indomo": 9240,
      "Viera": 9241,
      "Vieja": 9242,
      "welcome": 9243,
      "chinavende": 9244,
      "Brun": 9245,
      "Huerva": 9246,
      "andrestabernero": 9247,
      "eyes": 9248,
      "longdon": 9249,
      "Cabeza": 9250,
      "flex": 9251,
      "fleur": 9252,
      "Arroyomolinos": 9253,
      "Matama": 9254,
      "Gregorio": 9255,
      "136414": 9256,
      "Echevarr": 9257,
      "Rubio": 9258,
      "Alcolea": 9259,
      "Riera": 9260,
      "davray": 9261,
      "Altozano": 9262,
      "blueeyes": 9263,
      "Adoraci": 9264,
      "Zorita": 9265,
      "ppert": 9266,
      "juegois": 9267,
      "dearden": 9268,
      "videoerotic": 9269,
      "Sanchis": 9270,
      "hangartalle": 9271,
      "Buenavista": 9272,
      "alquiler": 9273,
      "velazquezlarra": 9274,
      "76973319": 9275,
      "toriogratu": 9276,
      "Olivares": 9277,
      "nexuspar": 9278,
      "Cortadel": 9279,
      "cursosenlaplaya": 9280,
      "ladimir": 9281,
      "Baixada": 9282,
      "Sharim": 9283,
      "carloshoya": 9284,
      "Alfambra": 9285,
      "Diaz": 9286,
      "smith": 9287,
      "castigadas": 9288,
      "stainless": 9289,
      "tecnoindomo": 9290,
      "barnicesuv": 9291,
      "Betan": 9292,
      "Bigorra": 9293,
      "SingleSamples": 9294,
      "aperros": 9295,
      "sunglasses": 9296,
      "Calzadilla": 9297,
      "enigmatico": 9298,
      "Echaniz": 9299,
      "directoriogratu": 9300,
      "Membrives": 9301,
      "Sotorribas": 9302,
      "91059337": 9303,
      "Residencial": 9304,
      "buscadordevideos": 9305,
      "Pinilla": 9306,
      "Werner": 9307,
      "eonon": 9308,
      "private": 9309,
      "tiebreak": 9310,
      "laboca": 9311,
      "paseotuperro": 9312,
      "Collantes": 9313,
      "conmaestros": 9314,
      "ilusionari": 9315,
      "ionadordehadrones": 9316,
      "casablancabeach": 9317,
      "incorrectasparos": 9318,
      "botilleria": 9319,
      "musculares": 9320,
      "lasmilyuna": 9321,
      "chayevsky": 9322,
      "Bertilda": 9323,
      "Bernaus": 9324,
      "Goyenaga": 9325,
      "eddydaniele": 9326,
      "ajedrezconmaestros": 9327,
      "shamballa": 9328,
      "grancolisionadordehadrones": 9329,
      "hangartalleres": 9330,
      "nexuspark": 9331,
      "directoriogratuito": 9332,
      "ilusionarium": 9333,
      "/?": 9334,
      "0197": 9335,
      "0155": 9336,
      "0473": 9337,
      "0497": 9338,
      "0698": 9339,
      "0659": 9340,
      "0644": 9341,
      "0759": 9342,
      "0206": 9343,
      "0790": 9344,
      "0393": 9345,
      "1256": 9346,
      "1190": 9347,
      "1493": 9348,
      "1486": 9349,
      "2103": 9350,
      "2690": 9351,
      "2453": 9352,
      "2297": 9353,
      "2686": 9354,
      "2116": 9355,
      "3199": 9356,
      "3197": 9357,
      "3195": 9358,
      "3695": 9359,
      "3172": 9360,
      "3697": 9361,
      "3433": 9362,
      "3498": 9363,
      "3603": 9364,
      "3276": 9365,
      "3894": 9366,
      "3692": 9367,
      "3244": 9368,
      "3871": 9369,
      "3481": 9370,
      "3808": 9371,
      "4130": 9372,
      "4170": 9373,
      "4230": 9374,
      "4159": 9375,
      "4109": 9376,
      "4228": 9377,
      "4698": 9378,
      "4678": 9379,
      "4898": 9380,
      "5175": 9381,
      "5159": 9382,
      "5450": 9383,
      "5254": 9384,
      "5695": 9385,
      "5433": 9386,
      "5277": 9387,
      "5205": 9388,
      "5684": 9389,
      "5482": 9390,
      "5378": 9391,
      "5754": 9392,
      "6270": 9393,
      "6221": 9394,
      "6271": 9395,
      "6170": 9396,
      "6237": 9397,
      "6493": 9398,
      "6109": 9399,
      "6490": 9400,
      "6498": 9401,
      "6686": 9402,
      "7234": 9403,
      "7805": 9404,
      "7273": 9405,
      "7688": 9406,
      "7142": 9407,
      "7850": 9408,
      "7855": 9409,
      "7224": 9410,
      "7693": 9411,
      "7479": 9412,
      "7684": 9413,
      "7208": 9414,
      "7406": 9415,
      "7641": 9416,
      "7656": 9417,
      "8170": 9418,
      "8153": 9419,
      "8275": 9420,
      "8875": 9421,
      "8299": 9422,
      "8172": 9423,
      "8141": 9424,
      "8835": 9425,
      "8893": 9426,
      "8478": 9427,
      "8839": 9428,
      "8146": 9429,
      "8288": 9430,
      "8682": 9431,
      "8808": 9432,
      "9153": 9433,
      "9135": 9434,
      "9133": 9435,
      "9107": 9436,
      "9178": 9437,
      "9850": 9438,
      "9877": 9439,
      "9655": 9440,
      "9095": 9441,
      "9474": 9442,
      "9894": 9443,
      "9550": 9444,
      "9094": 9445,
      "9898": 9446,
      "9595": 9447,
      "9797": 9448,
      "9336": 9449,
      "Ap": 9450,
      "Ade": 9451,
      "Alen": 9452,
      "AFAB": 9453,
      "AEDF": 9454,
      "Aure": 9455,
      "Atico": 9456,
      "Amine": 9457,
      "Bs": 9458,
      "BLe": 9459,
      "BACB": 9460,
      "BAEA": 9461,
      "Boni": 9462,
      "Bello": 9463,
      "Betti": 9464,
      "Bages": 9465,
      "Cro": 9466,
      "Cid": 9467,
      "CFEE": 9468,
      "CEEE": 9469,
      "CEEA": 9470,
      "Dag": 9471,
      "Dal": 9472,
      "Dul": 9473,
      "DEDF": 9474,
      "DACE": 9475,
      "DECC": 9476,
      "DECF": 9477,
      "Dani": 9478,
      "Dic": 9479,
      "Ei": 9480,
      "Ele": 9481,
      "EEDB": 9482,
      "EACC": 9483,
      "EECD": 9484,
      "EECB": 9485,
      "FAg": 9486,
      "Fba": 9487,
      "FFEE": 9488,
      "FFEA": 9489,
      "Gio": 9490,
      "Gara": 9491,
      "Ido": 9492,
      "Iri": 9493,
      "Km": 9494,
      "Lon": 9495,
      "ME": 9496,
      "Meng": 9497,
      "Mus": 9498,
      "Mex": 9499,
      "Mut": 9500,
      "Nos": 9501,
      "Nad": 9502,
      "Noria": 9503,
      "NtE": 9504,
      "Nurn": 9505,
      "Nelma": 9506,
      "Ost": 9507,
      "Open": 9508,
      "Pur": 9509,
      "Pall": 9510,
      "Rion": 9511,
      "SA": 9512,
      "Sto": 9513,
      "Sas": 9514,
      "Tal": 9515,
      "Tir": 9516,
      "Ud": 9517,
      "Uni": 9518,
      "Wil": 9519,
      "Yu": 9520,
      "Yami": 9521,
      "Yuli": 9522,
      "Ze": 9523,
      "aL": 9524,
      "aM": 9525,
      "acar": 9526,
      "acor": 9527,
      "aquin": 9528,
      "bI": 9529,
      "bina": 9530,
      "bier": 9531,
      "buena": 9532,
      "cet": 9533,
      "dI": 9534,
      "daga": 9535,
      "dEs": 9536,
      "dart": 9537,
      "eche": 9538,
      "eden": 9539,
      "evol": 9540,
      "fE": 9541,
      "fl": 9542,
      "fau": 9543,
      "fani": 9544,
      "gad": 9545,
      "gru": 9546,
      "gley": 9547,
      "gger": 9548,
      "iu": 9549,
      "icode": 9550,
      "ista": 9551,
      "illas": 9552,
      "jac": 9553,
      "kal": 9554,
      "kun": 9555,
      "kis": 9556,
      "mde": 9557,
      "nd": 9558,
      "nn": 9559,
      "nag": 9560,
      "oc": 9561,
      "ote": 9562,
      "oto": 9563,
      "ova": 9564,
      "odes": 9565,
      "pn": 9566,
      "pino": 9567,
      "pus": 9568,
      "pier": 9569,
      "pura": 9570,
      "part": 9571,
      "rti": 9572,
      "rina": 9573,
      "sing": 9574,
      "sinc": 9575,
      "schi": 9576,
      "tag": 9577,
      "tchar": 9578,
      "uto": 9579,
      "utivo": 9580,
      "vA": 9581,
      "vy": 9582,
      "vra": 9583,
      "vill": 9584,
      "vento": 9585,
      "wie": 9586,
      "wart": 9587,
      "xe": 9588,
      "ytv": 9589,
      "zen": 9590,
      "zing": 9591,
      "zer": 9592,
      "zam": 9593,
      "zman": 9594,
      "zheim": 9595,
      "Ġ48": 9596,
      "Ġ88": 9597,
      "Ġ21": 9598,
      "Ġ93": 9599,
      "Ġ130": 9600,
      "Ġ129": 9601,
      "Ġ105": 9602,
      "Ġ117": 9603,
      "Ġ308": 9604,
      "onell": 9605,
      "online": 9606,
      "onorato": 9607,
      "carell": 9608,
      "tepeines": 9609,
      "tir": 9610,
      "tiana": 9611,
      "tipos": 9612,
      "tintas": 9613,
      "tivos": 9614,
      "ossantcu": 9615,
      "laur": 9616,
      "labios": 9617,
      "8033": 9618,
      "8009": 9619,
      "8030": 9620,
      "8057": 9621,
      "enh": 9622,
      "enq": 9623,
      "enan": 9624,
      "ender": 9625,
      "encu": 9626,
      "lic": 9627,
      "liti": 9628,
      "lidad": 9629,
      "lini": 9630,
      "lita": 9631,
      "litz": 9632,
      "iner": 9633,
      "agn": 9634,
      "agos": 9635,
      "chon": 9636,
      "chen": 9637,
      "chid": 9638,
      "chetti": 9639,
      "zia": 9640,
      "zim": 9641,
      "coN": 9642,
      "core": 9643,
      "covan": 9644,
      "coesp": 9645,
      "roe": 9646,
      "roz": 9647,
      "dem": 9648,
      "della": 9649,
      "deri": 9650,
      "deros": 9651,
      "deman": 9652,
      "detti": 9653,
      "deenlaces": 9654,
      "dedrogas": 9655,
      "aptea": 9656,
      "lola": 9657,
      "ect": 9658,
      "sepul": 9659,
      "ngo": 9660,
      "latelia": 9661,
      "arn": 9662,
      "ardi": 9663,
      "Constan": 9664,
      "Condado": 9665,
      "Constitu": 9666,
      "daca": 9667,
      "dambo": 9668,
      "ield": 9669,
      "trodo": 9670,
      "leb": 9671,
      "mack": 9672,
      "matal": 9673,
      "maxi": 9674,
      "maquilla": 9675,
      "pad": 9676,
      "pablo": 9677,
      "uevo": 9678,
      "Caso": 9679,
      "Camin": 9680,
      "Cabra": 9681,
      "server": 9682,
      "Enrico": 9683,
      "Enrique": 9684,
      "Encini": 9685,
      "comod": 9686,
      "Coev": 9687,
      "ket": 9688,
      "kemp": 9689,
      "kemujeres": 9690,
      "queria": 9691,
      "More": 9692,
      "Moran": 9693,
      "Moya": 9694,
      "Moral": 9695,
      "Molinos": 9696,
      "Moeche": 9697,
      "conoce": 9698,
      "Char": 9699,
      "tpis": 9700,
      "placere": 9701,
      "Hosta": 9702,
      "tiendasy": 9703,
      "reh": 9704,
      "redes": 9705,
      "spo": 9706,
      "spor": 9707,
      "orana": 9708,
      "ubo": 9709,
      "cic": 9710,
      "ciosa": 9711,
      "city": 9712,
      "2525": 9713,
      "2513": 9714,
      "2583": 9715,
      "2548": 9716,
      "2594": 9717,
      "2591": 9718,
      "doza": 9719,
      "dock": 9720,
      "domia": 9721,
      "4020": 9722,
      "4079": 9723,
      "4034": 9724,
      "4093": 9725,
      "4051": 9726,
      "4091": 9727,
      "40174": 9728,
      "rile": 9729,
      "rius": 9730,
      "peda": 9731,
      "2765": 9732,
      "2775": 9733,
      "2779": 9734,
      "2766": 9735,
      "2744": 9736,
      "2784": 9737,
      "2708": 9738,
      "2751": 9739,
      "mot": 9740,
      "moyna": 9741,
      "card": 9742,
      "lengua": 9743,
      "tho": 9744,
      "escar": 9745,
      "esbien": 9746,
      "als": 9747,
      "aly": 9748,
      "alsele": 9749,
      "rose": 9750,
      "ande": 9751,
      "1049": 9752,
      "1012": 9753,
      "1055": 9754,
      "1035": 9755,
      "1093": 9756,
      "1032": 9757,
      "10189": 9758,
      "dador": 9759,
      "2978": 9760,
      "2993": 9761,
      "2986": 9762,
      "2952": 9763,
      "2996": 9764,
      "29189": 9765,
      "recilla": 9766,
      "1717": 9767,
      "1787": 9768,
      "1712": 9769,
      "1724": 9770,
      "1750": 9771,
      "1735": 9772,
      "1726": 9773,
      "1731": 9774,
      "1708": 9775,
      "1732": 9776,
      "1752": 9777,
      "1704": 9778,
      "2320": 9779,
      "2312": 9780,
      "2375": 9781,
      "2328": 9782,
      "2330": 9783,
      "2326": 9784,
      "2386": 9785,
      "2308": 9786,
      "2396": 9787,
      "elcorte": 9788,
      "6323": 9789,
      "6369": 9790,
      "6320": 9791,
      "6312": 9792,
      "6348": 9793,
      "6374": 9794,
      "6337": 9795,
      "6341": 9796,
      "6386": 9797,
      "1310": 9798,
      "1319": 9799,
      "1347": 9800,
      "1328": 9801,
      "1362": 9802,
      "1324": 9803,
      "1393": 9804,
      "1303": 9805,
      "1354": 9806,
      "1352": 9807,
      "1398": 9808,
      "8540": 9809,
      "8565": 9810,
      "8520": 9811,
      "8562": 9812,
      "8559": 9813,
      "8516": 9814,
      "8595": 9815,
      "8578": 9816,
      "8556": 9817,
      "1537": 9818,
      "1503": 9819,
      "1531": 9820,
      "1594": 9821,
      "toan": 9822,
      "6963": 9823,
      "6964": 9824,
      "6924": 9825,
      "6935": 9826,
      "6972": 9827,
      "6903": 9828,
      "6976": 9829,
      "6991": 9830,
      "6565": 9831,
      "6579": 9832,
      "6599": 9833,
      "6541": 9834,
      "6504": 9835,
      "4380": 9836,
      "4385": 9837,
      "4369": 9838,
      "4355": 9839,
      "4394": 9840,
      "4392": 9841,
      "6727": 9842,
      "6718": 9843,
      "6734": 9844,
      "6731": 9845,
      "6792": 9846,
      "ssig": 9847,
      "1925": 9848,
      "1910": 9849,
      "1913": 9850,
      "1967": 9851,
      "1909": 9852,
      "1914": 9853,
      "1962": 9854,
      "1924": 9855,
      "1935": 9856,
      "1992": 9857,
      "1951": 9858,
      "4723": 9859,
      "4749": 9860,
      "4712": 9861,
      "4748": 9862,
      "4761": 9863,
      "4741": 9864,
      "4753": 9865,
      "4782": 9866,
      "4708": 9867,
      "47494": 9868,
      "8710": 9869,
      "8713": 9870,
      "8718": 9871,
      "8759": 9872,
      "8700": 9873,
      "8744": 9874,
      "8716": 9875,
      "8790": 9876,
      "8786": 9877,
      "8797": 9878,
      "8754": 9879,
      "8752": 9880,
      "8791": 9881,
      "2025": 9882,
      "2040": 9883,
      "2085": 9884,
      "2083": 9885,
      "2058": 9886,
      "2051": 9887,
      "4565": 9888,
      "4567": 9889,
      "4519": 9890,
      "4583": 9891,
      "4555": 9892,
      "4526": 9893,
      "4572": 9894,
      "4542": 9895,
      "4536": 9896,
      "4552": 9897,
      "6055": 9898,
      "6030": 9899,
      "6044": 9900,
      "6071": 9901,
      "6056": 9902,
      "6052": 9903,
      "6051": 9904,
      "8983": 9905,
      "8918": 9906,
      "8928": 9907,
      "8988": 9908,
      "8978": 9909,
      "8981": 9910,
      "8982": 9911,
      "8986": 9912,
      "8908": 9913,
      "8345": 9914,
      "8322": 9915,
      "8348": 9916,
      "8344": 9917,
      "ille": 9918,
      "4977": 9919,
      "4941": 9920,
      "4931": 9921,
      "4956": 9922,
      "4954": 9923,
      "4998": 9924,
      "491003": 9925,
      "nik": 9926,
      "nifi": 9927,
      "nikemujeres": 9928,
      "2289": 9929,
      "2224": 9930,
      "2266": 9931,
      "EDFC": 9932,
      "EDneo": 9933,
      "Rei": 9934,
      "Remi": 9935,
      "adix": 9936,
      "idos": 9937,
      "3989": 9938,
      "3933": 9939,
      "3948": 9940,
      "3930": 9941,
      "3908": 9942,
      "3901": 9943,
      "FAFC": 9944,
      "FAAA": 9945,
      "FAAF": 9946,
      "FACA": 9947,
      "FABF": 9948,
      "ECFE": 9949,
      "ECAE": 9950,
      "FCEC": 9951,
      "FCDE": 9952,
      "FCCD": 9953,
      "FCBA": 9954,
      "FCCA": 9955,
      "FCDA": 9956,
      "FCEF": 9957,
      "1227": 9958,
      "1264": 9959,
      "1288": 9960,
      "FBFC": 9961,
      "FBDB": 9962,
      "FBDD": 9963,
      "FBBA": 9964,
      "FBEA": 9965,
      "3367": 9966,
      "3345": 9967,
      "3384": 9968,
[...]
